<unk>	0
<s>	0
</s>	0
▁the	-3.11966
,	-3.25699
.	-3.31585
▁of	-3.82583
▁and	-3.8712
▁to	-3.8807
s	-4.14912
▁a	-4.22954
▁in	-4.29534
▁is	-4.55673
▁for	-4.90953
-	-4.96977
▁that	-5.05901
▁with	-5.08531
▁you	-5.13022
▁on	-5.26545
▁The	-5.28132
'	-5.30027
▁are	-5.35436
▁be	-5.40386
▁as	-5.42601
▁it	-5.52122
:	-5.55437
▁(	-5.5846
▁from	-5.59841
▁or	-5.60688
▁by	-5.63743
▁can	-5.66199
▁this	-5.66548
▁will	-5.71407
▁I	-5.7275
▁not	-5.75091
▁your	-5.77924
▁"	-5.78955
)	-5.83236
▁at	-5.8538
▁have	-5.8973
▁was	-5.96485
▁	-5.97105
▁an	-6.08359
▁-	-6.13458
ing	-6.1594
"	-6.1989
▁has	-6.22136
▁we	-6.24155
▁which	-6.26523
ed	-6.32384
▁our	-6.35745
▁also	-6.39052
▁In	-6.39392
▁We	-6.40116
▁all	-6.40314
▁use	-6.41425
t	-6.43572
▁This	-6.50996
▁but	-6.53635
▁A	-6.5443
▁their	-6.55965
▁file	-6.58552
▁time	-6.58805
d	-6.5883
▁more	-6.59287
?	-6.59766
▁|	-6.60144
▁one	-6.60625
▁other	-6.66993
▁It	-6.67824
▁about	-6.70826
▁they	-6.75768
▁any	-6.77328
▁so	-6.80631
▁when	-6.83152
▁If	-6.83177
▁its	-6.83574
▁do	-6.84208
▁may	-6.87174
▁:	-6.87663
▁there	-6.88964
▁new	-6.8941
▁if	-6.90588
▁information	-6.90938
!	-6.9161
▁data	-6.91837
▁been	-6.92842
▁up	-6.93419
▁only	-6.94387
▁such	-6.94683
/	-6.96919
▁who	-6.98401
▁into	-7.01603
▁Japan	-7.02343
▁out	-7.03577
▁You	-7.07951
▁people	-7.07984
▁his	-7.08275
ly	-7.11033
e	-7.13432
▁were	-7.13916
▁he	-7.14257
▁system	-7.14634
▁these	-7.14926
S	-7.16282
▁used	-7.17487
er	-7.1753
▁than	-7.17885
▁like	-7.18516
▁world	-7.19407
▁us	-7.20754
▁them	-7.224
▁first	-7.22936
▁no	-7.23129
;	-7.23479
▁well	-7.24343
▁very	-7.25843
▁–	-7.25872
▁most	-7.2619
▁my	-7.26955
▁should	-7.28002
▁make	-7.28269
▁after	-7.28599
▁would	-7.28702
▁many	-7.30879
▁had	-7.32305
▁years	-7.32566
▁over	-7.32568
▁what	-7.32862
▁some	-7.32939
▁site	-7.34675
▁where	-7.34869
▁through	-7.36106
y	-7.36274
m	-7.36697
).	-7.38625
▁using	-7.41407
▁see	-7.4185
a	-7.42736
▁two	-7.42908
▁1	-7.4324
▁then	-7.43356
▁[	-7.44336
▁different	-7.44382
▁.	-7.45014
▁3	-7.4535
▁To	-7.45645
▁want	-7.46761
▁now	-7.47015
▁For	-7.47695
▁find	-7.48008
▁how	-7.48297
▁even	-7.50209
▁high	-7.5089
▁files	-7.51421
▁Japanese	-7.51719
]	-7.52326
▁her	-7.52452
re	-7.53266
▁work	-7.53718
▁part	-7.54568
▁open	-7.54974
in	-7.55209
th	-7.55472
▁way	-7.55498
▁number	-7.56618
▁need	-7.56952
▁2	-7.57047
▁each	-7.57209
▁S	-7.57893
com	-7.58017
▁services	-7.58655
al	-7.59445
▁get	-7.59468
▁order	-7.60781
▁Rome	-7.60889
▁/	-7.61787
▁products	-7.62321
▁page	-7.62402
▁set	-7.63302
▁between	-7.63937
▁made	-7.64843
▁just	-7.64927
▁year	-7.65011
o	-7.6526
▁service	-7.6601
▁same	-7.66474
▁name	-7.66486
▁place	-7.67524
▁water	-7.67854
r	-7.67856
▁including	-7.68459
n	-7.68507
▁extension	-7.68693
i	-7.69327
▁go	-7.69497
D	-7.69734
▁download	-7.70158
▁because	-7.70209
A	-7.7035
C	-7.70868
▁personal	-7.70901
▁around	-7.71081
▁best	-7.71383
▁me	-7.7206
▁available	-7.72158
▁When	-7.72836
),	-7.7316
▁take	-7.73482
▁help	-7.738
▁before	-7.74455
▁car	-7.74761
▁right	-7.75195
▁under	-7.76014
▁How	-7.76108
▁day	-7.76753
es	-7.76884
▁No	-7.77213
▁does	-7.7772
▁during	-7.77942
▁those	-7.78424
▁good	-7.78555
or	-7.78984
▁change	-7.79003
▁C	-7.79524
▁As	-7.79649
▁here	-7.79676
▁All	-7.80486
▁support	-7.81234
g	-7.8127
▁being	-7.82928
2	-7.82969
▁'	-7.83156
▁back	-7.83164
▁still	-7.83318
▁5	-7.84737
▁free	-7.85095
▁There	-7.8513
▁&	-7.85481
▁quality	-7.85665
▁must	-7.85927
▁business	-7.86155
▁long	-7.86551
to	-7.86813
▁without	-7.87459
▁provide	-7.88242
▁video	-7.88268
▁case	-7.88421
▁could	-7.88761
▁image	-7.88919
▁own	-7.89164
▁computer	-7.89368
▁user	-7.90006
▁10	-7.90475
▁He	-7.91416
_	-7.91865
▁However	-7.92106
▁area	-7.92129
▁life	-7.92145
▁problem	-7.92669
▁B	-7.93465
▁while	-7.94449
▁Please	-7.94464
▁special	-7.94814
▁But	-7.94847
▁company	-7.95066
▁said	-7.95776
▁experience	-7.96453
▁On	-7.9671
▁days	-7.96962
▁know	-7.96994
▁website	-7.98408
▁contact	-7.98803
▁And	-7.9891
The	-7.99115
▁please	-8.00622
▁E	-8.0156
".	-8.01727
▁last	-8.0174
▁old	-8.01826
▁application	-8.02059
▁New	-8.02561
▁Free	-8.02696
▁both	-8.02807
▁local	-8.02882
▁much	-8.03964
▁process	-8.04282
c	-8.04454
▁4	-8.05029
I	-8.05259
▁down	-8.05959
▁program	-8.06225
▁development	-8.06342
▁great	-8.073
G	-8.07439
▁possible	-8.07674
▁At	-8.0777
▁re	-8.08015
▁following	-8.08404
▁three	-8.08612
▁group	-8.09028
▁With	-8.0942
▁start	-8.0956
▁small	-8.09771
▁project	-8.09979
▁U	-8.10448
F	-8.10494
▁important	-8.1054
▁point	-8.10734
▁They	-8.11669
▁within	-8.11809
▁type	-8.11961
▁content	-8.12288
▁market	-8.12486
▁What	-8.12829
3	-8.13418
▁18	-8.13788
▁every	-8.14377
▁power	-8.14905
▁large	-8.15377
▁city	-8.15428
▁offer	-8.15627
▁countries	-8.15655
▁videos	-8.15786
▁product	-8.15969
▁list	-8.16305
▁end	-8.17122
▁color	-8.17325
▁come	-8.17771
▁software	-8.17876
▁show	-8.18083
▁create	-8.18142
▁online	-8.18192
▁times	-8.18311
▁access	-8.18362
▁N	-8.18498
▁design	-8.18723
▁China	-8.18871
▁T	-8.18946
▁Tokyo	-8.19337
▁she	-8.19669
▁full	-8.197
▁able	-8.20382
▁watches	-8.20414
▁did	-8.20681
ve	-8.20953
B	-8.21167
(	-8.21283
▁per	-8.21285
▁example	-8.21298
h	-8.2165
T	-8.21988
▁material	-8.22405
▁Information	-8.22941
ll	-8.23277
▁So	-8.23371
p	-8.23447
▁various	-8.23633
▁found	-8.23708
▁always	-8.23936
on	-8.24273
▁G	-8.25498
▁above	-8.25871
▁settings	-8.25995
▁problems	-8.26505
▁control	-8.26889
ers	-8.2702
▁another	-8.27059
▁7	-8.27161
▁based	-8.274
▁X	-8.27542
▁Earth	-8.27605
▁become	-8.2792
▁20	-8.27949
▁Select	-8.28226
▁Our	-8.28406
▁next	-8.28441
."	-8.28486
▁him	-8.29055
▁international	-8.29327
▁think	-8.29506
▁off	-8.29706
▁level	-8.29762
E	-8.2983
▁World	-8.3011
able	-8.30138
▁country	-8.30211
▁since	-8.30344
▁F	-8.30388
P	-8.30739
▁cannot	-8.30755
▁University	-8.30873
▁real	-8.31078
▁click	-8.31092
K	-8.31141
▁team	-8.31179
▁s	-8.31301
▁research	-8.3159
▁D	-8.31896
▁technology	-8.32296
▁known	-8.32521
▁Site	-8.32531
▁changes	-8.32648
▁e	-8.33198
▁6	-8.33349
▁These	-8.33406
▁look	-8.33429
▁dollar	-8.33812
▁M	-8.34256
▁top	-8.34842
▁line	-8.34962
▁error	-8.35833
▁working	-8.35944
▁O	-8.36191
▁P	-8.36409
▁body	-8.36479
▁called	-8.36497
▁size	-8.36509
▁value	-8.36831
▁public	-8.36846
▁below	-8.37165
▁International	-8.37213
▁After	-8.37256
▁am	-8.3753
▁H	-8.37568
▁view	-8.37846
▁few	-8.37916
▁select	-8.38171
▁give	-8.3859
k	-8.39288
▁addition	-8.39298
▁home	-8.39787
▁third	-8.39982
▁course	-8.40113
▁game	-8.40123
▁again	-8.40138
▁etc	-8.4036
▁My	-8.40742
l	-8.40963
▁red	-8.4124
V	-8.41402
▁hotel	-8.41598
▁allows	-8.41673
▁side	-8.42555
▁light	-8.42572
▁de	-8.42894
▁too	-8.43029
▁event	-8.43468
▁necessary	-8.43656
▁main	-8.43664
▁form	-8.43675
▁US	-8.43709
▁device	-8.43836
▁V	-8.44237
▁due	-8.44482
▁left	-8.44953
b	-8.4501
▁current	-8.4515
▁person	-8.45327
▁companies	-8.45366
the	-8.45614
M	-8.45805
▁Typhoon	-8.46014
▁2016	-8.46325
en	-8.46439
▁replica	-8.46553
▁K	-8.46571
▁R	-8.46924
▁looking	-8.47128
▁By	-8.4733
▁account	-8.47428
▁law	-8.48165
▁making	-8.4837
an	-8.48484
up	-8.48494
no	-8.488
▁really	-8.4886
▁future	-8.48926
▁space	-8.49161
▁hand	-8.49495
▁price	-8.49568
▁already	-8.49639
x	-8.49639
▁field	-8.498
▁customer	-8.50393
▁little	-8.50424
▁allow	-8.50601
▁selected	-8.50701
▁popular	-8.50999
▁include	-8.51537
▁built	-8.51629
▁screen	-8.51649
▁run	-8.51839
▁network	-8.52009
▁specific	-8.52137
▁region	-8.52198
▁activities	-8.52438
▁watch	-8.52552
▁put	-8.52629
▁button	-8.52659
▁media	-8.53023
▁un	-8.53148
▁along	-8.53396
▁held	-8.53646
▁features	-8.53711
▁environment	-8.53803
4	-8.54073
▁Service	-8.54767
▁appropriate	-8.54884
1	-8.55035
▁Transfer	-8.5516
▁types	-8.55198
▁function	-8.5525
▁building	-8.55494
▁downloading	-8.55524
▁programs	-8.55757
▁production	-8.55861
▁things	-8.55999
▁means	-8.56028
▁users	-8.56175
▁human	-8.56382
▁second	-8.56537
▁don	-8.56677
▁Photos	-8.56843
W	-8.57115
▁rate	-8.57117
▁today	-8.57198
u	-8.57223
▁share	-8.57259
▁City	-8.5728
▁Stock	-8.57653
▁8	-8.57749
▁least	-8.57812
▁performance	-8.57851
▁several	-8.58065
▁together	-8.58081
▁30	-8.58314
▁OF	-8.58647
▁man	-8.58656
▁food	-8.58662
▁children	-8.58849
▁version	-8.58908
▁something	-8.58948
▁away	-8.59085
▁required	-8.59159
▁further	-8.59275
it	-8.59403
▁play	-8.59799
▁low	-8.59813
▁period	-8.59903
▁check	-8.59957
▁option	-8.60002
▁room	-8.60404
▁until	-8.60596
▁enjoy	-8.60705
▁Windows	-8.60821
H	-8.60893
N	-8.60997
▁feel	-8.61045
▁better	-8.61164
▁South	-8.61522
8	-8.61545
▁everyone	-8.61558
▁delivery	-8.61577
▁add	-8.61683
▁standard	-8.61717
ation	-8.61777
▁young	-8.61835
▁images	-8.61836
▁energy	-8.62146
▁items	-8.62279
▁started	-8.62333
▁Chinese	-8.62467
▁industry	-8.62701
▁family	-8.62856
▁God	-8.63046
▁security	-8.63094
▁result	-8.63538
▁12	-8.63572
▁global	-8.63595
▁management	-8.63655
▁lot	-8.63692
▁against	-8.63789
▁easy	-8.64168
co	-8.64302
▁Re	-8.64306
▁details	-8.64474
▁sites	-8.64526
▁range	-8.64551
▁sea	-8.6466
le	-8.64979
▁section	-8.64982
▁private	-8.65297
▁W	-8.65309
▁displayed	-8.65416
▁tool	-8.65444
▁store	-8.6555
▁located	-8.65623
▁often	-8.65738
▁detective	-8.65807
▁shall	-8.65853
ic	-8.65884
▁THE	-8.65885
▁cause	-8.65889
▁Co	-8.65977
▁done	-8.66033
▁rental	-8.66069
▁offers	-8.66262
▁created	-8.66339
▁Yun	-8.66377
▁transfer	-8.66479
▁history	-8.6653
▁Your	-8.66649
▁email	-8.66793
▁15	-8.66872
▁past	-8.67167
▁address	-8.67228
...	-8.6727
▁Digital	-8.67323
▁installed	-8.67679
ity	-8.67691
▁say	-8.67744
▁hard	-8.67924
▁Cookies	-8.67926
▁visit	-8.67963
O	-8.67988
▁Center	-8.681
▁travel	-8.68153
▁Then	-8.68187
▁minutes	-8.68188
▁review	-8.68244
R	-8.68358
▁L	-8.6841
▁tap	-8.68414
▁results	-8.6843
▁text	-8.68435
▁men	-8.68593
▁operating	-8.68768
▁going	-8.68889
▁might	-8.69135
▁Do	-8.69242
▁women	-8.69243
▁hotels	-8.6935
▁linked	-8.69712
▁choose	-8.69832
▁display	-8.70203
Y	-8.70206
▁save	-8.70211
▁fact	-8.70222
▁live	-8.70453
▁tab	-8.70457
▁beautiful	-8.70464
▁agree	-8.7058
▁leading	-8.70995
▁government	-8.7108
▁ensure	-8.71154
▁key	-8.7122
ion	-8.71293
▁students	-8.71342
▁having	-8.7136
▁materials	-8.71774
▁understand	-8.71884
▁One	-8.7211
▁care	-8.72126
▁non	-8.72554
▁contains	-8.73305
▁members	-8.73358
▁link	-8.73655
▁location	-8.73656
L	-8.73703
▁keep	-8.73935
▁send	-8.7395
▁date	-8.73968
▁An	-8.74122
▁given	-8.74175
▁white	-8.74653
▁Use	-8.74741
▁position	-8.74866
▁flowers	-8.74893
▁works	-8.75005
▁million	-8.75051
▁...	-8.75356
ro	-8.75409
▁music	-8.75668
▁applications	-8.75856
▁search	-8.7609
▁air	-8.7614
▁present	-8.76152
▁Airport	-8.76312
▁opening	-8.76324
▁provided	-8.76462
▁item	-8.76572
▁Group	-8.76739
▁via	-8.76777
▁common	-8.76907
▁money	-8.76954
▁single	-8.76962
▁driver	-8.76977
▁once	-8.77287
▁increase	-8.77551
▁purposes	-8.77594
▁among	-8.7771
▁customers	-8.7786
▁style	-8.78004
▁unique	-8.78128
▁areas	-8.78201
▁natural	-8.78491
X	-8.78569
▁protection	-8.78687
▁source	-8.78696
▁File	-8.78836
▁reason	-8.7884
▁Aurotek	-8.78964
▁never	-8.79194
▁questions	-8.7923
▁came	-8.79266
na	-8.79386
▁brand	-8.79408
▁sound	-8.7995
▁improve	-8.80192
▁heart	-8.8021
▁total	-8.80316
▁sure	-8.80444
▁needs	-8.80459
▁close	-8.8055
▁continue	-8.80562
▁model	-8.8068
▁four	-8.80749
▁From	-8.80825
▁front	-8.80831
▁United	-8.80928
f	-8.81057
▁note	-8.81377
▁community	-8.81405
▁original	-8.81497
▁systems	-8.81593
▁makes	-8.81711
▁love	-8.81802
▁format	-8.81926
ness	-8.81938
▁school	-8.81981
▁center	-8.82084
▁big	-8.82141
▁series	-8.82284
▁far	-8.82402
▁state	-8.82415
▁night	-8.82491
▁track	-8.82623
▁rules	-8.82659
▁purpose	-8.82662
▁reservation	-8.83128
▁method	-8.83298
▁menu	-8.83339
st	-8.83346
ment	-8.83355
▁famous	-8.83431
ta	-8.83491
▁kind	-8.8355
▁whole	-8.83572
ri	-8.83762
▁conditions	-8.83767
▁shown	-8.8387
ma	-8.83984
▁professional	-8.84041
▁Korea	-8.84125
ra	-8.84601
6	-8.84754
▁rights	-8.84784
▁hours	-8.84835
▁solution	-8.84942
▁devices	-8.85217
▁directly	-8.85239
▁why	-8.85393
▁server	-8.85543
▁major	-8.85761
▁interest	-8.8577
▁events	-8.85865
▁simple	-8.86028
J	-8.86239
▁less	-8.86245
▁2017	-8.86246
▁Asia	-8.86509
▁easily	-8.86589
▁read	-8.86597
▁stores	-8.8663
▁Hotel	-8.86631
▁certain	-8.86709
▁amount	-8.87302
▁face	-8.87397
▁early	-8.8764
▁provides	-8.87761
▁100	-8.87846
▁p	-8.87969
▁inside	-8.88067
▁seen	-8.88075
▁hot	-8.88101
▁let	-8.88326
▁request	-8.88418
▁Internet	-8.88454
5	-8.88469
▁complete	-8.8897
▁later	-8.89071
▁9	-8.89082
▁code	-8.89133
▁near	-8.89185
▁pages	-8.8952
▁parts	-8.89549
▁That	-8.89703
▁Open	-8.899
▁outside	-8.90298
and	-8.90323
▁19	-8.90355
▁She	-8.90361
▁Click	-8.90415
▁processing	-8.90983
ji	-8.91184
▁J	-8.91187
▁art	-8.91197
▁<	-8.91329
▁try	-8.91509
man	-8.91671
▁frame	-8.91756
▁wish	-8.91774
▁includes	-8.91801
▁Sun	-8.91815
▁National	-8.91825
▁road	-8.91901
▁box	-8.92054
▁language	-8.92154
ex	-8.92234
▁taken	-8.92257
▁flower	-8.92402
▁elements	-8.92481
▁receive	-8.92546
▁went	-8.92658
▁study	-8.92766
▁*	-8.92844
▁meet	-8.93087
▁Italy	-8.93227
▁i	-8.93245
▁developed	-8.93265
▁Fiumicino	-8.93436
▁OR	-8.93555
▁photos	-8.93558
▁short	-8.93807
▁shows	-8.94115
us	-8.94175
▁11	-8.94188
▁economic	-8.94357
▁About	-8.94998
▁equipment	-8.95146
▁mind	-8.95192
▁difference	-8.95374
▁inconvenience	-8.95387
▁English	-8.95434
Japan	-8.9586
▁move	-8.95921
▁uses	-8.96138
▁house	-8.96168
▁wallpaper	-8.96187
▁included	-8.96216
▁Data	-8.96486
▁card	-8.9656
at	-8.96786
▁mobile	-8.96901
▁web	-8.97095
▁extensions	-8.97114
▁general	-8.97218
▁report	-8.97254
▁mountain	-8.97295
▁social	-8.97323
▁associated	-8.97432
▁guarantee	-8.9744
▁class	-8.97457
",	-8.97616
▁won	-8.97762
▁issues	-8.97871
▁cases	-8.97937
▁temperature	-8.98339
▁Planet	-8.98367
▁culture	-8.98389
ive	-8.98521
▁article	-8.9854
▁Sorry	-8.98602
▁oil	-8.9869
de	-8.9884
▁TO	-8.98942
▁modern	-8.99026
▁almost	-8.99065
▁connection	-8.99093
▁automatically	-8.99128
▁whether	-8.9923
▁carefully	-8.99236
▁comes	-8.99377
▁Since	-8.99545
▁head	-8.99591
net	-8.99666
▁May	-8.99669
▁enter	-8.99679
,"	-8.99804
▁plants	-9.00039
ko	-9.00051
▁pre	-9.00076
▁traditional	-9.00391
▁effect	-9.00415
▁others	-9.00459
▁coped	-9.00643
▁photo	-9.00803
te	-9.0094
▁land	-9.01043
▁hold	-9.01221
▁yen	-9.01244
▁actual	-9.01294
▁across	-9.0142
▁camera	-9.01428
▁book	-9.01433
▁designed	-9.01546
ne	-9.0162
▁safety	-9.01653
▁thing	-9.01661
▁according	-9.01823
▁bar	-9.02236
▁Prefecture	-9.02402
▁games	-9.02404
▁app	-9.02439
▁changed	-9.02477
ling	-9.0261
▁surface	-9.0261
▁return	-9.02679
me	-9.02685
▁cookies	-9.02968
▁Live	-9.02997
▁yet	-9.03054
▁related	-9.03071
▁stay	-9.03255
▁strong	-9.03286
ku	-9.0333
▁variety	-9.03342
▁Note	-9.03423
rs	-9.03517
▁exchange	-9.03584
▁message	-9.0362
▁Other	-9.03686
▁particular	-9.03755
▁plan	-9.03787
▁call	-9.03829
▁European	-9.03861
do	-9.03969
▁health	-9.04043
as	-9.04098
▁Mr	-9.04107
▁needed	-9.0416
▁week	-9.04226
▁July	-9.04263
▁individual	-9.04324
▁audio	-9.04531
In	-9.04552
▁16	-9.0464
▁half	-9.04717
▁Some	-9.04759
▁Now	-9.0526
We	-9.05271
▁learn	-9.05304
▁m	-9.05321
▁window	-9.05468
▁enough	-9.05849
▁manufacturer	-9.05861
▁cost	-9.05882
▁feature	-9.06047
▁took	-9.06495
▁points	-9.06669
▁received	-9.06961
▁party	-9.06963
▁knowledge	-9.07006
▁copy	-9.07207
▁words	-9.07293
▁analysis	-9.07452
▁living	-9.07731
▁issue	-9.07808
▁Here	-9.07824
▁growth	-9.07827
▁itself	-9.07838
▁edit	-9.07852
▁believe	-9.07946
▁March	-9.08123
▁added	-9.08194
▁month	-9.08241
▁clear	-9.08308
7	-9.08585
▁bring	-9.08614
▁technologies	-9.08619
▁solve	-9.08711
▁longer	-9.08784
ry	-9.09033
▁higher	-9.0912
z	-9.09292
▁test	-9.09348
▁marketing	-9.09354
▁applicable	-9.09529
▁pay	-9.09585
▁Hotels	-9.09834
▁Research	-9.09945
▁drive	-9.10014
▁Terms	-9.10092
Z	-9.10245
v	-9.10381
▁States	-9.10386
▁Also	-9.10461
▁property	-9.10493
▁ZetaTalk	-9.10615
▁florists	-9.10714
▁either	-9.11185
▁difficult	-9.11237
▁especially	-9.11242
▁months	-9.11268
▁object	-9.11278
▁film	-9.11498
w	-9.11528
▁thought	-9.11644
▁wide	-9.11717
ting	-9.1172
▁though	-9.11879
▁places	-9.12147
▁Apache	-9.12183
▁yuan	-9.12187
▁2018	-9.12246
▁town	-9.12311
▁Enter	-9.12354
▁ground	-9.12728
▁black	-9.12841
▁Pandora	-9.12956
▁policy	-9.13013
▁14	-9.13088
▁taking	-9.13205
▁April	-9.13227
▁speed	-9.13336
▁true	-9.13337
▁asked	-9.13465
▁national	-9.13759
▁lower	-9.13798
▁got	-9.13893
▁Korean	-9.13905
▁technical	-9.14031
▁table	-9.1422
time	-9.14245
▁five	-9.14559
ar	-9.14574
▁ago	-9.14782
▁stop	-9.14888
▁training	-9.15128
▁Download	-9.1544
▁airport	-9.15643
▁IN	-9.15683
▁coming	-9.15693
▁background	-9.15755
▁structure	-9.15755
▁operation	-9.15862
▁multiple	-9.15915
View	-9.16062
▁however	-9.16094
▁recent	-9.16094
▁Taxi	-9.16273
▁c	-9.16296
▁Q	-9.16342
▁era	-9.16413
▁13	-9.16507
▁risk	-9.16525
▁leave	-9.16573
▁Privacy	-9.16744
▁additional	-9.16756
▁subject	-9.16856
▁seems	-9.16978
▁sales	-9.17004
▁skin	-9.17083
▁Go	-9.17136
▁construction	-9.172
▁green	-9.17317
▁staff	-9.17355
▁Web	-9.17362
▁American	-9.17394
hour	-9.17424
▁nature	-9.17454
based	-9.17525
▁upon	-9.17596
▁age	-9.17635
▁Taiwan	-9.17657
▁Pro	-9.17661
▁post	-9.17668
▁began	-9.17883
▁North	-9.1799
▁projects	-9.18049
▁Of	-9.1806
▁Europe	-9.181
▁machine	-9.1811
▁effects	-9.18152
▁setting	-9.18152
▁Add	-9.18272
▁Company	-9.18299
▁turn	-9.18427
line	-9.18505
▁trying	-9.18592
▁thus	-9.18593
▁expected	-9.18627
▁forward	-9.18731
▁opened	-9.18851
▁cover	-9.18978
▁Can	-9.19035
▁similar	-9.19049
▁situation	-9.19066
da	-9.19129
▁soon	-9.19168
▁behind	-9.19192
▁output	-9.19251
▁resources	-9.19267
▁$	-9.19277
▁step	-9.19354
out	-9.19366
▁platform	-9.19444
▁became	-9.19531
go	-9.19698
▁supports	-9.19769
▁phone	-9.19857
▁prepare	-9.19912
▁Kyoto	-9.19926
▁TV	-9.19969
▁limited	-9.20115
▁shop	-9.20169
el	-9.20203
▁terms	-9.20257
▁entire	-9.20265
▁friends	-9.20342
▁attention	-9.20433
▁command	-9.20502
▁yourself	-9.20534
▁quite	-9.20542
▁payment	-9.2058
▁eat	-9.20622
ST	-9.20662
▁browser	-9.2085
▁immediately	-9.21017
▁cities	-9.21157
▁buy	-9.21329
▁walk	-9.21391
ch	-9.2157
ization	-9.21711
▁role	-9.21835
▁guide	-9.2184
▁options	-9.21858
▁build	-9.2191
▁print	-9.21954
▁visitors	-9.21986
▁occured	-9.22057
est	-9.22073
age	-9.22096
0	-9.22213
▁plate	-9.22493
▁default	-9.22503
▁bit	-9.22581
▁hope	-9.22584
▁financial	-9.22613
▁garden	-9.22618
il	-9.22658
▁General	-9.2275
▁established	-9.22811
▁trip	-9.23
▁action	-9.23045
▁x	-9.23047
▁Track	-9.23129
▁selection	-9.23206
▁Business	-9.23284
▁prevent	-9.23289
▁summer	-9.23391
▁maintenance	-9.23437
▁doing	-9.23443
▁question	-9.23564
▁17	-9.23645
▁East	-9.2368
▁activity	-9.23738
▁paper	-9.23764
®	-9.23766
mm	-9.23777
▁Content	-9.23823
▁written	-9.23877
▁movement	-9.23925
un	-9.2393
▁efforts	-9.23952
▁parties	-9.24011
▁actually	-9.24202
—	-9.2425
▁quickly	-9.24253
▁sub	-9.24307
▁50	-9.24531
):	-9.24584
▁His	-9.24597
▁While	-9.24678
▁providing	-9.24695
9	-9.24713
@	-9.24966
▁San	-9.24987
▁plant	-9.25073
▁Facebook	-9.25075
&	-9.25083
▁meeting	-9.25086
U	-9.25121
▁develop	-9.25193
▁fixed	-9.2523
▁self	-9.25258
ru	-9.25284
▁Dr	-9.25342
▁President	-9.254
▁getting	-9.25402
▁De	-9.25446
▁maximum	-9.25466
▁taste	-9.25586
▁takes	-9.25593
▁Hong	-9.25659
▁digital	-9.25679
▁lead	-9.25728
▁Contact	-9.26022
▁ask	-9.26039
▁member	-9.26224
▁expert	-9.26283
▁weather	-9.26348
▁tea	-9.26429
▁Why	-9.26525
▁ever	-9.26553
▁Help	-9.26607
▁currently	-9.2684
▁steps	-9.27146
▁mode	-9.27184
lo	-9.27214
▁office	-9.27415
▁PC	-9.27447
▁Project	-9.27729
▁co	-9.27814
▁sun	-9.27833
▁Festival	-9.27874
▁Institute	-9.27875
▁functions	-9.27896
▁treatment	-9.28006
▁meters	-9.28102
ya	-9.28125
▁tools	-9.28168
▁prices	-9.28239
▁foreign	-9.28257
▁heat	-9.28269
▁1.	-9.28275
▁24	-9.28356
ate	-9.28369
▁IP	-9.28424
▁dialog	-9.2843
▁June	-9.28461
li	-9.28541
▁cookie	-9.28576
▁laws	-9.28583
ki	-9.28685
▁List	-9.28788
▁usually	-9.28816
▁pictures	-9.28981
▁contents	-9.29061
▁simply	-9.29121
▁considered	-9.29126
▁purchase	-9.29422
▁Account	-9.29511
▁child	-9.2956
▁September	-9.29571
▁reserved	-9.29582
▁legal	-9.29625
ist	-9.29652
▁stage	-9.29712
▁force	-9.29729
▁picture	-9.29819
▁weight	-9.29991
▁Where	-9.3003
se	-9.30049
▁connected	-9.30058
▁iPhone	-9.30148
▁society	-9.30266
▁path	-9.30267
▁sent	-9.30276
▁October	-9.30416
ized	-9.30654
▁School	-9.30697
shi	-9.30777
▁station	-9.30818
▁November	-9.30824
▁sense	-9.30866
▁ancient	-9.30999
▁carry	-9.31007
▁Station	-9.31023
▁tell	-9.31035
▁mark	-9.31048
be	-9.3105
▁themselves	-9.31117
▁responsible	-9.31147
▁billion	-9.3115
▁modify	-9.31177
▁glass	-9.31197
▁supply	-9.31268
▁follow	-9.31322
▁everything	-9.31547
▁Chat	-9.31597
▁matter	-9.31621
▁perfect	-9.31658
▁active	-9.31698
mo	-9.31792
ia	-9.31803
▁charge	-9.31903
▁latest	-9.31919
▁highly	-9.31947
▁Russian	-9.32187
ba	-9.32297
ton	-9.323
▁ways	-9.32304
▁map	-9.3246
▁collect	-9.32513
▁appear	-9.3259
ge	-9.32761
▁regarding	-9.32861
ty	-9.32928
▁JAPAN	-9.3293
▁secure	-9.33103
ter	-9.33132
▁values	-9.33134
▁beginning	-9.33161
▁Home	-9.33263
10	-9.33482
▁confirm	-9.33609
▁Day	-9.33627
la	-9.33629
▁allowed	-9.33758
▁Kong	-9.33799
▁2.	-9.33908
▁Sex	-9.33939
▁Museum	-9.33983
▁Global	-9.34191
▁Ltd	-9.34204
▁gift	-9.34224
▁friendly	-9.34287
▁published	-9.34357
▁highest	-9.34404
▁floor	-9.34541
▁sex	-9.34571
▁System	-9.34666
▁La	-9.34725
ka	-9.3476
▁hire	-9.3477
▁base	-9.34779
▁steel	-9.34877
▁says	-9.35112
▁25	-9.35145
tic	-9.35157
▁facilities	-9.35555
▁rather	-9.35634
▁running	-9.35724
ac	-9.35726
▁environmental	-9.35741
▁directory	-9.35763
▁Booking	-9.35787
▁existing	-9.35806
▁caused	-9.35877
▁happen	-9.35927
▁Singapore	-9.3597
▁High	-9.3607
▁potential	-9.36191
▁Man	-9.36281
▁See	-9.36312
▁fields	-9.36354
▁described	-9.36401
▁cold	-9.36454
▁therefore	-9.36494
▁pressure	-9.3654
▁Support	-9.36568
▁0	-9.36569
▁increased	-9.36686
is	-9.36717
▁daily	-9.36781
▁creating	-9.36804
▁successfully	-9.36868
▁largest	-9.36927
▁objects	-9.37072
▁France	-9.37099
▁owners	-9.37174
▁official	-9.37269
▁temple	-9.37292
▁record	-9.3731
▁tour	-9.37326
▁Item	-9.37411
▁gold	-9.37418
ism	-9.37501
▁Android	-9.37515
▁multi	-9.37659
▁December	-9.37718
▁Be	-9.37844
▁gas	-9.37919
▁reach	-9.37958
▁blue	-9.37978
ga	-9.38017
▁basis	-9.38018
▁Therefore	-9.38065
▁properties	-9.38098
Q	-9.38115
▁resort	-9.38188
▁completely	-9.38238
▁Li	-9.38339
▁internet	-9.38387
▁hands	-9.38411
▁detailed	-9.38421
▁opportunity	-9.38455
▁comfort	-9.38474
▁press	-9.38507
▁loss	-9.38583
▁Australia	-9.38643
▁mountains	-9.38651
▁Not	-9.38728
mi	-9.3878
▁saw	-9.38783
less	-9.3881
▁January	-9.38926
▁notice	-9.38959
▁rest	-9.38988
▁tourism	-9.39077
▁Ko	-9.39086
one	-9.39259
▁Notice	-9.39272
▁basic	-9.39285
▁told	-9.39288
▁Temple	-9.39521
▁Or	-9.3963
▁More	-9.39631
▁season	-9.39766
▁Park	-9.39767
▁Once	-9.3981
▁prior	-9.39843
▁measures	-9.4002
▁Because	-9.40023
▁apply	-9.40063
ul	-9.40091
ted	-9.40166
▁focus	-9.40268
▁shared	-9.40293
▁direct	-9.40367
▁August	-9.40435
▁specified	-9.40436
▁•	-9.40454
▁cooperation	-9.40494
▁cars	-9.40495
▁useful	-9.40533
▁morning	-9.40546
48	-9.40713
▁damage	-9.40991
▁average	-9.4111
▁consent	-9.41277
ur	-9.41287
▁Corporation	-9.41402
▁safe	-9.41407
eg	-9.41473
▁word	-9.41474
▁America	-9.41525
▁likely	-9.41739
▁aims	-9.4177
ary	-9.4182
▁2019	-9.41964
▁fully	-9.4203
▁presence	-9.42177
▁Although	-9.42208
▁relevant	-9.42274
ant	-9.42283
▁profile	-9.42287
▁+	-9.42349
▁story	-9.42384
for	-9.42543
ies	-9.42549
▁length	-9.42672
▁Today	-9.42758
▁Products	-9.42763
ated	-9.42787
▁Even	-9.42822
▁—	-9.42901
▁decided	-9.43035
▁fun	-9.4306
▁gives	-9.43069
▁shift	-9.43091
▁throughout	-9.43117
▁Each	-9.43129
▁hour	-9.43214
chi	-9.43242
▁idea	-9.43313
▁capital	-9.43394
▁Nature	-9.43474
▁During	-9.43586
▁models	-9.43615
▁girls	-9.43628
▁release	-9.43653
▁First	-9.43668
▁40	-9.43688
▁cultural	-9.43818
▁chance	-9.43832
▁offered	-9.43889
】	-9.44003
▁remove	-9.44028
▁century	-9.44151
▁collection	-9.44223
▁previous	-9.44307
▁lost	-9.44319
▁enable	-9.44331
▁direction	-9.44396
▁host	-9.44474
▁promote	-9.44621
▁generation	-9.44649
▁forced	-9.44742
▁impact	-9.44896
▁respective	-9.44931
▁trade	-9.45069
▁module	-9.45219
▁restaurant	-9.45289
▁talk	-9.4533
▁damaged	-9.45435
▁spring	-9.45448
▁groups	-9.45483
▁response	-9.45515
▁fresh	-9.45537
▁status	-9.4558
am	-9.45651
▁filter	-9.45653
▁Watches	-9.45657
▁mod	-9.45728
▁Development	-9.45731
▁Security	-9.45807
▁lines	-9.45845
12	-9.45994
▁Time	-9.46057
▁write	-9.46092
et	-9.46097
▁Technology	-9.46111
|	-9.46121
▁moment	-9.46128
▁Jesus	-9.46222
▁reduce	-9.46339
11	-9.46357
▁physical	-9.46386
If	-9.46439
▁Travel	-9.46566
▁death	-9.46639
nd	-9.46661
▁custom	-9.46796
▁investment	-9.46927
▁Mac	-9.46972
▁Ma	-9.46976
▁effective	-9.47033
▁achieve	-9.47191
▁fish	-9.47218
um	-9.4722
▁Per	-9.47223
▁flow	-9.47277
▁Z	-9.47285
▁communication	-9.4729
▁contain	-9.47577
▁Search	-9.476
▁bus	-9.47603
▁Zetas	-9.47629
▁User	-9.47649
▁huge	-9.47787
▁shape	-9.47795
▁someone	-9.47818
▁successful	-9.47868
▁ONLY	-9.47886
▁equipped	-9.47904
▁target	-9.47919
▁rooms	-9.48059
▁explicit	-9.48158
ce	-9.48196
▁bottom	-9.48217
ha	-9.48223
▁clean	-9.48233
▁placed	-9.48233
▁external	-9.48261
▁o	-9.48355
▁hair	-9.48429
▁storage	-9.48452
▁2015	-9.48542
▁Server	-9.48596
▁recently	-9.48678
▁late	-9.48706
▁People	-9.48772
ie	-9.48794
▁Ciampino	-9.48838
▁Is	-9.48848
▁understanding	-9.48856
bo	-9.48859
▁holding	-9.48951
▁River	-9.48968
▁boys	-9.48996
▁perform	-9.49054
▁distance	-9.4906
▁eyes	-9.4911
▁India	-9.49188
▁produced	-9.49253
▁deep	-9.49296
▁Google	-9.49358
▁House	-9.49389
▁booking	-9.49525
▁ability	-9.49539
▁levels	-9.49605
▁Online	-9.49649
im	-9.49837
▁tree	-9.49846
▁input	-9.4999
▁sky	-9.50068
▁printing	-9.50121
▁install	-9.50313
▁fine	-9.50382
▁operations	-9.50397
▁solutions	-9.50417
▁Many	-9.50427
▁carried	-9.50446
▁21	-9.50497
▁Thus	-9.50524
▁Art	-9.50531
▁port	-9.50534
▁possibility	-9.50638
▁rich	-9.50819
▁occur	-9.5088
▁slightly	-9.50969
▁fire	-9.51033
▁approach	-9.51093
▁involved	-9.51129
▁avoid	-9.51134
▁sexually	-9.51232
▁credit	-9.51236
▁education	-9.51259
▁cut	-9.51288
▁earth	-9.51293
▁28	-9.51314
▁toward	-9.51323
▁players	-9.51504
▁atmosphere	-9.51509
▁choice	-9.51511
▁anything	-9.5157
▁costs	-9.51627
▁ready	-9.51633
▁Image	-9.51654
▁stated	-9.51798
▁characteristics	-9.51874
▁final	-9.52027
▁Size	-9.52038
▁Tourism	-9.52205
▁rates	-9.52281
▁capacity	-9.52297
▁krone	-9.52345
▁Ka	-9.52372
▁released	-9.524
▁NOT	-9.52471
▁resolution	-9.52516
▁feeling	-9.52532
*	-9.52542
▁According	-9.52712
▁nothing	-9.52772
▁password	-9.53109
▁normal	-9.53206
▁relationship	-9.53257
▁ID	-9.53302
ful	-9.53409
▁Options	-9.53423
▁depending	-9.53435
▁war	-9.53454
▁cells	-9.53489
▁license	-9.53588
▁block	-9.53603
▁Car	-9.53647
▁fast	-9.53756
▁river	-9.53758
▁sell	-9.53776
▁commercial	-9.53924
▁!	-9.53989
▁agency	-9.5399
▁train	-9.54052
▁medical	-9.54116
▁wind	-9.5413
▁Mo	-9.54134
▁【	-9.54191
▁completed	-9.54464
▁February	-9.54496
▁Video	-9.54622
ent	-9.5466
OK	-9.54702
▁Special	-9.54901
▁village	-9.54993
ian	-9.55118
▁refer	-9.55174
▁Return	-9.5521
▁CO	-9.5523
▁rice	-9.55318
▁complex	-9.55365
con	-9.55419
▁door	-9.55432
▁Professional	-9.55482
▁developing	-9.55482
▁Black	-9.55514
▁accessible	-9.55514
ize	-9.55599
▁blood	-9.55617
▁warm	-9.55685
▁fail	-9.5579
▁newly	-9.55829
▁Sea	-9.56112
▁Part	-9.56113
land	-9.56114
▁sign	-9.56116
▁Central	-9.56196
▁organization	-9.56213
▁Africa	-9.56415
▁Christian	-9.56416
ally	-9.56425
▁protect	-9.56521
▁IT	-9.56597
▁compared	-9.56613
▁cell	-9.5664
▁African	-9.56703
▁news	-9.56881
▁methods	-9.56918
▁Policy	-9.5698
men	-9.56995
▁stone	-9.57073
▁military	-9.57189
▁update	-9.57231
per	-9.57254
▁processes	-9.57347
▁electronic	-9.57533
▁signal	-9.57542
▁Only	-9.57596
▁fonts	-9.57605
▁Replica	-9.57675
▁MIDI	-9.57698
▁manufacturing	-9.5789
▁job	-9.57932
jo	-9.58111
▁category	-9.58282
▁nuclear	-9.58303
▁accordance	-9.58311
ir	-9.5832
▁publication	-9.58369
▁deliver	-9.58396
▁Let	-9.58415
▁HD	-9.58471
▁State	-9.58486
▁Russia	-9.58644
▁pro	-9.58688
▁Design	-9.58822
▁memory	-9.58866
▁West	-9.58877
▁towards	-9.58902
▁con	-9.58902
▁character	-9.58929
rd	-9.59156
▁wanted	-9.59158
▁instead	-9.59167
▁welcome	-9.59187
▁agreement	-9.59202
▁Inc	-9.59265
▁recommend	-9.59276
▁playing	-9.59335
▁Office	-9.59341
▁Science	-9.59358
▁snow	-9.59359
▁condition	-9.59389
▁reported	-9.59558
ating	-9.59569
▁Sometimes	-9.5959
▁Just	-9.5963
ci	-9.59698
▁respect	-9.59812
▁theme	-9.59876
▁six	-9.59899
▁practice	-9.59927
▁announced	-9.59946
▁association	-9.59947
▁employees	-9.60062
▁accept	-9.60081
▁middle	-9.60109
▁starting	-9.60119
▁grow	-9.60138
▁gave	-9.60149
you	-9.60169
▁guests	-9.60174
▁package	-9.6029
▁HTTP	-9.60402
▁movie	-9.60426
▁zone	-9.60446
▁g	-9.60606
▁reports	-9.60607
▁produce	-9.60663
▁belong	-9.60882
▁looks	-9.61003
▁exhibition	-9.61049
▁channel	-9.61141
It	-9.61325
▁goal	-9.61349
▁progress	-9.61409
▁engine	-9.61459
+	-9.61495
▁County	-9.61501
▁Le	-9.61539
▁t	-9.6158
▁km	-9.61587
▁increasing	-9.61693
▁French	-9.61769
▁beauty	-9.6181
▁friend	-9.61843
▁doesn	-9.61872
▁2014	-9.61883
▁rock	-9.61896
▁advanced	-9.61931
▁drop	-9.61994
▁Swiss	-9.62066
id	-9.62095
ine	-9.62174
▁requirements	-9.62273
▁document	-9.6243
▁island	-9.62521
▁serve	-9.62537
▁stand	-9.62647
▁Watch	-9.62693
▁interests	-9.62701
▁foot	-9.62746
▁White	-9.62778
▁advise	-9.62807
▁nice	-9.62817
▁reliable	-9.6296
▁excellent	-9.63032
cm	-9.63043
▁lives	-9.63059
▁Tap	-9.6308
▁concept	-9.63097
▁cross	-9.63105
▁configuration	-9.63365
▁communications	-9.63396
party	-9.63486
▁reasons	-9.63489
▁regions	-9.63531
▁=	-9.63532
▁registration	-9.63615
▁dark	-9.63688
▁mm	-9.63691
▁demand	-9.63693
▁smartphone	-9.63703
▁stock	-9.63911
▁wall	-9.63926
▁applied	-9.63977
▁Ho	-9.64042
This	-9.64065
▁Most	-9.6408
▁Photo	-9.64082
▁names	-9.64149
▁agencies	-9.64159
▁scale	-9.64178
▁industrial	-9.64245
mail	-9.64309
▁central	-9.64353
▁Flowers	-9.64384
▁handle	-9.64503
▁Create	-9.64581
20	-9.64689
▁piece	-9.64719
▁moving	-9.64729
▁moved	-9.64788
▁log	-9.64831
of	-9.64858
▁board	-9.64938
ED	-9.6499
▁learning	-9.64992
▁anti	-9.65008
ING	-9.65038
ous	-9.65087
ten	-9.65098
▁Mi	-9.65101
▁downloaded	-9.6513
▁answer	-9.65139
▁finally	-9.653
▁suitable	-9.65401
▁Un	-9.65442
▁Check	-9.65482
pe	-9.65582
▁colors	-9.65757
▁festival	-9.65794
▁rain	-9.65906
▁heavy	-9.65906
▁pressing	-9.65962
▁Model	-9.65968
▁solar	-9.65993
end	-9.66047
▁Name	-9.66143
▁remain	-9.66154
▁winter	-9.66198
▁correct	-9.66207
j	-9.66224
▁contract	-9.66265
▁tax	-9.66328
▁3.	-9.66372
▁star	-9.66388
gu	-9.66428
▁plans	-9.66463
▁Power	-9.66481
▁spread	-9.66666
▁shipping	-9.66759
▁Av	-9.66761
▁introduced	-9.66787
▁felt	-9.66797
▁offering	-9.66898
▁becomes	-9.66902
ence	-9.66951
▁interesting	-9.66974
▁hit	-9.67011
▁Air	-9.67087
▁planning	-9.6721
so	-9.67325
▁Department	-9.67405
▁pass	-9.67406
▁consider	-9.67466
if	-9.67472
▁client	-9.67486
▁shrine	-9.67507
▁AND	-9.67512
▁listed	-9.67558
he	-9.67589
▁60	-9.67642
▁wear	-9.67748
▁shopping	-9.67763
▁happens	-9.67858
▁ink	-9.67883
▁success	-9.67912
▁regard	-9.6799
ni	-9.68188
▁informations	-9.68255
▁core	-9.68302
▁street	-9.68308
▁happy	-9.68311
▁Software	-9.6833
▁SITE	-9.68335
00	-9.68336
▁installation	-9.6839
▁growing	-9.68436
▁Vietnam	-9.68498
▁eye	-9.68513
bu	-9.68517
▁trees	-9.68578
▁appears	-9.68583
▁#	-9.68767
▁Press	-9.68826
▁Al	-9.68849
▁mentioned	-9.68854
▁Pole	-9.68859
▁procedure	-9.68882
▁brought	-9.68884
▁Network	-9.68937
▁tourist	-9.6894
▁manually	-9.68941
▁experts	-9.69015
▁entry	-9.69154
▁USD	-9.692
▁News	-9.69201
▁Area	-9.69234
▁Na	-9.69324
▁feedback	-9.69373
▁components	-9.69392
▁require	-9.69492
▁permission	-9.69653
01	-9.69678
▁books	-9.69793
▁d	-9.69843
▁worldwide	-9.69892
▁standards	-9.69913
side	-9.69932
▁balance	-9.69934
▁born	-9.69941
▁Management	-9.70004
▁mother	-9.70022
▁patients	-9.70215
▁heard	-9.70227
term	-9.70237
▁giving	-9.70266
▁significant	-9.70301
▁whose	-9.70312
▁break	-9.70341
▁extremely	-9.70352
▁views	-9.7037
▁«	-9.70373
▁obtain	-9.70456
▁term	-9.70512
▁advance	-9.70514
▁dance	-9.70516
▁supported	-9.7052
▁disease	-9.70605
▁Council	-9.70625
▁positive	-9.70645
▁St	-9.70721
▁soft	-9.70768
▁sometimes	-9.70843
▁links	-9.70847
▁double	-9.70893
▁convert	-9.70981
▁accepted	-9.71023
▁student	-9.71075
▁dis	-9.71103
ial	-9.71196
▁22	-9.71326
free	-9.71348
▁Germany	-9.71351
▁overseas	-9.71356
son	-9.71416
▁・	-9.71427
30	-9.71442
▁Price	-9.71526
▁panel	-9.71609
▁mean	-9.71612
▁remember	-9.71663
▁unit	-9.7174
▁Road	-9.71853
▁magnetic	-9.71876
▁fraud	-9.71895
▁Bank	-9.71963
▁Water	-9.71984
▁description	-9.72104
▁ship	-9.72139
▁height	-9.72199
▁title	-9.72247
▁father	-9.7225
▁bad	-9.72287
▁rent	-9.72376
▁Official	-9.72386
▁north	-9.7241
▁volume	-9.72481
▁messages	-9.72499
▁Y	-9.72522
▁resource	-9.7254
▁percent	-9.7272
▁registered	-9.7275
▁larger	-9.72841
▁recommended	-9.72851
▁player	-9.72855
▁skills	-9.72937
▁porn	-9.72993
▁vehicle	-9.72998
ak	-9.7306
sa	-9.7309
▁expect	-9.73112
▁creation	-9.73244
▁pattern	-9.73275
▁automobiles	-9.7331
▁distribution	-9.73316
▁Yu	-9.73449
▁woman	-9.73466
san	-9.73575
▁Island	-9.73631
▁Program	-9.73658
▁writing	-9.73668
▁touch	-9.73694
▁taxi	-9.73732
▁metal	-9.73775
▁Paris	-9.73869
▁fall	-9.7398
▁Government	-9.74
▁Asian	-9.7407
▁2013	-9.74165
▁b	-9.7422
▁USE	-9.74222
di	-9.7427
▁Services	-9.74355
▁passed	-9.74363
ke	-9.74368
▁Using	-9.74369
▁population	-9.74374
▁Moon	-9.74553
You	-9.74567
▁approximately	-9.74571
▁particularly	-9.7472
▁cards	-9.74743
▁Minister	-9.74783
▁copyright	-9.74902
MP	-9.7497
ad	-9.75068
ung	-9.75221
▁Buy	-9.75329
ning	-9.75376
▁protected	-9.7545
po	-9.75457
▁join	-9.75481
▁participants	-9.75498
▁component	-9.75529
▁Zealand	-9.75578
gen	-9.75625
▁Cookie	-9.7563
▁park	-9.75676
▁dry	-9.75678
▁ideal	-9.75724
▁presented	-9.75726
▁round	-9.75741
▁200	-9.75779
▁wine	-9.75917
ho	-9.75918
▁fashion	-9.75921
▁peace	-9.75991
▁Ha	-9.76042
▁sources	-9.76141
▁Year	-9.76162
▁supporting	-9.76184
▁passengers	-9.76206
▁conduct	-9.76228
▁count	-9.76274
ance	-9.7632
▁icon	-9.76578
▁contained	-9.76609
▁climate	-9.76615
ong	-9.76673
▁appearance	-9.76679
▁destination	-9.76749
▁requests	-9.76857
▁legitimate	-9.76905
▁mainly	-9.76907
▁ideas	-9.76968
▁sample	-9.77042
ca	-9.77119
▁square	-9.77173
▁master	-9.77195
way	-9.7728
▁interface	-9.77297
Re	-9.77377
▁usual	-9.77502
▁turned	-9.77522
▁deal	-9.77538
▁regulations	-9.77657
▁paid	-9.777
▁pole	-9.77761
▁powerful	-9.77766
▁named	-9.77801
▁rise	-9.77877
▁Me	-9.77882
▁tried	-9.77908
▁Australian	-9.77911
▁Type	-9.77943
25	-9.77973
▁Da	-9.77991
day	-9.77995
▁tourists	-9.78026
▁ten	-9.78051
▁dedicated	-9.78054
tion	-9.78064
▁extra	-9.78092
▁Nibiru	-9.78103
io	-9.78176
▁2012	-9.78184
▁traffic	-9.78191
▁notes	-9.78198
▁followed	-9.78203
▁else	-9.78216
▁played	-9.7823
▁Great	-9.78325
-1	-9.78375
▁former	-9.78389
▁Access	-9.78407
▁department	-9.78415
▁goes	-9.78515
▁easiest	-9.78539
▁science	-9.78593
ping	-9.78601
▁detectives	-9.78675
▁converting	-9.78685
▁Detailed	-9.78763
▁23	-9.78813
▁circle	-9.78829
▁symbol	-9.78955
os	-9.78995
izing	-9.79002
▁weeks	-9.79078
▁establishment	-9.79094
ny	-9.79123
▁scene	-9.7915
▁political	-9.79157
▁Rolex	-9.79166
▁Lake	-9.79245
AS	-9.79249
▁begin	-9.7925
▁generated	-9.79261
▁anyone	-9.79264
▁ticket	-9.79267
▁corporate	-9.79293
bi	-9.79327
▁beyond	-9.79352
▁Ministry	-9.79401
▁interested	-9.79404
▁essential	-9.79439
17	-9.7946
▁Di	-9.79469
▁occasion	-9.79484
▁wait	-9.79558
▁efficiency	-9.79571
▁continued	-9.79614
▁consumption	-9.79636
▁determine	-9.79646
▁cancer	-9.7967
▁Christ	-9.79697
▁Ta	-9.79713
▁attack	-9.79917
To	-9.79918
pa	-9.7993
▁Bitcoin	-9.79941
▁Sa	-9.79943
▁launch	-9.79947
▁authorities	-9.80126
▁remains	-9.8017
ER	-9.80209
▁meaning	-9.80253
year	-9.80259
▁valuable	-9.80286
▁database	-9.80328
15	-9.80418
ー	-9.80439
▁Shi	-9.80468
▁kinds	-9.80624
▁greater	-9.80651
▁Order	-9.80669
op	-9.80805
▁sports	-9.80817
▁comfortable	-9.81136
▁graphics	-9.81138
▁isn	-9.81165
▁limit	-9.81168
▁Buddha	-9.81185
▁entered	-9.81259
▁although	-9.81331
▁Bar	-9.81365
▁Saudi	-9.81397
▁Any	-9.81487
▁Extension	-9.81497
▁delete	-9.81645
ability	-9.81645
▁Touch	-9.81649
▁fuel	-9.81704
▁separate	-9.81716
▁frequency	-9.81753
▁led	-9.81757
▁seem	-9.81791
yama	-9.81797
▁didn	-9.81827
▁Euro	-9.81841
▁figure	-9.81882
▁UK	-9.81933
▁manner	-9.81958
▁root	-9.81966
▁CD	-9.82136
▁wood	-9.8216
▁regular	-9.82326
by	-9.82348
▁heritage	-9.8237
▁decision	-9.82564
▁yellow	-9.82585
50	-9.82597
▁PDF	-9.82629
▁connect	-9.82657
09	-9.82736
▁south	-9.82748
▁individuals	-9.82767
▁importance	-9.82778
▁session	-9.82795
é	-9.82812
▁Garden	-9.82826
▁advertising	-9.82891
▁Chi	-9.82918
▁Market	-9.82954
▁economy	-9.82957
60	-9.8301
▁Italian	-9.83015
▁Statement	-9.83114
Use	-9.83145
▁1,	-9.83157
40	-9.83163
wa	-9.83185
▁spirit	-9.83261
▁Madrid	-9.83377
▁internal	-9.83467
▁probably	-9.83533
▁automatic	-9.83716
ang	-9.83724
▁Su	-9.83756
▁maintain	-9.83842
Save	-9.83863
gi	-9.83872
▁Committee	-9.83978
▁facility	-9.84007
Set	-9.84055
▁stored	-9.84165
16	-9.84228
▁aware	-9.84279
▁Association	-9.84283
▁mechanism	-9.84354
▁match	-9.84418
▁Take	-9.84446
▁Make	-9.84448
▁leaves	-9.84449
▁Gwangju	-9.84566
▁Po	-9.84566
▁fee	-9.84628
▁Version	-9.84643
▁Step	-9.84645
▁Date	-9.84715
▁forecast	-9.84782
▁2011	-9.84792
▁worked	-9.84846
▁strength	-9.84875
=	-9.84948
▁Heuer	-9.85073
▁di	-9.85093
▁cool	-9.85118
▁affected	-9.85119
down	-9.85122
▁factors	-9.85322
▁waste	-9.85389
▁counter	-9.85417
▁comply	-9.8551
▁recognize	-9.85554
▁4.	-9.85596
▁Back	-9.85596
▁requires	-9.85634
▁feet	-9.8564
▁ANY	-9.85675
Hide	-9.85683
▁monitor	-9.85751
▁collected	-9.85768
▁buildings	-9.85771
▁Page	-9.85777
▁directive	-9.8579
▁combination	-9.85915
▁usage	-9.85916
▁Pacific	-9.86004
▁enhance	-9.86238
▁Economic	-9.86258
▁degree	-9.86264
▁numbers	-9.86329
▁speaking	-9.86337
▁Case	-9.86505
▁chemical	-9.86514
▁diagnose	-9.86555
like	-9.86594
▁otherwise	-9.86624
▁mass	-9.86669
ities	-9.86713
▁en	-9.86744
▁Ba	-9.86751
▁War	-9.86755
▁lack	-9.86756
min	-9.86757
mp	-9.8683
ding	-9.86855
▁Ro	-9.86932
▁son	-9.86979
ner	-9.86979
▁goods	-9.8699
▁ice	-9.87066
▁bag	-9.8708
▁instance	-9.87129
▁Every	-9.87197
▁collaboration	-9.87218
ol	-9.87365
▁corresponding	-9.87406
▁frequently	-9.87416
▁folder	-9.87459
▁flat	-9.87482
▁investigation	-9.87488
▁launched	-9.87493
▁thanks	-9.8753
mon	-9.87531
▁clearly	-9.87565
▁visited	-9.87693
▁favorite	-9.87738
▁finding	-9.87801
ish	-9.87824
▁waiting	-9.87866
▁advantage	-9.87886
▁delicious	-9.87927
▁bridge	-9.87929
▁onto	-9.8793
の	-9.87942
▁documents	-9.87965
▁Jewelry	-9.88099
▁specify	-9.88124
▁performed	-9.88125
▁Tour	-9.88129
▁concerning	-9.88187
▁defined	-9.88206
▁Personal	-9.88207
▁Plate	-9.88277
▁Sichuan	-9.88307
▁returned	-9.88318
▁effort	-9.88364
▁Store	-9.88407
▁author	-9.88419
28	-9.88422
▁load	-9.88434
▁truth	-9.88446
▁opportunities	-9.88493
▁mouth	-9.88499
ti	-9.885
▁York	-9.88564
▁URL	-9.88675
▁scenery	-9.88684
▁Okinawa	-9.88704
▁Media	-9.88715
▁Play	-9.88724
▁King	-9.88799
▁Bush	-9.88808
▁nor	-9.88863
▁Lord	-9.88879
▁studies	-9.88921
▁planet	-9.88973
▁landscape	-9.88989
▁jav	-9.89006
zu	-9.89032
▁sector	-9.89048
▁organizations	-9.89083
▁clients	-9.89175
▁benefits	-9.892
▁cable	-9.89203
▁alone	-9.89305
▁thinking	-9.8931
▁prepared	-9.89372
▁responsibility	-9.89383
▁troll	-9.89463
▁saying	-9.895
▁allowing	-9.8952
▁bank	-9.89534
▁disk	-9.89548
bit	-9.89559
ure	-9.89598
▁Red	-9.89778
▁vast	-9.8979
Folder	-9.89822
▁discount	-9.89829
▁pieces	-9.89854
▁hear	-9.89872
ard	-9.89896
▁Top	-9.89922
▁En	-9.90081
▁2010	-9.90186
▁blog	-9.90187
▁App	-9.90291
▁Her	-9.90318
▁recovery	-9.90326
▁techniques	-9.90401
▁offices	-9.90448
old	-9.90495
▁domestic	-9.9056
13	-9.90588
▁Czech	-9.9071
▁covered	-9.90714
▁Director	-9.90784
▁Hall	-9.90786
▁LIMU	-9.90917
▁himself	-9.90961
▁fear	-9.91044
ynow	-9.91054
cho	-9.91142
▁characters	-9.91192
▁layer	-9.91224
▁Set	-9.91233
▁contribute	-9.91314
▁artists	-9.91371
▁wrong	-9.91381
▁Pa	-9.91398
▁Solving	-9.91437
▁reference	-9.91501
▁locations	-9.91593
▁pop	-9.91628
▁benefit	-9.9179
▁Foundation	-9.9196
▁influence	-9.91996
▁explain	-9.92008
▁cloud	-9.92042
▁micro	-9.92139
▁Due	-9.92156
▁actions	-9.92231
EN	-9.92241
.11.27	-9.92249
14	-9.92272
▁2018.06.2	-9.92297
▁drink	-9.92346
▁changing	-9.92386
2016.06.14	-9.92418
▁corner	-9.92422
▁band	-9.92501
▁detection	-9.92511
▁Ra	-9.92551
▁exit	-9.92571
▁assistance	-9.92575
▁finish	-9.92591
ship	-9.92605
▁suddenly	-9.92617
▁26	-9.92644
hi	-9.92664
▁edge	-9.92673
▁Canadian	-9.92677
▁Law	-9.92728
ster	-9.92906
ative	-9.93112
▁permitted	-9.93128
▁Hi	-9.93185
▁500	-9.93212
▁Code	-9.93277
▁participate	-9.93315
led	-9.93428
▁mechanical	-9.93498
▁Safety	-9.93559
▁27	-9.93605
▁pick	-9.93758
▁Real	-9.93801
▁thin	-9.93828
▁°	-9.93861
▁partner	-9.93911
▁hall	-9.93948
▁explained	-9.9399
▁manage	-9.94018
red	-9.94026
▁scenes	-9.94073
▁Shanghai	-9.94201
▁drivers	-9.94237
▁looked	-9.94318
▁humans	-9.94327
▁disaster	-9.9433
80	-9.94374
▁met	-9.94407
▁virtual	-9.94411
07	-9.94419
▁OS	-9.94442
▁seven	-9.94457
primer	-9.94459
▁Con	-9.94463
▁colour	-9.9452
▁act	-9.94552
▁filled	-9.94866
ina	-9.94923
▁Republic	-9.9495
▁mid	-9.94961
▁Pre	-9.94988
▁German	-9.95009
▁UN	-9.95086
▁JKT	-9.95181
▁SCHEDULE	-9.95189
▁electric	-9.95309
▁voice	-9.95379
▁showing	-9.95386
▁evidence	-9.95389
▁architecture	-9.95399
▁Obama	-9.95406
▁JPY	-9.95434
▁fill	-9.95511
▁soil	-9.95573
▁expand	-9.95577
▁spot	-9.9558
▁memes	-9.95595
▁super	-9.95617
▁Those	-9.95636
▁Wish	-9.95722
▁fruit	-9.95752
▁Are	-9.95767
▁Files	-9.95864
China	-9.95878
21	-9.95943
▁Fandom	-9.95983
▁sale	-9.9611
▁dust	-9.9616
▁smaller	-9.96163
▁2000	-9.9618
▁obtained	-9.96186
▁exercise	-9.96192
▁TRY	-9.96288
▁copper	-9.96355
▁mission	-9.9637
▁Website	-9.96398
▁couple	-9.96477
▁budget	-9.96495
▁behavior	-9.96545
▁intended	-9.96645
▁element	-9.96661
▁Before	-9.96664
▁CGI	-9.96703
▁f	-9.96704
▁Details	-9.96719
▁Get	-9.96731
▁transport	-9.96749
Photos	-9.96791
▁sweet	-9.96812
▁reading	-9.96812
▁Music	-9.96849
▁sold	-9.96856
▁articles	-9.96886
▁policies	-9.969
▁resistance	-9.96904
▁Line	-9.96948
les	-9.96957
▁myself	-9.96964
▁Yes	-9.96981
▁Best	-9.96982
▁everywhere	-9.9699
▁Map	-9.97047
▁minute	-9.97089
ID	-9.97095
▁Lu	-9.97142
▁Master	-9.97157
▁announcement	-9.97182
▁bright	-9.97225
▁reduction	-9.97245
▁occurred	-9.97272
▁businesses	-9.97278
▁aim	-9.97324
▁Mar	-9.97388
▁transmission	-9.97401
08	-9.97453
▁joint	-9.9747
▁conducted	-9.97534
▁implementation	-9.97601
▁Western	-9.97628
▁mail	-9.97714
▁reached	-9.9773
▁Street	-9.97783
▁Beijing	-9.9781
ler	-9.97835
US	-9.97848
▁rare	-9.97861
▁Description	-9.97912
▁browse	-9.97923
▁CAD	-9.97931
▁Private	-9.97936
▁forest	-9.97958
▁arise	-9.98093
▁Copy	-9.98121
den	-9.98121
lu	-9.98151
▁forms	-9.98163
▁comprehensive	-9.98168
▁owner	-9.98184
▁Osaka	-9.98194
▁library	-9.98211
▁PM	-9.98234
▁negative	-9.98256
▁overall	-9.98264
▁properly	-9.98269
▁Ar	-9.98298
▁battery	-9.98318
▁Post	-9.98385
za	-9.98386
▁audience	-9.98412
▁stars	-9.98414
▁Han	-9.98429
ite	-9.98466
ze	-9.98492
▁upper	-9.9852
05	-9.98521
06	-9.98526
▁communities	-9.98546
▁race	-9.9875
For	-9.98816
▁task	-9.98838
▁beach	-9.98866
tro	-9.9889
▁Club	-9.98892
▁Color	-9.98913
▁evening	-9.9896
▁easier	-9.99011
▁ocean	-9.99016
▁clicking	-9.99018
▁familiar	-9.99037
▁infrastructure	-9.99037
▁Omega	-9.99074
$	-9.99158
▁brain	-9.99213
▁radio	-9.99284
▁worth	-9.99294
style	-9.99387
▁Don	-9.9941
RE	-9.99444
、	-9.99539
▁machines	-9.99553
TM	-9.9958
▁coffee	-9.996
▁inter	-9.99611
▁accommodation	-9.99635
▁accurate	-9.99685
▁channels	-9.99694
▁vary	-9.99787
90	-9.99824
we	-9.99829
AL	-9.99906
▁lake	-9.99999
▁annual	-10.0001
▁Shrine	-10.0001
▁straight	-10.0003
▁impression	-10.0006
▁Long	-10.0007
▁Moreover	-10.0009
lin	-10.0009
▁vehicles	-10.0016
▁Collection	-10.0018
▁walking	-10.0019
▁Foreign	-10.0023
▁View	-10.0026
▁markets	-10.0028
▁ceremony	-10.0044
▁saved	-10.0047
▁Guide	-10.0051
▁Indonesia	-10.0053
▁London	-10.0058
▁continuing	-10.0062
▁factory	-10.0064
▁Chengdu	-10.0067
▁procedures	-10.0069
▁serious	-10.0073
▁trading	-10.0076
▁MDR	-10.0077
▁80	-10.0081
▁Wigs	-10.0084
▁becoming	-10.009
ology	-10.0096
▁Share	-10.0098
MA	-10.0098
▁units	-10.0103
▁Turkish	-10.0104
▁carbon	-10.0114
▁repair	-10.0122
▁spend	-10.0124
▁integrated	-10.0132
▁expression	-10.0135
▁express	-10.0137
om	-10.0143
▁reduced	-10.0144
ise	-10.0153
▁detail	-10.0156
▁west	-10.0157
▁Life	-10.0158
IT	-10.0166
tra	-10.0166
▁slowly	-10.0169
▁delivered	-10.0172
▁backup	-10.0173
her	-10.0176
▁lose	-10.0186
▁gets	-10.0187
▁MP	-10.0192
▁Vi	-10.0199
▁TAG	-10.0202
▁families	-10.0202
▁stable	-10.0202
▁removed	-10.0203
▁experienced	-10.0204
?"	-10.0204
▁director	-10.0214
▁comment	-10.0223
▁El	-10.0229
use	-10.0233
▁regional	-10.0233
▁Ri	-10.0235
▁FREE	-10.0239
▁campaign	-10.025
▁measure	-10.0253
▁animals	-10.0254
▁closed	-10.0258
▁solid	-10.0262
▁push	-10.0268
▁numerous	-10.0269
▁species	-10.0269
ron	-10.027
▁eight	-10.027
▁Allow	-10.027
▁wearing	-10.0271
▁adjust	-10.0276
▁plug	-10.028
▁Control	-10.0284
▁logo	-10.0294
▁Exchange	-10.0317
▁templates	-10.032
▁die	-10.0324
▁updated	-10.0326
such	-10.0327
▁leaving	-10.0332
▁conference	-10.0335
▁Wiki	-10.0338
▁determined	-10.0349
ray	-10.035
▁login	-10.0352
▁bouquets	-10.0352
04	-10.0358
▁extreme	-10.0359
▁gain	-10.0366
▁Twitter	-10.0367
▁la	-10.037
▁failure	-10.0373
▁EUR	-10.0376
▁Ni	-10.0381
▁cheap	-10.0381
▁Settings	-10.0384
▁Men	-10.0398
<	-10.0404
▁sleep	-10.0406
▁films	-10.0416
▁monitoring	-10.0416
yo	-10.042
▁Figure	-10.0423
▁Report	-10.0424
▁Bo	-10.0425
▁orders	-10.0435
▁dream	-10.0436
▁helps	-10.0437
▁committed	-10.0438
▁arrangements	-10.0439
▁driving	-10.0448
▁certified	-10.0456
▁sustainable	-10.0457
▁ride	-10.0457
・	-10.0462
▁smooth	-10.0468
▁salt	-10.0471
▁Thailand	-10.0474
▁discovered	-10.0476
▁100%	-10.0478
▁Award	-10.0486
▁partners	-10.049
▁independent	-10.0496
SE	-10.0504
▁Swedish	-10.0505
ped	-10.0507
▁Brazilian	-10.051
▁historical	-10.051
iPhone	-10.0515
ward	-10.0517
▁visible	-10.052
ring	-10.0526
▁hidden	-10.0536
▁formed	-10.0538
▁Light	-10.0538
▁Shin	-10.054
▁Mu	-10.0542
▁movies	-10.0546
▁win	-10.0549
▁certainly	-10.0552
▁plastic	-10.0562
24	-10.0582
▁mix	-10.0583
18	-10.0585
▁formats	-10.0585
▁orbit	-10.0589
▁dead	-10.0594
–	-10.0596
▁websites	-10.0597
02	-10.0602
▁Product	-10.0602
▁column	-10.0608
▁switch	-10.0608
▁Party	-10.0611
▁exist	-10.0614
▁Hu	-10.0614
▁degrees	-10.0615
32	-10.0618
▁Energy	-10.0622
▁pussy	-10.0629
▁import	-10.0631
▁recorded	-10.0633
▁dishes	-10.0634
▁viewing	-10.0634
▁hardware	-10.0643
▁register	-10.0652
▁served	-10.0655
tsu	-10.0662
▁90	-10.0665
work	-10.0671
que	-10.0672
yu	-10.0686
26	-10.0695
▁export	-10.0696
▁Green	-10.0702
▁reality	-10.0706
▁introduce	-10.0713
▁FOR	-10.0721
▁drug	-10.0725
▁respond	-10.0726
19	-10.0727
03	-10.0732
▁variables	-10.0733
▁chat	-10.0738
▁medium	-10.0743
▁kept	-10.0744
house	-10.0745
▁functionality	-10.0754
No	-10.0754
▁vision	-10.0759
▁context	-10.0763
▁brief	-10.0767
ck	-10.0768
sen	-10.0769
▁--	-10.0773
▁identify	-10.0775
▁affect	-10.0777
▁founded	-10.0784
▁rule	-10.0788
▁fit	-10.0797
back	-10.0798
▁Another	-10.0799
au	-10.0801
▁finished	-10.0802
▁iron	-10.0805
▁NASA	-10.0815
▁Article	-10.0815
▁II	-10.0823
▁strategy	-10.0824
over	-10.0828
▁Series	-10.0829
▁soul	-10.0831
▁appeared	-10.0834
▁pain	-10.0836
▁earlier	-10.0838
▁previously	-10.0838
▁despite	-10.0844
▁languages	-10.0845
▁helpful	-10.0845
▁template	-10.0852
▁Women	-10.0852
▁Under	-10.0858
▁invite	-10.086
▁journey	-10.0873
▁seconds	-10.0874
ME	-10.0878
▁parameters	-10.088
▁noise	-10.0883
wigs	-10.0889
▁Fixed	-10.0891
▁surrounding	-10.0891
▁YOU	-10.0893
▁church	-10.0893
▁answers	-10.0894
▁learned	-10.0897
▁challenges	-10.0901
▁layout	-10.0901
▁script	-10.0912
▁factor	-10.0914
related	-10.0914
▁observation	-10.0918
▁states	-10.0919
▁Conditions	-10.092
▁info	-10.0927
si	-10.0927
▁SE	-10.0932
31	-10.0934
▁limitation	-10.0935
▁Union	-10.0936
▁chain	-10.0952
▁truly	-10.0953
▁stress	-10.0954
▁Protection	-10.0954
70	-10.0956
▁realize	-10.0957
ee	-10.0967
▁phase	-10.0968
ES	-10.0968
▁versions	-10.097
▁Over	-10.0971
▁Blue	-10.0972
▁recording	-10.0973
▁Gold	-10.0974
▁criminal	-10.0975
▁Manager	-10.0982
▁gate	-10.0985
▁sides	-10.0989
▁Show	-10.0991
▁Welcome	-10.0991
▁activated	-10.0993
▁continues	-10.0993
▁ratio	-10.0994
▁providers	-10.0997
▁bed	-10.0999
▁wonderful	-10.1002
▁300	-10.1008
▁trust	-10.1012
type	-10.1013
▁residents	-10.1016
my	-10.1017
▁castle	-10.102
▁Next	-10.1028
▁baskets	-10.1031
▁except	-10.1031
▁API	-10.105
▁powered	-10.1051
SA	-10.1053
▁wife	-10.106
▁Society	-10.106
off	-10.1064
▁artist	-10.1067
zo	-10.1075
▁Castle	-10.1077
CA	-10.1078
▁Glass	-10.1082
▁deleted	-10.1086
▁dating	-10.1092
board	-10.1092
▁sharing	-10.1093
▁parents	-10.1094
▁wobble	-10.1097
▁generally	-10.1098
▁follows	-10.11
▁SAR	-10.1102
▁Pay	-10.1104
ja	-10.1105
▁income	-10.1111
▁instrument	-10.1114
▁luggage	-10.1117
Com	-10.1134
▁watching	-10.1136
▁silver	-10.1137
▁cutting	-10.1143
▁Act	-10.1148
▁Jiuzhaigou	-10.115
▁sending	-10.1158
▁Font	-10.1159
▁increasingly	-10.1161
▁arrived	-10.1164
▁administration	-10.1165
▁initial	-10.1179
▁preview	-10.1182
▁improved	-10.1184
▁song	-10.1189
▁challenge	-10.119
▁dinner	-10.1191
▁restaurants	-10.1193
▁tickets	-10.1193
▁leader	-10.1196
▁speak	-10.1198
top	-10.1201
▁ahead	-10.1202
▁remote	-10.1202
▁operate	-10.1203
Do	-10.1204
▁exactly	-10.1206
▁LINE	-10.1215
▁Ukrainian	-10.1222
▁testing	-10.123
▁tower	-10.1231
▁Two	-10.1235
▁fix	-10.1235
▁installing	-10.1239
22	-10.1243
▁competition	-10.1244
▁spaces	-10.1248
▁ex	-10.1248
▁chosen	-10.125
▁Health	-10.1253
▁Ya	-10.1254
▁represent	-10.1259
va	-10.1263
▁quick	-10.1263
▁sheet	-10.1266
▁university	-10.1273
▁decide	-10.1278
▁Super	-10.129
")	-10.1293
▁Ad	-10.1293
▁refund	-10.1294
▁suggest	-10.1295
scale	-10.1295
▁USA	-10.1301
▁causes	-10.1303
CO	-10.1307
▁museum	-10.1308
▁Danish	-10.1311
▁exclusive	-10.1313
▁girl	-10.1316
▁printed	-10.1328
▁rely	-10.1329
▁shops	-10.1331
▁poor	-10.1334
▁happened	-10.1338
▁Thank	-10.1338
▁suggestions	-10.134
▁sounds	-10.1344
NO	-10.1344
▁route	-10.1348
▁Language	-10.1354
▁sterling	-10.1355
▁Norwegian	-10.1362
▁~	-10.1364
▁mouse	-10.1366
▁east	-10.1375
▁nearly	-10.138
▁pool	-10.1384
36	-10.1391
▁experiences	-10.1392
▁Videos	-10.1396
▁franc	-10.1397
▁Ga	-10.1401
▁secret	-10.1401
▁achieved	-10.1403
▁minimum	-10.1405
▁entrance	-10.1406
▁Mountain	-10.1407
▁wire	-10.141
▁older	-10.1416
▁compliance	-10.1417
▁critical	-10.142
▁Grand	-10.1421
▁2003	-10.1422
shan	-10.1427
▁indicate	-10.1442
▁Space	-10.1444
▁fo	-10.1454
▁DO	-10.1454
su	-10.1456
▁l	-10.1458
▁currency	-10.1459
▁GBP	-10.1495
▁starts	-10.1497
▁Crypto	-10.1497
▁displays	-10.15
~	-10.1503
▁THIS	-10.1509
▁fiscal	-10.151
▁desired	-10.1512
▁Channel	-10.1512
▁extensive	-10.1521
▁Human	-10.1525
▁AUD	-10.1525
ible	-10.1529
▁Professor	-10.1533
▁recognized	-10.1534
▁fabric	-10.1536
▁peak	-10.1536
▁combined	-10.1539
oc	-10.154
▁manual	-10.1542
▁letter	-10.1544
ran	-10.1545
▁leaders	-10.1545
La	-10.1546
▁sand	-10.1548
▁nearest	-10.1549
▁creative	-10.1551
▁patient	-10.1554
▁district	-10.1554
▁cm	-10.1557
▁thousands	-10.1557
▁innovative	-10.1558
▁auto	-10.156
▁70	-10.1563
▁abroad	-10.1569
▁Their	-10.1575
▁Auto	-10.1576
▁marked	-10.1578
▁discussion	-10.1578
▁guest	-10.1585
▁processed	-10.1598
▁president	-10.161
▁organized	-10.1612
ware	-10.1617
▁Jamiroquai	-10.1618
▁circumstances	-10.1618
▁presentation	-10.162
▁thick	-10.162
▁firm	-10.1622
▁Application	-10.1633
▁relatively	-10.1635
▁houses	-10.1637
▁perhaps	-10.1643
▁visiting	-10.1644
▁implement	-10.1648
ries	-10.165
▁enabled	-10.1651
▁Buddhist	-10.1654
▁belongs	-10.1655
▁satellite	-10.1659
▁expressed	-10.1663
▁represents	-10.1664
▁valid	-10.1669
▁female	-10.1669
▁Plan	-10.1673
▁Pound	-10.1675
▁trend	-10.1678
ph	-10.168
▁forces	-10.1688
▁sets	-10.169
▁elite	-10.169
▁Arts	-10.1691
▁efficient	-10.1692
▁RUB	-10.1692
▁earthquake	-10.1693
▁classic	-10.1703
▁instructions	-10.1708
▁Community	-10.1712
▁Graduate	-10.1719
▁primary	-10.1728
sion	-10.173
▁SEK	-10.1732
▁advice	-10.1737
▁krona	-10.1749
▁opt	-10.1752
▁adding	-10.1753
▁Material	-10.1762
▁Friday	-10.1768
▁ring	-10.1768
▁pure	-10.177
▁seats	-10.1775
▁colleagues	-10.1775
▁flight	-10.1776
▁updates	-10.1777
▁researchers	-10.1778
▁theater	-10.178
▁Blockchain	-10.1782
▁Well	-10.1783
▁net	-10.1786
▁smart	-10.1796
▁healthy	-10.1796
▁ruble	-10.18
der	-10.1801
ng	-10.1803
▁History	-10.1808
▁establish	-10.181
▁behalf	-10.1817
▁Star	-10.1823
▁tube	-10.1832
▁towns	-10.1834
▁CNY	-10.1835
zi	-10.1837
AC	-10.1842
▁Spanish	-10.1848
▁proper	-10.1848
▁navigation	-10.1849
27	-10.1853
▁scientific	-10.1856
▁inner	-10.1857
▁prevention	-10.186
▁western	-10.186
▁CHF	-10.1861
▁enables	-10.1861
▁Fu	-10.1864
▁Canada	-10.1869
▁rand	-10.187
▁Florist	-10.187
▁definitely	-10.1879
tor	-10.1881
▁boat	-10.1882
▁meat	-10.1892
▁CZK	-10.1895
▁Board	-10.1895
▁Apple	-10.1897
▁?	-10.1904
IN	-10.1906
▁KRW	-10.1906
▁engineering	-10.1913
▁analytical	-10.1913
ions	-10.1921
▁ZAR	-10.1923
▁bio	-10.1925
▁citizens	-10.1925
nt	-10.1926
▁httpd	-10.1927
sh	-10.193
▁pull	-10.1931
▁UTC	-10.1933
▁editing	-10.1938
▁measurement	-10.1941
▁ingredients	-10.1941
▁Audio	-10.1942
▁Who	-10.1942
▁differ	-10.1943
▁bound	-10.1944
TA	-10.1946
▁crown	-10.1947
▁origin	-10.1948
▁Will	-10.195
mb	-10.1958
▁showed	-10.1959
▁2007	-10.1963
cha	-10.1963
▁sensor	-10.1964
xi	-10.1974
▁Tu	-10.1977
°	-10.1987
▁serving	-10.1989
▁specifications	-10.1991
▁index	-10.1993
▁arts	-10.1998
▁crystal	-10.2003
▁NOK	-10.2003
▁Love	-10.2004
▁strive	-10.2009
▁Start	-10.2021
▁HKD	-10.2029
▁Microsoft	-10.2032
▁translation	-10.2035
▁SGD	-10.2037
▁Second	-10.2039
▁spent	-10.2041
▁listen	-10.2044
▁handling	-10.205
▁Shift	-10.205
▁DKK	-10.2053
35	-10.2054
▁survey	-10.2058
▁wave	-10.2061
▁occurs	-10.2062
▁statement	-10.2068
▁Through	-10.2069
▁club	-10.2071
▁electricity	-10.2073
▁»	-10.2076
▁bodies	-10.2078
▁liquid	-10.2081
▁participation	-10.2083
▁significantly	-10.2083
Japanese	-10.2085
press	-10.209
▁6.	-10.2091
▁motion	-10.2092
vo	-10.2093
▁manufacture	-10.2093
set	-10.2095
▁slow	-10.2097
▁brands	-10.21
▁Customer	-10.2102
▁records	-10.2105
▁lira	-10.2107
▁bought	-10.2107
▁tracks	-10.2111
▁Xi	-10.2115
▁NZD	-10.2125
▁coast	-10.2126
▁comments	-10.2126
▁innovation	-10.2128
▁pax	-10.213
▁fans	-10.213
▁Termini	-10.2131
▁forget	-10.2132
▁capable	-10.2132
▁emissions	-10.2134
▁BRL	-10.214
▁award	-10.2144
▁Key	-10.2145
▁Se	-10.2149
.1	-10.2152
▁riyal	-10.2153
▁Bi	-10.2153
▁Automatic	-10.2155
▁encourage	-10.2157
▁career	-10.2163
▁UAH	-10.2163
▁Ocean	-10.2164
▁hryvnia	-10.2169
[	-10.217
▁lunch	-10.217
▁funds	-10.2174
▁topic	-10.2176
▁koruna	-10.2178
▁provider	-10.2182
lic	-10.2187
▁Bay	-10.2194
29	-10.2196
Free	-10.2197
sha	-10.2202
▁improvement	-10.2202
▁unless	-10.2211
LE	-10.2213
▁iOS	-10.2219
▁fees	-10.222
▁USB	-10.2222
▁anytime	-10.2227
▁Game	-10.2228
▁5.	-10.223
see	-10.2238
mer	-10.2238
▁Furthermore	-10.2245
ap	-10.2251
▁string	-10.2253
▁Kim	-10.2255
▁institutions	-10.2255
pro	-10.226
▁anywhere	-10.2264
▁secured	-10.2267
▁holiday	-10.2273
▁authority	-10.2274
tube	-10.2276
car	-10.228
▁schools	-10.228
▁Both	-10.228
▁preferences	-10.2281
hu	-10.2285
▁wet	-10.2285
▁separated	-10.2286
res	-10.2287
▁Room	-10.2289
▁biggest	-10.229
▁industries	-10.2291
MS	-10.2292
▁Know	-10.2292
fu	-10.2296
▁assets	-10.2305
▁quiet	-10.2305
▁Multi	-10.2308
▁whom	-10.2327
▁John	-10.2335
can	-10.234
▁insurance	-10.2343
▁attempt	-10.2345
▁privacy	-10.2346
▁passage	-10.2347
CC	-10.2348
▁cycle	-10.2348
▁controlled	-10.2349
▁constantly	-10.2354
▁standing	-10.2358
▁Last	-10.2359
including	-10.2366
ins	-10.2368
▁gradually	-10.2373
▁Greek	-10.2376
ah	-10.2376
bar	-10.2378
▁Main	-10.238
▁fight	-10.2381
▁Ki	-10.2382
▁v	-10.2384
▁Editor	-10.2385
:30	-10.2391
▁maps	-10.2393
▁variable	-10.2397
low	-10.2402
▁domain	-10.2403
45	-10.2404
▁dial	-10.2405
▁DVD	-10.2408
ju	-10.2409
▁connections	-10.241
vi	-10.2412
100	-10.2412
▁10:00	-10.2413
▁Call	-10.2413
▁Good	-10.2414
▁Studio	-10.2419
▁birth	-10.242
▁waves	-10.2422
▁bath	-10.2426
!!	-10.2426
▁planned	-10.2437
▁Spain	-10.2439
▁Team	-10.2439
▁cream	-10.2443
ep	-10.2452
▁feed	-10.2462
▁practical	-10.2462
▁authors	-10.2464
▁desire	-10.2465
▁alternative	-10.2467
▁Israel	-10.2473
▁trouble	-10.2476
▁brings	-10.2477
▁Agreement	-10.2482
▁Mt	-10.2484
37	-10.2484
▁n	-10.2489
▁drawing	-10.2496
▁northern	-10.25
▁wiki	-10.25
▁seek	-10.2501
▁integration	-10.2502
▁Fuji	-10.2506
▁wild	-10.2512
▁concerned	-10.2516
▁assigned	-10.2516
▁border	-10.2522
▁goals	-10.2526
▁FAQ	-10.2528
▁centre	-10.2548
▁emergency	-10.2553
▁miles	-10.2554
▁motor	-10.2555
▁flavor	-10.2559
▁29	-10.256
▁widely	-10.2564
ger	-10.2567
▁Working	-10.2569
▁British	-10.2569
▁seeing	-10.2571
tan	-10.2573
▁Sunday	-10.2575
▁Te	-10.2576
▁relations	-10.2582
TO	-10.2583
▁authentication	-10.2584
▁faster	-10.2588
▁2009	-10.2596
▁Food	-10.2597
▁riding	-10.2598
▁stories	-10.2607
▁permanent	-10.2608
▁tail	-10.2609
ken	-10.2612
▁specifically	-10.262
ification	-10.2626
▁styles	-10.2629
▁Sales	-10.2641
▁powder	-10.2641
ging	-10.2642
act	-10.2642
tal	-10.2644
▁sin	-10.2645
▁Movement	-10.2647
let	-10.2649
▁unable	-10.2649
▁Youth	-10.2649
mura	-10.2656
▁categories	-10.2667
▁equal	-10.2667
▁gallery	-10.2668
▁transferred	-10.2668
▁dish	-10.267
▁terminal	-10.267
▁raise	-10.2674
▁convenient	-10.2675
▁concerns	-10.2681
▁cameras	-10.2682
▁eating	-10.2682
▁managed	-10.2682
Other	-10.2684
▁southern	-10.2686
▁IS	-10.2688
▁platforms	-10.2695
▁confirmed	-10.2696
▁cash	-10.2698
▁consult	-10.27
q	-10.2708
▁nearby	-10.2713
▁MILFS	-10.2717
23	-10.2722
▁helping	-10.2723
▁keeping	-10.2723
▁Wikia	-10.2724
▁workers	-10.2725
che	-10.2727
light	-10.2728
▁31	-10.2729
▁containing	-10.2735
▁Up	-10.2738
▁introduction	-10.274
ever	-10.2741
▁resistant	-10.2751
OR	-10.2754
55	-10.2756
▁illegal	-10.2758
95	-10.2773
▁indeed	-10.2775
▁technique	-10.2782
▁Conference	-10.2785
▁("	-10.2789
▁draw	-10.2791
▁Culture	-10.2793
▁k	-10.2793
▁transportation	-10.2801
▁album	-10.2802
ana	-10.2803
-2	-10.2806
SI	-10.2806
▁crowd	-10.2807
▁receiving	-10.2812
▁plates	-10.2822
▁stopped	-10.2826
▁visual	-10.2828
NA	-10.2831
pi	-10.2832
▁ones	-10.2835
▁sugar	-10.2838
▁st	-10.284
▁Town	-10.2849
▁Release	-10.285
▁Iran	-10.2855
▁liable	-10.2856
▁selling	-10.2857
▁sit	-10.2862
▁newest	-10.2864
But	-10.2865
▁controls	-10.2869
▁claim	-10.287
▁signed	-10.2874
▁joined	-10.2876
▁situations	-10.2878
▁resolve	-10.2881
▁beer	-10.2886
▁Spring	-10.2887
▁promoting	-10.289
form	-10.2891
▁studying	-10.2894
▁photographs	-10.2896
▁urban	-10.2902
▁persons	-10.2903
▁Organization	-10.2905
▁pair	-10.2908
▁activate	-10.2908
▁Communications	-10.2914
▁Email	-10.2915
▁clothes	-10.2916
▁streets	-10.2923
ium	-10.2925
▁Trump	-10.2925
▁pretty	-10.2929
ub	-10.2933
▁expensive	-10.2933
▁extent	-10.2938
▁noted	-10.2939
▁Full	-10.2939
▁walls	-10.2943
▁Non	-10.2946
▁Emperor	-10.2947
▁Edo	-10.2948
▁runs	-10.2948
qui	-10.295
▁Village	-10.295
▁accuracy	-10.2952
▁Trade	-10.2953
▁sorry	-10.2955
port	-10.2961
▁died	-10.2968
▁issued	-10.2968
64	-10.2971
▁comfortably	-10.2971
▁voltage	-10.2973
▁manufacturers	-10.2979
▁failed	-10.298
▁Choose	-10.298
▁Book	-10.2981
han	-10.2984
▁45	-10.2988
ified	-10.2989
kan	-10.2993
▁35	-10.3006
▁kilometers	-10.3006
pt	-10.3007
ical	-10.3009
▁Meeting	-10.3015
▁roll	-10.3015
▁strengthen	-10.3018
▁FANDOM	-10.3019
▁Thanks	-10.3021
▁wooden	-10.3021
▁divided	-10.3022
▁submit	-10.3024
▁talking	-10.3024
▁depth	-10.3029
▁interior	-10.3031
▁Education	-10.3032
▁Indian	-10.3035
kin	-10.3035
▁Such	-10.3038
▁diseases	-10.3039
don	-10.3042
500	-10.3042
▁closer	-10.3043
▁customize	-10.305
▁definition	-10.305
art	-10.3052
▁Ru	-10.3054
▁formation	-10.3057
%	-10.3059
▁horse	-10.3059
▁Jo	-10.3061
ichi	-10.3067
▁setup	-10.3068
▁Place	-10.3072
▁Seoul	-10.3072
。	-10.3075
▁painting	-10.3084
▁consists	-10.3085
▁Ku	-10.3085
▁stream	-10.309
▁angle	-10.3095
▁competitive	-10.3097
DI	-10.3099
▁editor	-10.31
▁AMeDAS	-10.3102
▁addresses	-10.3105
▁mo	-10.3108
▁promotion	-10.3109
▁Tibetan	-10.3111
▁Adobe	-10.3118
tri	-10.312
#	-10.3121
▁Si	-10.3122
▁gone	-10.3126
▁correctly	-10.3126
▁designs	-10.3132
level	-10.3136
▁lease	-10.3144
▁mining	-10.3146
▁operated	-10.3146
▁Am	-10.3148
box	-10.3155
▁clouds	-10.3156
▁32	-10.3156
king	-10.3176
kawa	-10.3179
DA	-10.3203
▁ball	-10.3204
▁rapid	-10.3205
clock	-10.3213
▁Wi	-10.3214
▁networks	-10.3214
shima	-10.3216
CH	-10.3224
33	-10.3227
fe	-10.3229
▁modules	-10.3234
▁150	-10.3243
▁outlet	-10.3245
▁missing	-10.325
▁roof	-10.3251
▁2008	-10.3253
▁exact	-10.3254
▁Railway	-10.326
▁mention	-10.3266
▁Ver	-10.327
▁attached	-10.3275
▁Cloud	-10.3279
▁focused	-10.3281
▁Third	-10.329
click	-10.329
▁enforcement	-10.3292
▁Steel	-10.3294
ming	-10.3297
▁explore	-10.3297
▁raw	-10.3299
▁Lo	-10.3303
app	-10.3305
▁Netherlands	-10.3305
▁targeted	-10.3306
▁signs	-10.3307
ow	-10.3314
▁Have	-10.3314
▁insert	-10.3317
▁consideration	-10.3317
Wallpapers	-10.332
BA	-10.3322
▁reserve	-10.333
▁windows	-10.3335
not	-10.3342
▁typical	-10.3348
▁colours	-10.3348
▁Division	-10.3349
which	-10.3352
▁optical	-10.3353
▁milk	-10.3355
▁investors	-10.3356
As	-10.3359
ok	-10.3359
▁elegant	-10.336
▁Learn	-10.3361
▁giant	-10.3362
▁implemented	-10.3364
▁header	-10.337
▁framework	-10.337
!"	-10.3373
▁battle	-10.3373
cy	-10.3384
▁organic	-10.3385
▁cock	-10.3391
▁YOUR	-10.3391
▁broken	-10.3403
▁2.4	-10.341
▁cup	-10.3413
▁detect	-10.3415
▁venue	-10.3419
▁schedule	-10.3427
▁apartment	-10.3428
▁observed	-10.3442
▁foundation	-10.3443
▁stability	-10.3446
▁telephone	-10.3447
▁lived	-10.3447
34	-10.3447
▁seat	-10.3453
▁escape	-10.3456
When	-10.3467
▁greatly	-10.3467
▁16.	-10.3469
▁fair	-10.3469
▁JAV	-10.347
aki	-10.3475
▁originally	-10.3479
▁Studies	-10.3482
▁strange	-10.3485
▁(1)	-10.3485
▁Engineering	-10.3487
▁brother	-10.3489
▁Palace	-10.3489
▁Find	-10.3489
▁Middle	-10.3492
▁Ex	-10.3493
▁hosted	-10.3497
▁accounts	-10.3497
▁amazing	-10.3498
OS	-10.3503
▁recognition	-10.3507
▁parameter	-10.3511
▁Dial	-10.3512
▁scan	-10.3519
▁Activities	-10.3529
▁spots	-10.3529
▁withdraw	-10.353
▁CA	-10.3531
▁acts	-10.3533
▁breakfast	-10.3535
▁restore	-10.3553
▁Pi	-10.3556
▁cooking	-10.3556
▁cast	-10.356
▁Old	-10.3561
▁faith	-10.3563
long	-10.3564
▁treated	-10.3566
ber	-10.3572
▁Ne	-10.3573
85	-10.3576
▁depends	-10.3576
▁knew	-10.3577
▁cheaper	-10.3584
▁resulting	-10.3594
▁reads	-10.3596
▁turns	-10.3596
quality	-10.3608
▁pm	-10.3611
▁plus	-10.3611
▁generate	-10.3615
▁agent	-10.3616
▁alien	-10.3617
▁specialize	-10.3618
▁Court	-10.3622
▁strictly	-10.3627
▁meal	-10.3628
▁DELIVERY	-10.3632
ei	-10.3636
▁Industry	-10.3641
▁increases	-10.3643
▁concert	-10.3648
▁acid	-10.3653
ut	-10.3658
ps	-10.366
ON	-10.366
▁identified	-10.3662
▁Features	-10.3666
room	-10.3669
Fonts	-10.3671
▁Its	-10.3679
▁dynamic	-10.368
made	-10.3685
▁capture	-10.3686
▁Affairs	-10.369
▁pot	-10.3692
log	-10.3696
cing	-10.3698
▁Monday	-10.3699
▁concrete	-10.3703
AD	-10.3705
▁patterns	-10.3706
▁※	-10.3708
▁Change	-10.3715
▁inform	-10.3716
▁treat	-10.3716
▁(2)	-10.372
▁FLORI	-10.3723
▁Location	-10.3723
▁posts	-10.3725
site	-10.3729
▁luxury	-10.3733
▁trademark	-10.3738
▁Hokkaido	-10.375
▁Big	-10.375
ot	-10.376
▁Sho	-10.3762
▁flash	-10.3763
▁teams	-10.3766
▁Cyclone	-10.3766
▁calls	-10.3772
▁expansion	-10.3774
▁instruments	-10.3774
Please	-10.3784
▁classes	-10.3785
▁raised	-10.3785
▁knows	-10.3794
▁creates	-10.3795
▁weapons	-10.3797
▁Hot	-10.3802
▁Games	-10.3811
▁Tai	-10.3818
▁capabilities	-10.3822
▁apart	-10.3823
▁magazine	-10.3825
▁distributed	-10.3831
▁Card	-10.3837
ン	-10.3838
38	-10.3838
▁Boys	-10.3839
▁moon	-10.384
▁vendors	-10.3848
RC	-10.385
▁Three	-10.3851
fi	-10.3853
▁tasks	-10.3853
ai	-10.3854
▁Class	-10.3855
▁Environment	-10.3858
kai	-10.3864
▁Cup	-10.3866
ned	-10.387
▁Sha	-10.3871
▁massive	-10.3873
▁shoes	-10.388
RO	-10.3883
▁Stainless	-10.3885
AT	-10.3886
▁wants	-10.3886
▁OUR	-10.3895
▁Ten	-10.3895
▁precision	-10.3897
▁ho	-10.3898
ue	-10.39
▁discuss	-10.3902
▁conversion	-10.3906
▁agreed	-10.3914
De	-10.3916
39	-10.3925
▁commitment	-10.3927
▁define	-10.3928
▁hundred	-10.3933
▁intellectual	-10.394
▁helped	-10.3957
▁satisfied	-10.3962
▁careful	-10.3963
▁temperatures	-10.3965
▁differences	-10.3968
fer	-10.3973
▁indicates	-10.3975
▁electrical	-10.3975
▁Switzerland	-10.3984
▁viewed	-10.3988
ven	-10.3989
Self	-10.3994
dis	-10.3996
▁hole	-10.3996
▁segment	-10.4001
▁recover	-10.4001
▁Environmental	-10.4008
▁Edit	-10.4014
▁tracking	-10.4019
▁Dai	-10.4022
▁End	-10.4026
▁Centre	-10.4027
▁aspects	-10.403
▁awareness	-10.4031
fa	-10.4032
▁delay	-10.4034
▁Forum	-10.4038
▁theory	-10.4039
▁1:	-10.4042
▁Prime	-10.4043
▁profit	-10.4043
▁outdoor	-10.4044
EL	-10.4045
▁Read	-10.405
▁Taipei	-10.4052
▁taxes	-10.4053
▁police	-10.4059
▁perspective	-10.4064
▁modified	-10.4065
▁lens	-10.4066
▁Wikipedia	-10.4071
▁afternoon	-10.4075
▁causing	-10.4075
known	-10.4075
▁contrast	-10.4075
all	-10.4077
▁soup	-10.4078
▁clock	-10.4083
our	-10.4085
▁(1	-10.4091
list	-10.4092
▁couldn	-10.4093
IS	-10.4093
▁designer	-10.4095
iv	-10.4096
▁kitchen	-10.41
TE	-10.4101
▁invited	-10.4103
44	-10.411
▁seemed	-10.4113
▁virus	-10.4114
▁fan	-10.4115
AN	-10.412
▁conventional	-10.4127
▁Sports	-10.4132
▁2004	-10.4133
▁entering	-10.4135
▁Force	-10.4135
▁tradition	-10.4137
▁Mexico	-10.4143
Google	-10.4145
▁arrival	-10.4148
▁browsing	-10.4148
▁replace	-10.4151
▁cuisine	-10.4158
▁Islands	-10.4158
▁Customs	-10.4161
▁trends	-10.4163
▁NO	-10.4164
▁movements	-10.4169
ual	-10.4169
▁searching	-10.4169
▁reaction	-10.4171
▁distribute	-10.4173
▁Quality	-10.4174
▁Images	-10.4174
▁risks	-10.4179
▁Onlinesaleus	-10.418
ley	-10.4184
▁contemporary	-10.4184
▁Realm	-10.4185
▁autumn	-10.4187
▁2020	-10.4189
▁Maps	-10.4194
▁leather	-10.4197
▁requested	-10.4199
▁begins	-10.4203
▁improving	-10.4205
▁computers	-10.4206
ator	-10.4208
▁texture	-10.4208
▁adult	-10.4211
▁BE	-10.4212
▁obvious	-10.4214
▁Rotary	-10.4215
star	-10.422
▁prefer	-10.4224
▁2001	-10.4224
▁expanding	-10.4228
ture	-10.4232
ide	-10.4239
▁Skype	-10.4239
▁sightseeing	-10.424
▁worship	-10.424
▁severe	-10.424
▁nation	-10.4241
▁reducing	-10.4241
75	-10.4253
▁Industrial	-10.4258
▁EU	-10.4262
▁residence	-10.4268
▁SERVICES	-10.4274
▁sauce	-10.4274
book	-10.4276
▁lies	-10.4277
▁Statistics	-10.4284
▁revealed	-10.4286
▁mankind	-10.4291
name	-10.4294
du	-10.4298
▁Look	-10.4299
▁Sustainability	-10.43
▁pan	-10.4301
▁eventually	-10.4302
▁rising	-10.431
▁Like	-10.4314
▁Finally	-10.4321
▁2:	-10.4324
em	-10.4324
▁Summer	-10.4325
▁reasonable	-10.4326
▁h	-10.4329
▁personnel	-10.4332
▁attended	-10.4333
▁upload	-10.4336
Con	-10.4338
▁referred	-10.4345
▁sort	-10.4347
▁bear	-10.4347
IP	-10.4349
▁empty	-10.4352
ct	-10.4355
ek	-10.4357
ab	-10.4363
▁constant	-10.4363
What	-10.4363
▁majority	-10.4369
cur	-10.4371
▁label	-10.4375
▁Sky	-10.4376
▁Du	-10.438
▁Nations	-10.4385
▁discover	-10.4386
ura	-10.4393
ET	-10.4395
class	-10.4397
▁Tri	-10.4399
▁trial	-10.4402
▁Kingdom	-10.4409
▁spiritual	-10.4425
lan	-10.443
▁RE	-10.4432
ice	-10.4433
▁Tw	-10.4436
▁fishing	-10.4444
▁Turkey	-10.445
▁evaluation	-10.4459
▁workshop	-10.446
▁impossible	-10.4462
MI	-10.4466
▁acknowledge	-10.4466
▁Standard	-10.447
▁participated	-10.447
▁Afghanistan	-10.4472
Fi	-10.4475
▁pitch	-10.4475
▁passing	-10.4476
IC	-10.4478
▁Number	-10.4479
▁Inter	-10.4484
▁Kids	-10.4486
AR	-10.4487
▁automation	-10.4488
▁fundamental	-10.4491
DO	-10.4494
▁Out	-10.4496
ery	-10.4501
▁disclose	-10.4505
▁Mode	-10.451
▁Summary	-10.4511
▁superior	-10.4525
▁regularly	-10.4527
▁attractions	-10.4529
▁Taka	-10.4533
▁pursue	-10.4536
▁performing	-10.4545
▁cryptocurrency	-10.4547
sy	-10.4547
▁thousand	-10.4548
▁Pan	-10.4551
▁vegetables	-10.4553
▁designated	-10.4554
▁BookingSuite	-10.4555
▁Request	-10.4556
ip	-10.4556
▁Event	-10.4557
▁communicate	-10.4558
▁speech	-10.4562
▁AI	-10.4563
▁]	-10.4563
GA	-10.4563
▁Rinpoche	-10.4564
▁Public	-10.4564
▁Social	-10.4567
▁GPS	-10.4571
▁captured	-10.4571
▁CEO	-10.4579
▁cancel	-10.458
▁marks	-10.4583
▁lo	-10.4592
▁Square	-10.4594
▁practices	-10.4602
▁predicted	-10.4606
▁miss	-10.4609
▁400	-10.4611
with	-10.4613
▁Local	-10.4614
▁globe	-10.4622
▁featured	-10.4625
▁reputation	-10.4629
▁adopted	-10.463
▁discussed	-10.463
▁sp	-10.4632
▁Contest	-10.4633
tu	-10.4636
▁songs	-10.4637
-3	-10.4638
▁Cultural	-10.4644
▁retain	-10.4646
SC	-10.4646
▁arranged	-10.4647
▁transactions	-10.4647
LA	-10.4651
▁upgrade	-10.4657
▁civil	-10.4658
▁assessment	-10.4659
▁court	-10.4663
▁minor	-10.4664
▁Alexander	-10.4666
▁2005	-10.4669
▁anniversary	-10.467
▁male	-10.4672
PA	-10.4673
▁aircraft	-10.4678
▁plane	-10.4684
▁representative	-10.4685
▁wash	-10.4686
▁province	-10.4691
▁sake	-10.4693
▁wrote	-10.4704
▁absolutely	-10.4708
▁Charm	-10.4708
▁drag	-10.471
46	-10.4711
ver	-10.4711
▁Family	-10.4712
▁remaining	-10.4714
▁Print	-10.4717
▁shot	-10.4718
▁representation	-10.472
▁assist	-10.4722
▁ON	-10.4723
▁bowl	-10.4724
hara	-10.4726
▁row	-10.4728
▁Child	-10.473
86	-10.4736
▁edition	-10.4738
▁charges	-10.474
cc	-10.4745
▁Study	-10.4745
▁79	-10.4749
right	-10.4753
▁indicated	-10.4755
▁busy	-10.4756
-5	-10.4757
▁Word	-10.4758
ther	-10.4759
head	-10.4762
▁sizes	-10.4764
▁cap	-10.4766
▁appreciate	-10.477
▁labor	-10.4775
▁claims	-10.4777
▁2006	-10.4781
ren	-10.4781
▁Rights	-10.4783
▁producing	-10.4784
▁reflect	-10.4786
▁Save	-10.4786
▁narrow	-10.4786
ving	-10.4789
▁clothing	-10.4791
▁continuous	-10.4795
▁conflict	-10.48
▁normally	-10.4802
▁rapidly	-10.4804
RI	-10.4806
▁watched	-10.4807
▁emails	-10.4809
▁sitting	-10.4812
▁primarily	-10.4815
ft	-10.4817
▁effectively	-10.482
▁holidays	-10.4828
▁Land	-10.4831
TS	-10.4833
▁banks	-10.4834
▁preparation	-10.4839
▁quarter	-10.4846
dy	-10.4846
▁Head	-10.4846
▁Cal	-10.4848
41	-10.485
99	-10.4853
▁fucking	-10.4858
▁prove	-10.486
▁flexible	-10.4864
▁golf	-10.4873
▁catch	-10.4875
▁Fleet	-10.4876
▁opposite	-10.4881
▁thank	-10.4889
▁Nara	-10.4901
▁surrounded	-10.4905
▁po	-10.4906
▁baby	-10.4906
▁Advanced	-10.4906
▁Christmas	-10.4912
▁parking	-10.4913
▁reliability	-10.4914
called	-10.4919
▁manager	-10.4919
▁Among	-10.4929
▁enjoyed	-10.4932
▁engage	-10.4933
▁expanded	-10.4936
▁precious	-10.4937
▁patent	-10.4937
▁greatest	-10.4939
▁Gu	-10.494
▁California	-10.4945
▁Amsterdam	-10.4948
▁CONTENT	-10.4951
▁Ji	-10.4952
ier	-10.4953
▁attractive	-10.4953
▁matters	-10.4957
▁Library	-10.4959
▁Record	-10.496
▁Hillary	-10.4963
▁packaging	-10.4971
▁Blog	-10.4975
▁width	-10.498
▁worry	-10.4981
ists	-10.4983
read	-10.4983
▁husband	-10.4985
▁facing	-10.4986
SP	-10.4987
▁sudden	-10.4995
65	-10.4995
▁transaction	-10.4996
▁approved	-10.4997
▁WiFi	-10.4999
▁plays	-10.4999
PS	-10.5
▁convenience	-10.5
nes	-10.5003
▁produces	-10.5004
▁bi	-10.5004
▁diverse	-10.5011
▁unknown	-10.5016
▁wallet	-10.5018
▁keyboard	-10.5018
▁warning	-10.502
▁Sitemap	-10.5022
▁fly	-10.5026
▁FROM	-10.5028
▁operates	-10.5028
making	-10.5029
▁partnership	-10.5032
▁Agency	-10.5034
▁king	-10.5035
66	-10.5044
▁officials	-10.5044
▁Nagoya	-10.5055
▁Anti	-10.5056
▁strongly	-10.5057
▁Church	-10.5058
▁sufficient	-10.506
▁rose	-10.5062
▁rotation	-10.5064
▁actively	-10.5067
▁gentle	-10.5069
public	-10.507
ose	-10.5071
▁Mon	-10.5073
▁awarded	-10.5079
▁Table	-10.508
▁diamond	-10.508
tin	-10.5087
▁compact	-10.509
▁scheduled	-10.5097
nic	-10.5107
Pro	-10.5107
▁everyday	-10.5107
▁sensitive	-10.5111
ita	-10.5113
▁drugs	-10.512
jav	-10.5123
▁leadership	-10.5129
▁realized	-10.513
▁Malaysia	-10.5131
▁Portal	-10.5133
AM	-10.5138
▁estimated	-10.5138
med	-10.514
▁passion	-10.5141
uff	-10.5143
AP	-10.5145
bin	-10.5146
▁Ju	-10.5146
ino	-10.515
▁apps	-10.5152
▁arrive	-10.5153
hand	-10.5154
▁kids	-10.5156
▁animal	-10.5157
▁priority	-10.5167
▁wheel	-10.5168
▁extended	-10.5176
▁Events	-10.5178
▁performances	-10.5182
▁temporary	-10.5187
▁Philippines	-10.5197
ase	-10.5199
▁entertainment	-10.5202
▁Source	-10.5203
▁structures	-10.5212
▁medicine	-10.5213
▁Commission	-10.5214
▁purchased	-10.5214
▁exists	-10.5219
▁threat	-10.5228
▁owned	-10.523
▁Building	-10.5235
▁circuit	-10.5237
▁leads	-10.5239
av	-10.524
▁blockchain	-10.5245
wn	-10.5247
▁bamboo	-10.525
▁doctor	-10.525
▁tests	-10.5252
▁lots	-10.5253
▁accident	-10.5254
▁node	-10.526
Ro	-10.5262
Ma	-10.5265
▁studio	-10.5267
▁delivering	-10.5271
▁diameter	-10.5273
▁Us	-10.5281
point	-10.5281
▁Cross	-10.5285
▁characteristic	-10.5285
▁positions	-10.5286
LO	-10.5289
000	-10.5292
▁closely	-10.5296
org	-10.5297
▁dangerous	-10.5298
▁stands	-10.5301
▁density	-10.531
▁sight	-10.5313
▁Thai	-10.5313
gan	-10.5314
▁Available	-10.5318
▁bo	-10.5319
▁principle	-10.532
▁Mobile	-10.5322
▁Course	-10.5323
▁ordinary	-10.5323
▁Mother	-10.5324
sis	-10.5326
OL	-10.5326
▁Meanwhile	-10.5329
▁(19	-10.533
▁turning	-10.5331
▁exciting	-10.5336
ade	-10.534
▁Releases	-10.5351
▁Hand	-10.5351
▁proposed	-10.5351
oo	-10.5354
▁broad	-10.5355
ui	-10.5358
▁examples	-10.5361
▁Roman	-10.5368
▁Users	-10.5368
42	-10.5368
▁Tower	-10.537
▁Spirit	-10.5371
MO	-10.5373
▁toolbar	-10.5376
▁Cooperation	-10.5377
▁branch	-10.5387
▁Executive	-10.5389
▁Apparel	-10.5391
▁thread	-10.5394
▁Experience	-10.54
▁lighting	-10.5402
▁craft	-10.5407
▁mostly	-10.5413
PC	-10.5415
▁2,	-10.5415
▁lights	-10.5417
IA	-10.5419
▁AM	-10.5425
▁Gallery	-10.5432
▁Tsu	-10.5436
km	-10.5438
▁Florence	-10.5441
SS	-10.5441
▁regardless	-10.5442
51	-10.5449
▁Right	-10.545
()	-10.5456
van	-10.5465
tain	-10.5466
▁KDDI	-10.5467
▁adults	-10.5467
▁tablet	-10.5469
▁scientists	-10.5473
▁signature	-10.5476
rate	-10.5478
▁Imperial	-10.5479
▁parent	-10.5481
▁elderly	-10.5482
▁logos	-10.5489
▁FLOWERS	-10.5495
▁traveling	-10.5497
▁Try	-10.5502
▁drawn	-10.5502
▁inspection	-10.5503
▁score	-10.5507
▁stuff	-10.551
▁al	-10.551
▁wireless	-10.5514
-4	-10.5516
Pa	-10.5516
▁stainless	-10.552
▁overview	-10.5522
▁Beach	-10.5524
▁attend	-10.5527
▁hundreds	-10.5529
▁Bridge	-10.5529
▁comparison	-10.5536
▁macro	-10.5537
TH	-10.5538
▁Plus	-10.554
▁concern	-10.5541
ised	-10.5544
▁directives	-10.5547
▁Questions	-10.555
▁posted	-10.5551
▁Port	-10.5553
▁daughter	-10.5554
▁interview	-10.556
▁Multiple	-10.556
▁carrying	-10.5564
▁aid	-10.5572
▁assume	-10.5573
▁Hit	-10.5574
▁floral	-10.5575
There	-10.5577
ear	-10.5586
▁symptoms	-10.5586
\	-10.559
▁courses	-10.5591
▁mixed	-10.5593
▁calendar	-10.56
▁false	-10.5602
▁eastern	-10.5604
ld	-10.5605
▁boxes	-10.5611
▁Prof	-10.5612
▁joy	-10.5617
▁Display	-10.5617
▁OpenImageBank	-10.562
▁Xhamster	-10.562
▁gifts	-10.5632
▁modif	-10.5634
▁notification	-10.5635
▁forth	-10.564
▁doubt	-10.5642
▁errors	-10.565
▁Export	-10.5651
▁loved	-10.5651
▁Bu	-10.5655
▁Sakura	-10.5656
▁Based	-10.5661
▁native	-10.5668
▁Work	-10.5669
▁Greece	-10.5671
▁configure	-10.5672
▁meetings	-10.5674
▁laser	-10.5678
yl	-10.568
▁suffering	-10.5691
▁Analytics	-10.5694
ably	-10.5694
▁approval	-10.5695
▁ca	-10.5702
▁Children	-10.5702
uri	-10.5705
▁cent	-10.5713
▁identity	-10.5714
▁extend	-10.5716
▁summary	-10.5718
▁contribution	-10.572
▁caught	-10.5725
▁confirmation	-10.5728
▁sole	-10.5729
▁clip	-10.5729
▁accessories	-10.5731
47	-10.5736
▁cave	-10.5743
▁grid	-10.5744
▁Friends	-10.5745
▁outfit	-10.5747
DE	-10.575
▁Dorjee	-10.5751
▁Rinchen	-10.5757
▁flexibility	-10.5759
▁SIM	-10.5763
▁crop	-10.5779
▁execute	-10.5779
▁tables	-10.578
COM	-10.5792
▁whatever	-10.5792
▁servers	-10.5794
▁hospital	-10.5794
▁Yet	-10.5798
▁freedom	-10.58
▁Small	-10.5801
▁District	-10.5804
▁Sen	-10.5806
▁smell	-10.5812
▁thermal	-10.5817
▁nine	-10.582
▁SHARE	-10.5826
▁respectively	-10.5827
pan	-10.5828
▁MOVIE	-10.5828
ano	-10.5829
▁fat	-10.583
▁purchasing	-10.5832
pre	-10.5835
▁Coast	-10.5835
▁24/7	-10.5838
▁Bible	-10.5839
▁tank	-10.5841
▁naturally	-10.5843
▁Iraq	-10.5843
py	-10.5846
▁surprise	-10.585
▁Qing	-10.5855
▁corresponded	-10.5857
▁MA	-10.5857
▁Rock	-10.5858
▁tips	-10.5859
▁Basic	-10.5861
▁conversation	-10.5861
▁dress	-10.5862
▁teaching	-10.5863
▁academic	-10.5863
▁scenic	-10.5865
ff	-10.5868
ey	-10.5871
▁replaced	-10.5873
▁College	-10.5874
▁Saturday	-10.5875
▁fell	-10.5877
▁existence	-10.5883
▁governments	-10.5885
▁blocks	-10.5887
▁attempts	-10.5888
ple	-10.589
▁Wu	-10.5894
mit	-10.5896
-7	-10.5899
▁pulled	-10.5899
▁Convention	-10.5899
wi	-10.5901
jp	-10.5902
▁tend	-10.5906
▁par	-10.5907
▁strategic	-10.591
▁ha	-10.5914
▁Royal	-10.5916
▁Dan	-10.5918
▁aspect	-10.5918
▁Province	-10.5926
▁liability	-10.5926
▁putting	-10.593
▁Oh	-10.5931
ig	-10.5932
▁Cryptocurrency	-10.5934
▁Depending	-10.5936
▁imp	-10.5936
ami	-10.5937
▁Promotion	-10.5937
▁sequence	-10.5938
▁topics	-10.5947
▁tight	-10.5948
ara	-10.5949
▁senior	-10.5954
▁initiatives	-10.5965
▁Strap	-10.5966
▁bringing	-10.5966
▁Shop	-10.5967
▁grand	-10.5969
▁gmail	-10.5969
▁Ministers	-10.5969
▁proud	-10.5969
▁portion	-10.597
▁expertise	-10.5972
gg	-10.5974
▁vote	-10.5975
▁signals	-10.5976
ons	-10.5981
▁Buddhism	-10.5983
▁proprietary	-10.5983
▁Wall	-10.5986
jin	-10.5991
▁Pe	-10.5994
▁Girls	-10.5994
▁curve	-10.5995
▁scheme	-10.6001
▁logged	-10.6002
ker	-10.6004
▁visitor	-10.6005
▁Academy	-10.6005
LY	-10.6014
▁audit	-10.6022
▁saving	-10.6028
▁wonder	-10.6029
▁climb	-10.6032
▁IF	-10.6035
▁bathroom	-10.6036
▁listing	-10.6036
▁likewise	-10.6046
49	-10.6046
▁composition	-10.6048
▁occu	-10.6052
▁fault	-10.6055
▁sunlight	-10.6058
▁loop	-10.6059
▁transition	-10.6064
98	-10.6066
▁advertisements	-10.6066
▁editors	-10.607
▁television	-10.6076
▁relative	-10.6078
▁Film	-10.6079
43	-10.6083
▁drum	-10.6083
cal	-10.6084
▁youth	-10.6086
▁Update	-10.6087
ato	-10.6087
▁palace	-10.6092
▁Bag	-10.6096
UN	-10.6101
▁equivalent	-10.6103
-8	-10.6108
▁layers	-10.6109
▁weak	-10.6114
▁grant	-10.6122
ori	-10.6124
▁attacks	-10.6124
▁bodyguard	-10.6124
▁Connect	-10.6126
▁2018.04.2	-10.6137
▁ran	-10.6138
▁exchanges	-10.6138
strictly	-10.6141
▁planets	-10.6141
▁ma	-10.6141
▁election	-10.6142
oka	-10.6143
tation	-10.6145
▁paint	-10.6145
▁holes	-10.6147
77	-10.6148
.02.09	-10.6151
▁2018.07.1	-10.6151
friendly	-10.6153
.09.06	-10.6154
2016.12.14	-10.6154
2016.05.18	-10.6157
▁engaged	-10.616
▁newsletter	-10.6163
rin	-10.6163
▁grown	-10.6164
▁ships	-10.6165
.06.05	-10.6166
▁DC	-10.6167
ological	-10.6168
2016.09.21	-10.6169
▁2016.09.1	-10.6169
▁hill	-10.617
▁outstanding	-10.617
▁constructed	-10.617
▁observe	-10.6171
▁initiative	-10.6171
▁cleaning	-10.6172
16.05.19	-10.6174
2017.06.03	-10.6174
2017.06.18	-10.6174
rovideo	-10.6174
▁entirely	-10.6176
▁functional	-10.6182
▁desktop	-10.6182
▁2018.07.30	-10.6185
▁entity	-10.6185
ari	-10.6186
speed	-10.6187
ens	-10.6188
how	-10.6191
lip	-10.6195
▁camp	-10.6204
▁inspired	-10.6206
56	-10.6208
▁believed	-10.6212
▁mini	-10.6216
▁smile	-10.6217
▁departure	-10.6218
▁defense	-10.6222
▁scope	-10.6228
▁Length	-10.6231
sp	-10.6232
▁¥	-10.6235
▁AD	-10.6235
▁killed	-10.6235
▁quantity	-10.6236
▁Jin	-10.6241
▁mu	-10.6245
ious	-10.6247
ments	-10.625
▁ApparelGoods	-10.6253
ix	-10.6257
▁contest	-10.6257
▁Yo	-10.6258
54	-10.6259
▁Mars	-10.6263
▁Golf	-10.6264
▁Regional	-10.6265
▁ourselves	-10.6268
▁guaranteed	-10.6268
▁boost	-10.6269
▁crisis	-10.627
mu	-10.6271
istic	-10.6272
▁72	-10.6275
design	-10.628
DS	-10.629
89	-10.629
▁tall	-10.6292
▁discussions	-10.6292
▁genuine	-10.6294
▁OK	-10.6295
▁pen	-10.6302
▁Dragon	-10.6303
rt	-10.6305
-10	-10.6306
▁developers	-10.6308
Mo	-10.6309
▁marketplace	-10.6311
▁sensors	-10.6312
▁documentation	-10.6313
▁restrictions	-10.6316
▁availability	-10.6319
▁Systems	-10.632
▁36	-10.6325
▁payments	-10.6327
▁Dis	-10.6333
from	-10.6334
▁array	-10.634
▁clinical	-10.6342
▁FLOWER	-10.6342
▁compare	-10.6345
▁refuse	-10.6346
cent	-10.6348
igh	-10.635
ute	-10.6356
▁lifestyle	-10.6357
▁Smart	-10.6357
▁samples	-10.636
▁valley	-10.6363
▁Heritage	-10.6368
▁consumers	-10.6369
rk	-10.6371
▁compatible	-10.6372
▁charged	-10.6376
▁customs	-10.6382
▁religious	-10.6391
▁pace	-10.6392
▁aimed	-10.6392
▁·	-10.6403
▁Sharing	-10.6407
▁varieties	-10.6408
▁encoding	-10.641
▁Spa	-10.6413
▁educational	-10.6414
▁Ken	-10.6415
▁environments	-10.6417
▁opinion	-10.6422
▁Peace	-10.6423
Pandora	-10.6427
▁arm	-10.6428
▁Ben	-10.643
DB	-10.6432
▁Materials	-10.6434
▁complaints	-10.6438
tech	-10.644
▁Cubase	-10.644
Be	-10.6441
▁placement	-10.6442
lar	-10.6444
▁mono	-10.645
▁repeatedly	-10.645
▁teacher	-10.645
tter	-10.6455
▁ME	-10.6459
▁listening	-10.6461
▁tomb	-10.6467
▁universities	-10.6467
▁Embassy	-10.6469
▁cherry	-10.6469
▁YouTube	-10.6471
▁wedding	-10.6471
▁maybe	-10.6471
▁Processing	-10.6471
▁centers	-10.6473
▁professionals	-10.6474
ea	-10.6479
▁protein	-10.648
▁evil	-10.6481
▁ongoing	-10.6482
tel	-10.6484
TI	-10.6485
▁decades	-10.6487
▁1000	-10.6493
▁symbols	-10.6499
▁embedded	-10.6499
▁du	-10.6499
▁explanation	-10.6501
ants	-10.6502
▁prompt	-10.6503
▁chicken	-10.6504
▁checked	-10.6506
row	-10.6506
▁agricultural	-10.6514
air	-10.652
▁aluminum	-10.6521
▁capability	-10.6525
▁discovery	-10.6532
▁w	-10.6535
▁Brand	-10.6537
▁granted	-10.6541
▁birds	-10.6542
▁plenty	-10.6548
▁specialized	-10.6551
▁ease	-10.6551
▁artificial	-10.6551
▁bags	-10.6552
▁Fund	-10.6553
▁honor	-10.6554
▁zero	-10.6555
▁understood	-10.6558
pot	-10.6559
▁extract	-10.6561
▁LED	-10.6563
▁trigger	-10.6564
▁cancellation	-10.6565
▁selecting	-10.657
▁dollars	-10.657
▁interpreter	-10.6575
▁Action	-10.6576
▁Link	-10.6581
▁cook	-10.6582
▁mis	-10.6582
▁grass	-10.6582
▁SA	-10.6583
▁twice	-10.6585
▁funding	-10.6588
▁Training	-10.6588
▁enterprises	-10.6591
▁ONLINE	-10.6592
mate	-10.6598
▁simultaneously	-10.66
▁impressive	-10.661
▁Charts	-10.6611
▁thoughts	-10.6611
▁Ge	-10.6617
▁attitude	-10.6621
▁1)	-10.6626
▁relationships	-10.6626
My	-10.6628
▁covers	-10.6634
▁controller	-10.6634
▁Form	-10.6634
▁bread	-10.6636
▁aliens	-10.6649
▁strip	-10.665
▁celebrate	-10.6651
▁satisfaction	-10.6652
▁DAMAGES	-10.6654
▁describe	-10.6656
▁Min	-10.6658
▁MS	-10.6659
ou	-10.6663
▁reviews	-10.6664
▁housing	-10.667
▁lecture	-10.668
▁completion	-10.6688
2018	-10.669
▁GB	-10.669
▁administrative	-10.6698
▁Nan	-10.6703
▁tons	-10.6707
▁leg	-10.6712
val	-10.6713
ign	-10.6717
▁decisions	-10.6719
▁trans	-10.672
▁Dark	-10.6721
▁chose	-10.6724
▁Winter	-10.6733
▁Does	-10.6739
▁participating	-10.6743
▁proof	-10.6744
▁moves	-10.6745
▁charts	-10.6747
iamo	-10.6747
83	-10.6749
▁container	-10.6749
▁genetic	-10.675
▁MO	-10.675
▁nations	-10.6753
▁Toshiba	-10.6755
▁burn	-10.6757
war	-10.6758
▁typhoon	-10.6758
▁studied	-10.6762
▁Test	-10.6762
▁outer	-10.6763
pp	-10.6766
▁continuously	-10.6768
moto	-10.677
▁universe	-10.677
▁Engine	-10.6775
▁pleasure	-10.6781
▁submitted	-10.6784
▁min	-10.6785
▁Log	-10.6788
▁scanning	-10.6788
▁pushed	-10.6789
▁sport	-10.679
He	-10.6791
▁Enjoy	-10.6792
DC	-10.6793
▁fibres	-10.6793
RA	-10.6799
57	-10.68
▁underground	-10.6801
▁reset	-10.6802
▁para	-10.6804
▁Pass	-10.6806
▁buying	-10.6808
▁novel	-10.6809
▁Night	-10.6811
uma	-10.6815
▁pixels	-10.6818
▁Express	-10.6819
ash	-10.6822
▁Jun	-10.6822
▁flying	-10.6824
PO	-10.683
▁Overview	-10.6834
▁Paul	-10.6836
▁random	-10.6837
PR	-10.6837
ile	-10.6838
▁MI	-10.6848
▁sections	-10.6849
▁bow	-10.6852
▁jump	-10.6857
▁DE	-10.6857
ening	-10.6857
▁gather	-10.686
2)	-10.6866
▁Fire	-10.6866
▁hide	-10.6869
▁confidence	-10.687
ris	-10.6875
shu	-10.688
▁Resort	-10.6884
▁sister	-10.6887
zen	-10.6887
▁forcing	-10.6889
▁weekend	-10.6891
pu	-10.6892
200	-10.6892
▁Financial	-10.6893
▁marine	-10.6893
▁ensuring	-10.6903
▁Meiji	-10.6908
▁Ti	-10.691
▁processor	-10.6913
▁birthday	-10.6913
82	-10.6913
▁returns	-10.6914
▁drinking	-10.6915
▁jobs	-10.6919
▁heaven	-10.692
▁Analysis	-10.6922
▁David	-10.6926
▁120	-10.693
ero	-10.6932
▁accompanied	-10.6935
▁rear	-10.6936
,5	-10.6948
serv	-10.6954
▁OTHER	-10.6957
▁entities	-10.6959
▁fourth	-10.696
▁agents	-10.6965
▁ALL	-10.6965
88	-10.697
▁strict	-10.6971
▁technological	-10.6971
69	-10.6972
▁Profile	-10.6979
▁7.	-10.6983
ations	-10.6987
▁semi	-10.699
▁ISO	-10.699
▁strategies	-10.6991
▁mUniSm	-10.6993
▁phones	-10.6994
▁Zen	-10.6997
▁51	-10.7
▁SO	-10.7007
▁brown	-10.7009
How	-10.7011
▁iPad	-10.7012
▁cursor	-10.7019
▁gear	-10.702
▁typically	-10.7022
▁uniqueness	-10.7029
5%	-10.703
▁Sub	-10.7031
▁r	-10.7032
▁Pu	-10.7033
EC	-10.7034
und	-10.7034
ola	-10.7038
▁intelligence	-10.7038
▁revenue	-10.7039
▁tags	-10.7046
▁transparent	-10.7051
▁Mark	-10.7051
▁Field	-10.7051
▁bike	-10.7054
▁Mail	-10.7055
Me	-10.7058
▁photograph	-10.7059
▁buyer	-10.7064
▁Sicily	-10.7066
▁bars	-10.7068
▁applies	-10.7069
84	-10.7073
kg	-10.7073
▁ends	-10.7073
▁oldest	-10.7081
cat	-10.7082
▁demands	-10.7083
ient	-10.7089
▁split	-10.709
▁choices	-10.7091
▁dining	-10.7093
▁deeply	-10.7097
▁skill	-10.7101
▁Exhibition	-10.7103
▁Level	-10.7103
▁Everyone	-10.7111
92	-10.7114
▁pin	-10.7115
▁Evernote	-10.7116
▁Made	-10.7117
▁playback	-10.7118
ns	-10.7119
sk	-10.7121
▁chocolate	-10.7123
And	-10.7123
▁ended	-10.7126
▁scratch	-10.7126
▁deposit	-10.7127
gin	-10.7132
ik	-10.7134
bs	-10.7135
▁perfectly	-10.7138
Co	-10.7139
▁exposure	-10.7139
▁Sound	-10.714
▁iTunes	-10.7143
96	-10.7145
▁Washington	-10.7152
stone	-10.7156
▁composed	-10.7161
▁maintaining	-10.7162
▁disc	-10.7162
▁stretch	-10.7166
mal	-10.7167
▁tag	-10.7168
▁2)	-10.717
▁Royalty	-10.7172
▁Despite	-10.7176
▁Micro	-10.7177
▁silk	-10.7177
▁folk	-10.7186
▁Having	-10.7186
▁01	-10.7187
Pressure	-10.7187
▁coating	-10.7188
▁Though	-10.7188
▁transmit	-10.7189
▁Subaru	-10.7195
iko	-10.7195
97	-10.7199
▁fuck	-10.72
ay	-10.7201
▁winning	-10.7205
bra	-10.7205
▁Dong	-10.7214
▁chart	-10.7216
▁vertical	-10.7219
▁feelings	-10.7219
eo	-10.7221
HO	-10.7222
int	-10.7223
1)	-10.7223
▁diet	-10.7225
▁opens	-10.7227
CM	-10.7227
▁teenage	-10.723
▁stick	-10.723
▁describes	-10.7233
▁revision	-10.7235
▁Sp	-10.7238
▁experiment	-10.7239
▁Future	-10.7242
▁$9	-10.7243
▁lessons	-10.7244
ada	-10.7248
▁mine	-10.7251
▁talked	-10.7254
▁seeking	-10.7255
▁assign	-10.7256
▁timing	-10.7258
▁Custom	-10.7258
OP	-10.7259
▁suffer	-10.7261
WA	-10.7263
▁simulation	-10.7264
▁Base	-10.7265
▁42	-10.7266
▁%	-10.7267
▁sat	-10.7268
▁Hiroshima	-10.7273
▁Cor	-10.7277
gra	-10.7278
▁prize	-10.7279
▁lock	-10.7284
▁Transfers	-10.7293
▁Technical	-10.7293
jet	-10.7296
▁replacement	-10.7297
▁pleasant	-10.73
▁modification	-10.73
▁argument	-10.7304
▁statistics	-10.7304
▁cat	-10.7305
mic	-10.7305
▁suit	-10.7307
▁adjustment	-10.7308
▁Vol	-10.7309
▁License	-10.7309
▁asking	-10.731
All	-10.7311
▁Salesforce	-10.7312
cell	-10.7312
▁Weight	-10.7315
▁musical	-10.7317
▁Snow	-10.732
▁Com	-10.7325
dic	-10.7331
▁subscription	-10.7332
▁Naka	-10.7334
67	-10.7335
▁provision	-10.7335
▁Region	-10.7337
▁sh	-10.7342
▁Asahi	-10.7348
▁Address	-10.735
▁FY	-10.735
even	-10.7351
ao	-10.7352
take	-10.7354
▁lifetime	-10.7355
▁Mount	-10.7355
▁objective	-10.7356
▁guidelines	-10.7359
▁Machine	-10.7359
▁Baby	-10.7362
").	-10.7365
▁33	-10.7367
▁periods	-10.7368
▁Shu	-10.7368
▁golden	-10.7369
▁cruel	-10.7372
▁finance	-10.7374
▁Nippon	-10.7375
▁del	-10.7376
▁holds	-10.7377
▁Further	-10.7379
▁gray	-10.7382
lia	-10.7383
▁imagine	-10.7389
▁consumer	-10.7392
▁ads	-10.7394
minute	-10.7394
▁3:	-10.7396
▁shock	-10.7398
▁te	-10.7399
▁bottle	-10.7401
▁absence	-10.7403
▁rubber	-10.7405
▁Valley	-10.7405
▁farm	-10.7406
ob	-10.741
▁trail	-10.741
MB	-10.741
ria	-10.7412
▁2017.	-10.7413
▁tip	-10.7413
▁Sciences	-10.7416
vis	-10.7418
▁Whether	-10.7419
▁affects	-10.7421
▁certification	-10.7425
▁$2	-10.7435
▁Myanmar	-10.7435
▁packages	-10.7436
▁unto	-10.7436
▁inquiry	-10.7438
▁Los	-10.7439
▁stations	-10.7439
▁islands	-10.7441
▁feels	-10.7444
▁totally	-10.7448
▁tsunami	-10.7449
vent	-10.7449
▁diamonds	-10.745
▁Rain	-10.745
▁connecting	-10.7451
gar	-10.7454
▁Cat	-10.7457
▁noticed	-10.7457
▁smoke	-10.7458
▁watchmaking	-10.746
▁seminar	-10.7462
▁deals	-10.7466
sta	-10.747
74	-10.7472
▁grade	-10.7472
▁Introduction	-10.7474
HA	-10.7474
▁roads	-10.7475
▁CE	-10.7475
▁calm	-10.7479
▁TE	-10.748
▁committee	-10.7482
qu	-10.7482
LI	-10.7483
▁execution	-10.7483
▁Son	-10.7487
▁Yokohama	-10.7487
▁Prize	-10.7489
▁Manufacturer	-10.7492
▁Bangkok	-10.7493
▁Hill	-10.7493
▁moisture	-10.7497
▁trace	-10.7498
▁arms	-10.75
▁Messagg	-10.7502
▁tells	-10.7506
▁adapt	-10.7506
▁Review	-10.7507
▁Command	-10.7511
▁2018.	-10.7514
but	-10.7517
▁cloth	-10.7519
52	-10.7522
▁guidance	-10.7524
▁Members	-10.7527
▁Java	-10.7527
ス	-10.7528
pass	-10.7532
pon	-10.7534
illa	-10.7534
▁delayed	-10.7536
EX	-10.7538
▁Pisa	-10.754
Ex	-10.7542
▁Remo	-10.7546
▁particles	-10.7552
lit	-10.7553
▁Gi	-10.7553
▁serves	-10.7554
▁fantastic	-10.7554
▁Heavy	-10.7556
▁Ambassador	-10.7557
▁monument	-10.756
▁Bio	-10.756
▁38	-10.7562
▁blend	-10.757
▁latter	-10.7571
▁Che	-10.7572
79	-10.7573
▁Crystal	-10.7574
▁microwave	-10.758
▁automated	-10.7582
play	-10.7582
▁converted	-10.7584
▁improvements	-10.7585
▁parallel	-10.7593
▁afraid	-10.7597
▁2002	-10.7597
」	-10.7598
Text	-10.7599
▁predict	-10.76
▁routes	-10.7608
▁ta	-10.7609
▁evolution	-10.7609
▁pepper	-10.761
▁cluster	-10.7612
▁48	-10.7614
▁estate	-10.7615
▁cake	-10.7616
▁Section	-10.7616
▁Error	-10.7619
▁dates	-10.762
▁principles	-10.7625
▁tungsten	-10.763
61	-10.7631
▁ultra	-10.7636
▁happening	-10.7637
▁deemed	-10.764
TION	-10.7642
▁Charms	-10.7643
▁Nancy	-10.7646
▁Platform	-10.7651
▁supplies	-10.7655
▁Besides	-10.7656
▁exceptional	-10.7657
run	-10.7657
▁8.	-10.7666
▁meter	-10.7669
▁Delivery	-10.7669
▁Come	-10.7669
62	-10.767
OD	-10.7672
▁Motor	-10.7675
▁animation	-10.7679
▁cheese	-10.7683
▁measured	-10.7683
shin	-10.7684
▁chord	-10.7685
▁keys	-10.7685
68	-10.7685
▁teachers	-10.7687
▁Mitsui	-10.7688
With	-10.769
▁Range	-10.7691
▁freely	-10.7693
76	-10.7695
78	-10.7696
▁Camp	-10.7703
▁Currently	-10.7705
▁IC	-10.7712
▁exposed	-10.7715
▁Fa	-10.772
MAN	-10.7721
▁warranty	-10.7724
▁broadcast	-10.7726
▁breaking	-10.7729
81	-10.773
▁membership	-10.773
▁arch	-10.7733
▁Nu	-10.7734
59	-10.7736
▁Solar	-10.7743
▁$1	-10.7743
▁Wind	-10.7744
▁concepts	-10.7748
▁advantages	-10.7748
▁gathered	-10.7749
mark	-10.7751
▁Guest	-10.7756
ama	-10.7756
▁encounter	-10.7757
yang	-10.7759
▁Za	-10.7762
▁debt	-10.7765
▁featuring	-10.7772
▁consistent	-10.7772
▁flood	-10.7776
▁dog	-10.7779
▁welcomed	-10.778
▁im	-10.7783
ify	-10.7786
▁sexual	-10.7791
▁radiation	-10.7794
pm	-10.7796
▁disabled	-10.7798
▁filters	-10.7798
▁Bureau	-10.7806
▁Students	-10.7806
▁Chang	-10.7807
▁@	-10.7809
▁spa	-10.7811
0.00	-10.7813
▁historic	-10.7815
are	-10.7816
▁Gate	-10.7817
▁readers	-10.7818
▁Olympic	-10.7819
▁pack	-10.7821
▁crypto	-10.7824
▁lie	-10.7824
▁HPJAV	-10.7832
94	-10.7834
meter	-10.7839
RAR	-10.7841
▁guy	-10.7846
▁Song	-10.785
▁matches	-10.7855
FA	-10.7857
IL	-10.7863
▁DJ	-10.7864
▁Brazil	-10.7864
▁suEXEC	-10.7865
▁1999	-10.7866
▁Restaurant	-10.7867
▁criteria	-10.7867
▁Phone	-10.7868
▁emerging	-10.7875
▁marriage	-10.7875
▁Ablogg	-10.7878
▁Gen	-10.7878
▁letters	-10.7882
vert	-10.7883
▁eliminate	-10.7884
CE	-10.7885
▁Changes	-10.7886
▁wa	-10.7886
▁Nam	-10.7888
ef	-10.7888
▁PRO	-10.7889
▁Body	-10.7891
ec	-10.7896
▁removal	-10.7903
▁rural	-10.7903
▁booth	-10.7904
▁Kin	-10.7904
▁statue	-10.7907
▁authentic	-10.7907
▁Yang	-10.7907
▁reception	-10.7908
▁Golden	-10.7909
▁True	-10.7911
▁vi	-10.7913
▁1995	-10.7913
▁acting	-10.7914
▁intense	-10.7915
▁tilt	-10.7915
▁investigate	-10.7917
ulation	-10.792
▁immediate	-10.792
nan	-10.7921
▁suite	-10.7922
▁Process	-10.7926
▁hybrid	-10.7926
▁Hoimi	-10.7929
▁entitled	-10.794
▁Total	-10.794
800	-10.7941
▁directed	-10.7941
▁mom	-10.7943
▁philosophy	-10.7944
▁Notes	-10.7948
▁Box	-10.7953
▁earthquakes	-10.7955
▁therapy	-10.7956
▁Atlantic	-10.7957
87	-10.7961
era	-10.7963
▁su	-10.7968
▁Bus	-10.797
▁refers	-10.7971
IM	-10.7973
▁WEB	-10.7973
▁combine	-10.7975
▁Silver	-10.7977
▁repeat	-10.7983
▁markers	-10.7985
qua	-10.7986
▁egg	-10.7987
▁Compare	-10.7987
gawa	-10.799
▁reporting	-10.799
▁laptop	-10.7996
▁explains	-10.8001
▁tours	-10.8002
▁Fukushima	-10.8004
▁enterprise	-10.8004
▁swimming	-10.8004
▁findings	-10.8004
od	-10.8006
▁Actress	-10.8006
TC	-10.8008
▁Ph	-10.8008
jima	-10.8009
▁automotive	-10.801
sur	-10.8012
▁limousine	-10.8012
▁survival	-10.8012
▁employee	-10.8012
hua	-10.8016
▁laid	-10.8017
▁incest	-10.8019
ov	-10.8019
▁surprised	-10.8021
▁Seminar	-10.8025
nce	-10.8027
▁founder	-10.8027
▁ski	-10.8034
▁Excel	-10.8037
ham	-10.804
▁imported	-10.8043
▁UFO	-10.8044
▁expectations	-10.8044
▁charm	-10.8046
load	-10.8048
ular	-10.8052
▁reform	-10.8054
▁figures	-10.8056
58	-10.8057
▁lift	-10.8062
ND	-10.8065
▁orange	-10.8065
▁Mix	-10.8069
table	-10.8072
▁Mid	-10.8072
▁none	-10.8073
fin	-10.8073
▁intensity	-10.8076
▁marker	-10.8077
▁Premiere	-10.8081
▁tri	-10.8083
▁decoration	-10.8083
▁adequate	-10.8086
▁measuring	-10.8088
▁analyze	-10.8088
▁configured	-10.8091
▁washing	-10.8092
fo	-10.8093
▁facilitate	-10.8095
▁Congress	-10.8096
▁considering	-10.8097
▁employment	-10.8097
▁dessert	-10.8097
▁forum	-10.8099
▁Insert	-10.81
▁Payment	-10.8108
▁swim	-10.8109
▁territory	-10.8109
▁Chemical	-10.8109
▁ordering	-10.8111
300	-10.8114
▁commonly	-10.8119
▁Tang	-10.8119
53	-10.8121
▁blocked	-10.8123
▁TERMS	-10.8125
▁alcohol	-10.8131
▁lifespan	-10.8133
▁colorful	-10.8136
▁yesterday	-10.8145
▁souls	-10.8146
▁Medical	-10.8149
sol	-10.8151
ition	-10.8154
▁Member	-10.8155
▁homes	-10.8156
91	-10.8156
▁fiber	-10.8158
▁provisions	-10.8159
▁photography	-10.816
NT	-10.8165
▁Hawaii	-10.8168
▁PA	-10.817
▁gained	-10.8171
resistant	-10.8173
▁ver	-10.8175
▁opinions	-10.8177
▁desk	-10.8177
▁danger	-10.8178
▁Cho	-10.818
▁informed	-10.8185
▁Related	-10.8189
▁obligation	-10.8189
▁decrease	-10.819
▁brush	-10.8194
uring	-10.8195
▁happiness	-10.8198
▁Max	-10.8198
▁Cap	-10.82
mar	-10.8201
▁Connection	-10.8202
▁2.0	-10.8206
▁Lijiang	-10.8207
▁pray	-10.821
General	-10.822
▁guess	-10.8222
▁destroyed	-10.8223
▁Following	-10.8223
▁taught	-10.8224
▁900	-10.8229
▁programming	-10.8229
▁explosion	-10.823
▁Cla	-10.823
FS	-10.823
▁excited	-10.8235
▁mental	-10.8236
▁boot	-10.8237
▁Text	-10.824
▁Category	-10.8244
▁Northern	-10.8244
▁seasonal	-10.8245
▁Player	-10.8252
▁Calendar	-10.8254
ome	-10.8254
code	-10.8257
▁Yi	-10.8257
▁Lin	-10.8257
▁Rose	-10.8257
▁Learning	-10.8258
▁kill	-10.8259
rry	-10.8262
▁dialogue	-10.8263
EP	-10.8264
▁Additionally	-10.8264
▁enjoying	-10.827
▁Fast	-10.8271
▁Ja	-10.8272
▁earn	-10.8272
▁si	-10.8277
▁classified	-10.8278
ball	-10.8279
ō	-10.828
▁Info	-10.828
▁Twin	-10.8285
-6	-10.8285
▁involves	-10.8286
So	-10.8287
▁attract	-10.8289
▁seeds	-10.8289
▁shadow	-10.829
▁VST	-10.8292
▁tired	-10.8294
▁mirror	-10.8295
ima	-10.8297
▁measurements	-10.8299
▁engineers	-10.8299
▁approaches	-10.8301
SO	-10.8302
▁surveillance	-10.8304
▁calling	-10.8304
ties	-10.8305
wood	-10.8307
▁foods	-10.8308
▁Instead	-10.8309
▁Has	-10.8309
▁Universe	-10.8312
▁infected	-10.8314
▁quakes	-10.8314
ez	-10.8317
▁Send	-10.8321
▁ka	-10.8324
▁whenever	-10.8326
▁em	-10.8327
▁represented	-10.8331
▁Investment	-10.8333
▁analytics	-10.834
▁dragon	-10.8342
▁monthly	-10.8344
▁ad	-10.8346
KO	-10.8347
▁horses	-10.8349
▁sexy	-10.835
▁religion	-10.8356
▁losing	-10.8356
▁fluid	-10.8356
63	-10.8362
▁Secretary	-10.8366
▁IWC	-10.8367
▁posting	-10.8367
▁phenomenon	-10.837
▁orientation	-10.837
▁unusual	-10.838
ATION	-10.8383
▁boy	-10.8385
▁PowerPoint	-10.8386
▁effectiveness	-10.8388
▁Him	-10.8391
▁Author	-10.8392
ud	-10.8397
▁division	-10.8398
▁bomb	-10.8401
▁600	-10.8404
des	-10.8406
▁representatives	-10.8408
▁gravity	-10.8408
▁1,000	-10.8409
▁fruits	-10.8411
▁Sch	-10.8411
▁Filter	-10.8413
▁coal	-10.8413
▁arrangement	-10.8418
▁transformation	-10.8421
lib	-10.8422
dai	-10.8424
▁na	-10.8428
▁Generator	-10.8428
▁retail	-10.8429
▁2015.	-10.8433
▁Dynasty	-10.8434
▁magic	-10.8435
og	-10.8439
▁Marine	-10.8448
▁Electric	-10.8449
▁mature	-10.845
▁Sample	-10.8456
field	-10.846
▁planting	-10.8464
▁legs	-10.8465
▁sum	-10.8467
▁reply	-10.8469
▁retention	-10.847
▁Firefox	-10.8471
▁determination	-10.8471
▁Cam	-10.8472
▁precise	-10.8473
▁tits	-10.8473
▁Properties	-10.8476
▁truck	-10.8477
pr	-10.8479
▁Classic	-10.848
range	-10.848
late	-10.8481
ini	-10.8484
ake	-10.8488
▁relation	-10.8489
ral	-10.8496
▁victims	-10.8497
lam	-10.8498
NE	-10.8499
NS	-10.85
▁hesitate	-10.8508
CL	-10.8511
▁Qu	-10.8512
▁essence	-10.8514
▁stones	-10.8517
い	-10.8518
▁Xiao	-10.8525
▁beings	-10.8531
▁Net	-10.8537
▁(3	-10.8539
▁2018,	-10.8539
▁Tan	-10.854
▁Win	-10.8542
▁Did	-10.8542
▁floating	-10.8544
▁conclusion	-10.8545
▁Period	-10.8545
▁RO	-10.8546
▁temporarily	-10.8551
▁Bags	-10.8551
イ	-10.8552
▁sticker	-10.8558
▁relief	-10.8561
ル	-10.8567
eng	-10.8567
▁mechanisms	-10.8568
▁younger	-10.857
▁Tea	-10.8573
▁Dec	-10.8576
▁Leather	-10.8577
▁certificate	-10.8581
▁Credit	-10.8582
▁drama	-10.8583
▁Legal	-10.8587
gue	-10.8588
▁focusing	-10.8592
▁pointed	-10.8597
▁th	-10.8599
▁enhanced	-10.86
▁disputes	-10.8602
▁suggests	-10.8603
▁chapter	-10.8606
▁admin	-10.8611
▁Ms	-10.8612
▁conservation	-10.8612
▁falling	-10.8614
▁SD	-10.8615
Po	-10.862
ric	-10.8623
▁prohibited	-10.8623
▁1990	-10.8624
▁blind	-10.8626
▁strap	-10.8633
▁guard	-10.8635
▁targets	-10.864
▁Em	-10.8641
IG	-10.8641
umi	-10.8642
▁Zone	-10.865
▁Cha	-10.8653
▁verification	-10.8654
▁Explorer	-10.8655
water	-10.8657
tle	-10.8657
▁상세	-10.866
shaped	-10.8667
▁wealth	-10.8673
▁Ch	-10.8673
-19	-10.8674
IF	-10.8674
▁Pakistan	-10.8675
▁Linux	-10.8675
▁shell	-10.8676
ick	-10.8677
▁contacts	-10.868
▁vital	-10.8682
struct	-10.8682
rant	-10.8682
▁farmers	-10.8687
▁ordered	-10.8689
▁survive	-10.869
▁plot	-10.8692
▁vessels	-10.8695
▁safeguard	-10.8698
▁teach	-10.8698
AI	-10.8698
▁Was	-10.8702
▁wishes	-10.8703
▁attracted	-10.8703
DR	-10.8704
▁EPLAN	-10.8706
▁engines	-10.8707
▁circles	-10.8708
▁DNA	-10.8708
ida	-10.8709
GE	-10.8712
sho	-10.8714
▁Amend	-10.8716
▁appeal	-10.8716
etc	-10.8721
▁mood	-10.8725
▁Saint	-10.8728
▁Clinton	-10.8729
▁scenario	-10.873
online	-10.8731
ION	-10.8731
▁checking	-10.8732
▁bird	-10.8733
▁regulatory	-10.8734
▁solely	-10.8736
cia	-10.8736
▁proceed	-10.8737
pping	-10.8738
▁graphic	-10.874
▁se	-10.8741
▁PS	-10.8743
MC	-10.8743
▁Format	-10.8744
▁250	-10.8745
▁agreeing	-10.8748
▁Double	-10.8748
▁Earthquake	-10.875
▁preparing	-10.875
wan	-10.8755
▁Daily	-10.8757
▁college	-10.8763
▁Unit	-10.8764
▁Flower	-10.8767
▁infection	-10.8769
▁chief	-10.8775
▁railway	-10.8778
Mi	-10.878
▁reverse	-10.878
▁duty	-10.8788
▁euros	-10.879
71	-10.8791
EA	-10.8791
▁Radio	-10.8793
▁€	-10.8794
mat	-10.8794
▁Large	-10.88
▁acquired	-10.8802
▁Coin	-10.8803
▁BC	-10.8803
72	-10.8803
▁Tohoku	-10.8804
▁Tibet	-10.8805
▁specification	-10.8807
▁interaction	-10.8807
▁Vice	-10.8807
▁flows	-10.8811
On	-10.8811
▁magnificent	-10.8813
▁broke	-10.8813
▁Gra	-10.8813
▁doors	-10.8816
▁stomach	-10.8819
▁somewhat	-10.8819
▁desert	-10.8821
▁maintained	-10.8823
▁ASEAN	-10.8825
html	-10.8827
▁lay	-10.8828
▁exception	-10.8829
▁Medicine	-10.8832
▁choosing	-10.884
▁Chen	-10.8845
oz	-10.8847
▁cute	-10.8848
lt	-10.885
New	-10.885
▁Unfortunately	-10.8852
▁stronger	-10.8854
▁worse	-10.8857
PM	-10.8858
link	-10.886
ography	-10.8861
▁Kan	-10.8865
▁bronze	-10.8868
collectively	-10.8868
▁incident	-10.8868
JI	-10.8869
▁invest	-10.887
▁seed	-10.8872
▁Dusit	-10.8872
FT	-10.8874
▁unlimited	-10.8876
▁Initiative	-10.888
▁Lab	-10.8883
▁Canon	-10.8885
▁sync	-10.8885
▁GO	-10.8887
sofar	-10.8888
▁Plant	-10.8892
▁Bill	-10.8893
▁Chronograph	-10.8897
▁font	-10.8898
▁clips	-10.8904
▁commands	-10.8905
tes	-10.8906
▁utilize	-10.8908
▁Mai	-10.8908
▁sunset	-10.8909
▁supposed	-10.8909
▁enabling	-10.891
▁oxygen	-10.891
▁Masa	-10.8914
▁cooperate	-10.8914
▁Marketing	-10.8914
);	-10.8916
▁token	-10.892
▁bill	-10.8922
▁adventure	-10.8925
▁Run	-10.8927
▁presents	-10.8928
▁Livorno	-10.8929
73	-10.893
eb	-10.893
▁Quick	-10.8931
▁Care	-10.8932
An	-10.8934
▁Production	-10.8937
▁partial	-10.894
▁Remove	-10.894
PI	-10.8943
▁2015,	-10.8943
▁relax	-10.8944
▁verify	-10.8948
▁gr	-10.895
▁sa	-10.895
▁hydrogen	-10.8953
▁hearing	-10.8953
▁Face	-10.8955
▁ba	-10.8956
▁spoke	-10.8957
▁appointed	-10.8959
▁Fair	-10.896
▁Kei	-10.8963
EM	-10.8964
▁passenger	-10.8972
▁mold	-10.8973
▁Outlook	-10.8974
DP	-10.8975
▁meant	-10.8975
▁Eco	-10.8976
▁shooting	-10.8977
St	-10.8979
▁peaceful	-10.898
▁Recover	-10.8983
bb	-10.8987
ult	-10.8989
▁popularity	-10.899
▁assumed	-10.8991
lock	-10.8992
▁shares	-10.8997
▁hi	-10.8998
▁tested	-10.9
▁designers	-10.9
▁Yoshi	-10.9
▁ATTRACTIONS	-10.9002
▁mixture	-10.9002
▁Visit	-10.9004
▁\	-10.9005
▁mutual	-10.9007
▁Administration	-10.9008
▁elsewhere	-10.9009
▁Country	-10.9009
▁Taoyuan	-10.901
▁boss	-10.9012
▁flooding	-10.9012
▁Low	-10.9013
▁9.	-10.9013
▁yield	-10.9015
▁fund	-10.9016
▁Put	-10.9016
▁stages	-10.9017
▁Hello	-10.9018
▁gardens	-10.9019
▁regret	-10.9019
Ha	-10.902
▁premium	-10.9025
cn	-10.9027
▁physician	-10.9028
▁productivity	-10.9029
▁rail	-10.903
▁begun	-10.9031
▁Peak	-10.9031
▁intelligent	-10.9032
VE	-10.9032
▁Civitavecchia	-10.9034
oolshopus	-10.9034
▁lets	-10.9036
hole	-10.9037
▁agenda	-10.9038
▁terrace	-10.9041
▁applying	-10.9041
Confidential	-10.9043
▁spec	-10.9043
▁generations	-10.9043
ics	-10.9044
Name	-10.9044
▁Kanagawa	-10.9045
▁prefecture	-10.9045
RT	-10.9047
▁sharp	-10.9047
▁excuse	-10.9047
▁Ski	-10.9048
▁Wang	-10.905
city	-10.9052
▁repeated	-10.9054
▁seasons	-10.9056
▁carrier	-10.9058
▁dealing	-10.9064
▁matched	-10.9064
shirts	-10.9064
▁sword	-10.9064
▁Guangzhou	-10.9068
▁pink	-10.9073
▁rough	-10.9074
▁calculated	-10.9077
tting	-10.9081
▁rid	-10.9082
▁Ban	-10.9082
▁frequent	-10.9082
▁Activate	-10.9088
▁legend	-10.9093
▁disappear	-10.9094
ack	-10.9097
uk	-10.9098
▁Trans	-10.91
▁Minibus	-10.9101
▁redirect	-10.9103
▁villages	-10.9106
▁Style	-10.9107
▁Enterprise	-10.9108
▁Positano	-10.9108
▁ro	-10.9108
▁Chauffeur	-10.911
▁Circle	-10.911
▁continent	-10.9111
▁Minivan	-10.9112
▁loaded	-10.9116
CR	-10.9117
file	-10.9119
▁graduate	-10.9119
▁Tiburtin	-10.9121
▁receipt	-10.9121
tre	-10.9123
▁AS	-10.9124
cu	-10.9127
▁disasters	-10.9127
ky	-10.9127
▁artistic	-10.9129
▁Shipping	-10.9131
▁Active	-10.9139
▁manufactured	-10.9139
▁Archives	-10.914
▁England	-10.9142
▁Fukuoka	-10.9147
▁Keep	-10.9149
▁memories	-10.9153
▁detects	-10.9161
▁hat	-10.9161
ati	-10.9165
ese	-10.9165
▁operational	-10.9167
ML	-10.9167
▁reserves	-10.9167
▁Riding	-10.9168
▁magnet	-10.9168
▁ensures	-10.9168
▁Prince	-10.9169
▁remained	-10.9169
▁rat	-10.9169
▁Without	-10.917
ala	-10.9171
▁AV	-10.9173
▁Venus	-10.9175
mor	-10.9176
▁faces	-10.9176
▁Edition	-10.9177
▁discretion	-10.9177
▁landing	-10.9179
edge	-10.918
▁reflected	-10.9181
At	-10.9184
▁Being	-10.9185
LC	-10.919
▁olive	-10.9191
▁Fi	-10.9191
▁restart	-10.9193
▁basically	-10.9194
▁pe	-10.9194
▁pocket	-10.9196
ili	-10.9197
▁cl	-10.9198
▁everybody	-10.9199
roll	-10.9199
▁entries	-10.9201
uck	-10.9203
▁Ca	-10.9205
TV	-10.9207
▁withdrawal	-10.921
▁paintings	-10.921
▁scripts	-10.921
order	-10.9212
▁Nissan	-10.9212
▁duration	-10.9213
▁Kobe	-10.9215
▁cottage	-10.9217
▁1997	-10.9218
▁administrator	-10.922
▁Natural	-10.9226
chu	-10.9226
VI	-10.9227
▁phenomena	-10.9228
▁heads	-10.9231
▁tension	-10.9232
▁trademarks	-10.9233
▁Fashion	-10.9236
▁stamp	-10.9237
itis	-10.9238
▁introducing	-10.9243
▁professor	-10.9245
▁Southeast	-10.9245
▁reflection	-10.9246
▁noodles	-10.9246
600	-10.9247
▁HO	-10.9247
wing	-10.9254
▁announce	-10.9257
▁2017,	-10.926
▁contributions	-10.9267
▁statistical	-10.9268
▁Summit	-10.9269
▁buttons	-10.9271
▁bigger	-10.9272
▁decline	-10.9273
▁Direct	-10.9276
rated	-10.9277
▁malicious	-10.9278
▁rivers	-10.928
▁34	-10.9285
▁shoot	-10.9286
に	-10.9287
▁programme	-10.9288
▁ONE	-10.9292
▁Modern	-10.9292
▁ranking	-10.9292
▁tropical	-10.9296
▁pleased	-10.9298
▁quake	-10.93
▁str	-10.9308
▁Wave	-10.9308
▁copies	-10.9309
▁travelers	-10.931
▁Corporate	-10.9311
▁distant	-10.9312
about	-10.9312
▁migration	-10.9315
▁examination	-10.9318
▁Forest	-10.9319
-0	-10.9322
▁APEC	-10.9324
▁guys	-10.9327
▁Mitaka	-10.9328
▁uploaded	-10.9329
▁involve	-10.9329
▁overcome	-10.933
▁Brussels	-10.9331
▁Shangri	-10.9334
▁Sets	-10.9336
!!!	-10.9342
ory	-10.9342
▁acquisition	-10.9342
▁compensation	-10.9345
rus	-10.9348
▁bicycle	-10.9349
▁organize	-10.935
▁suggested	-10.9351
▁Template	-10.9351
zhou	-10.9354
▁Should	-10.9354
gn	-10.9355
▁utmost	-10.9358
▁possibilities	-10.936
▁Move	-10.9365
▁wasn	-10.9366
CZ	-10.9367
▁directions	-10.937
▁Later	-10.937
▁roots	-10.9372
▁seafood	-10.9374
▁Bra	-10.9375
▁Recently	-10.9375
▁outcome	-10.9377
001	-10.9379
FE	-10.938
▁IoT	-10.9381
▁stood	-10.9389
NI	-10.939
▁50%	-10.9396
ani	-10.9403
Cheap	-10.9408
booking	-10.9409
▁customized	-10.941
▁pump	-10.9411
cus	-10.9412
bed	-10.9414
About	-10.9415
▁gap	-10.9416
▁Amazon	-10.9416
▁Belgium	-10.9432
▁limits	-10.9433
▁interact	-10.9437
onic	-10.9437
▁intervention	-10.9438
▁poker	-10.9439
▁percentage	-10.944
▁static	-10.9448
▁intention	-10.9449
▁cotton	-10.9452
▁neither	-10.9454
▁detected	-10.9457
▁Famous	-10.9458
▁apartments	-10.946
▁Premium	-10.9466
▁Magazine	-10.9467
▁Clear	-10.9471
▁Ke	-10.9472
▁votes	-10.9475
▁implementing	-10.9477
▁complicated	-10.948
▁ear	-10.948
▁lowest	-10.948
▁Followers	-10.9481
ev	-10.9484
1.	-10.9488
UT	-10.9489
wear	-10.949
▁Metal	-10.9491
▁strengthening	-10.9492
▁achieving	-10.9492
▁1996	-10.95
▁sessions	-10.95
▁Virtual	-10.9501
▁rape	-10.9502
▁ni	-10.9503
Budget	-10.9503
lus	-10.9504
▁Islamic	-10.9504
▁walked	-10.9504
▁companys	-10.9505
map	-10.9506
dong	-10.9511
▁SC	-10.9513
▁casting	-10.9516
▁abundant	-10.9522
▁Kai	-10.9522
▁prayer	-10.9522
▁Limited	-10.9526
▁bell	-10.9528
replica	-10.9529
▁(3)	-10.953
▁Young	-10.9533
▁meals	-10.9538
▁drives	-10.954
▁forming	-10.9543
▁1998	-10.9547
▁ve	-10.9548
CI	-10.9552
▁sophisticated	-10.9553
▁Joint	-10.9554
ame	-10.9555
▁lab	-10.9555
this	-10.9555
▁Agent	-10.9555
▁thickness	-10.9557
▁Entry	-10.9559
▁Mod	-10.9559
sei	-10.9559
▁warming	-10.9559
▁Comp	-10.9559
▁Far	-10.9561
ye	-10.9562
RS	-10.9565
SH	-10.9567
ect	-10.9568
SM	-10.9569
▁delicate	-10.9572
▁Heart	-10.9574
▁Zeta	-10.9575
▁grew	-10.9576
▁paste	-10.9578
▁02	-10.9579
▁knowing	-10.9582
▁publish	-10.9582
▁Repair	-10.9583
lor	-10.9583
▁brutal	-10.9584
▁magnitude	-10.9585
new	-10.9585
az	-10.9588
▁renewable	-10.9588
print	-10.959
▁achievements	-10.9592
▁optimal	-10.9594
rn	-10.9594
▁branches	-10.9596
▁millions	-10.9597
▁highlight	-10.9598
▁sectors	-10.96
gal	-10.9602
▁Four	-10.9606
power	-10.9607
▁depend	-10.9608
▁HA	-10.9608
▁hearts	-10.9611
▁returning	-10.9611
▁subsequent	-10.9613
nu	-10.9614
▁ST	-10.9614
ration	-10.9617
▁examine	-10.9618
▁pending	-10.9619
▁€9...	-10.9622
fish	-10.9623
▁Ac	-10.9626
▁furniture	-10.9628
▁Database	-10.9629
▁breath	-10.9633
ble	-10.9634
▁gene	-10.9635
▁venture	-10.9636
amp	-10.9636
▁ultimate	-10.9643
▁adopt	-10.9645
▁tire	-10.965
▁interpretation	-10.9651
screen	-10.9653
▁crack	-10.9655
uro	-10.9656
▁agriculture	-10.9656
▁disable	-10.9658
▁internationally	-10.966
▁Which	-10.9661
▁visa	-10.9663
BS	-10.9664
▁defend	-10.9665
▁Package	-10.9666
▁AP	-10.9667
▁STORE	-10.9668
▁struggle	-10.967
PE	-10.9672
ア	-10.9674
ters	-10.9676
▁throw	-10.9677
▁flag	-10.9677
tric	-10.9677
▁guides	-10.9683
▁colored	-10.9688
▁shore	-10.9693
ella	-10.9693
sized	-10.9694
▁Clean	-10.9697
▁gorgeous	-10.97
▁steam	-10.9703
▁AC	-10.9705
▁(2	-10.9708
▁difficulty	-10.9711
BE	-10.9714
▁separately	-10.9714
▁Mori	-10.9714
cle	-10.9715
▁Hiro	-10.9716
▁partition	-10.9717
rum	-10.9718
ction	-10.9718
Sa	-10.9721
▁Hy	-10.9722
▁Peter	-10.9728
▁scroll	-10.9734
▁shapes	-10.9737
PP	-10.9738
▁managing	-10.974
▁belt	-10.9741
▁plain	-10.9742
▁officially	-10.9749
▁geographical	-10.9749
nal	-10.9751
aries	-10.9753
Un	-10.9755
▁tomorrow	-10.9757
▁assembly	-10.9762
▁kg	-10.9765
-12	-10.9766
▁discharge	-10.9767
▁succeed	-10.9767
yan	-10.9769
Al	-10.9769
▁da	-10.977
▁Common	-10.977
IR	-10.9771
nch	-10.9772
▁ranging	-10.9772
open	-10.9773
▁JS	-10.9774
▁dose	-10.9774
▁Berlin	-10.9776
▁demonstration	-10.9778
▁thereby	-10.9779
▁LA	-10.978
▁chair	-10.9781
▁Creating	-10.9781
▁personally	-10.9782
▁Age	-10.9783
▁regulation	-10.9785
▁valued	-10.9786
▁threads	-10.979
▁solo	-10.9792
▁supplied	-10.9796
▁neutral	-10.9797
OT	-10.9806
▁Title	-10.9806
▁occurring	-10.981
▁metals	-10.9813
iz	-10.9814
▁clay	-10.9814
▁Computer	-10.9814
▁stunning	-10.982
▁ceramic	-10.9821
oon	-10.9824
▁filling	-10.9829
▁ob	-10.9829
▁passes	-10.9832
▁ah	-10.9834
▁dispute	-10.9834
▁oven	-10.9835
▁Pen	-10.9836
please	-10.9837
▁formula	-10.9839
▁burning	-10.9841
hai	-10.9844
place	-10.9847
▁mounting	-10.9848
▁JR	-10.9852
par	-10.9853
dra	-10.9854
user	-10.9855
ement	-10.9861
▁mistake	-10.9861
▁Sei	-10.9864
93	-10.9866
get	-10.9866
▁statements	-10.987
▁shut	-10.9872
▁mask	-10.9877
▁©	-10.9877
▁CSR	-10.988
▁flights	-10.9881
▁drinks	-10.9882
▁transform	-10.9883
▁Solution	-10.9885
▁fi	-10.9886
win	-10.9887
▁acquire	-10.9888
▁username	-10.9892
▁Compliance	-10.9892
▁bl	-10.9895
á	-10.9901
▁gun	-10.9904
▁disclosure	-10.9904
▁heating	-10.9908
yn	-10.9908
▁alloy	-10.9911
▁Import	-10.9914
▁algorithm	-10.9916
▁inches	-10.9922
▁Follow	-10.9925
▁Catalog	-10.9925
▁Cu	-10.9927
▁utility	-10.9928
▁yes	-10.9931
▁crash	-10.9937
▁household	-10.994
kura	-10.9943
▁reveal	-10.9944
▁alive	-10.9945
▁League	-10.9946
▁medication	-10.9946
▁glasses	-10.9948
▁shower	-10.9956
▁serial	-10.9956
▁Electronics	-10.9957
▁LTD	-10.9965
▁hosts	-10.9965
▁Gar	-10.9967
▁Join	-10.9971
▁Gal	-10.9973
mission	-10.9975
▁Mini	-10.9975
ag	-10.9976
▁crucial	-10.9982
ded	-10.9982
▁AN	-10.9982
▁XXL	-10.9983
organ	-10.9985
iness	-10.9986
▁decorated	-10.9986
▁conscious	-10.9991
BI	-10.9993
▁harvest	-10.9993
▁seal	-10.9994
▁collision	-10.9996
▁PO	-11
▁instantly	-11.0001
▁electronics	-11.0005
▁covering	-11.0008
▁calculation	-11.0009
vers	-11.001
▁coins	-11.001
▁Innovation	-11.001
▁populace	-11.001
▁Inquiry	-11.0011
ENT	-11.0011
▁Je	-11.0013
▁harm	-11.0019
▁victory	-11.002
rm	-11.0023
▁advised	-11.0026
▁00	-11.0031
▁Turn	-11.0035
▁reduces	-11.0035
specific	-11.0036
▁loading	-11.0038
▁Way	-11.004
Republic	-11.0041
part	-11.0048
▁Install	-11.0049
berg	-11.0055
▁machinery	-11.0055
▁typography	-11.0058
▁Chu	-11.0058
▁asset	-11.006
▁Season	-11.0063
rov	-11.0063
▁y	-11.0064
▁alarm	-11.0064
▁absolute	-11.0064
▁haven	-11.0066
▁blow	-11.007
ets	-11.0073
▁Comment	-11.0077
▁Diamond	-11.0077
▁Southern	-11.0078
▁inspiration	-11.0079
▁4:	-11.0082
▁adds	-11.0084
▁receiver	-11.0085
ラ	-11.0087
▁moments	-11.0088
rc	-11.0088
▁MISHOP	-11.0089
ox	-11.0093
oma	-11.0094
▁pollution	-11.0096
▁Tel	-11.0098
▁army	-11.0098
▁luck	-11.01
▁amounts	-11.0101
kyo	-11.0103
▁Queen	-11.0105
▁Property	-11.0107
▁spin	-11.0109
NC	-11.011
▁calculate	-11.0111
Note	-11.0113
▁singing	-11.0115
▁exhibit	-11.0117
ax	-11.0118
ew	-11.0118
lf	-11.0121
▁flu	-11.0123
▁Den	-11.0126
ney	-11.0129
uc	-11.0129
▁rolling	-11.0131
rat	-11.0133
-20	-11.0133
▁Down	-11.0135
ug	-11.0138
▁altitude	-11.0138
▁laboratory	-11.014
▁forests	-11.014
▁15,	-11.0141
▁37	-11.0146
non	-11.0146
▁mysterious	-11.0147
▁hang	-11.0147
▁Fill	-11.0149
▁HTML	-11.015
▁potentially	-11.015
tract	-11.0155
▁Index	-11.0156
400	-11.0157
▁BY	-11.0157
▁dropped	-11.0158
▁recipe	-11.016
▁tape	-11.0167
▁Egypt	-11.0168
▁assignment	-11.0169
▁Sc	-11.0171
▁casual	-11.0172
▁u	-11.0173
▁worn	-11.0176
▁substances	-11.0179
LP	-11.018
▁convey	-11.0181
▁Unlimited	-11.0183
RU	-11.019
▁toilet	-11.0191
BO	-11.0196
▁Oil	-11.0196
▁Har	-11.0197
tive	-11.0202
▁portal	-11.0205
▁plum	-11.0205
Data	-11.0208
▁attraction	-11.0218
cast	-11.0218
ancy	-11.0219
▁cur	-11.0219
▁dump	-11.0222
▁sink	-11.0226
▁concentration	-11.0229
Ch	-11.0231
▁spectrum	-11.0231
3%	-11.0232
▁Hon	-11.024
ency	-11.024
▁antivirus	-11.0241
oi	-11.0247
▁fighting	-11.0247
▁trips	-11.0248
▁particle	-11.0249
▁44	-11.0252
▁suits	-11.0254
▁god	-11.0257
▁springs	-11.027
▁robot	-11.0272
ville	-11.0273
▁Niseko	-11.0275
UL	-11.0275
▁confident	-11.0279
▁Suite	-11.028
▁poly	-11.028
▁breach	-11.0283
▁Er	-11.0284
▁sinking	-11.0284
▁elevation	-11.0287
▁chronograph	-11.029
▁possibly	-11.029
▁grabbed	-11.029
▁eggs	-11.0291
▁relating	-11.0292
ell	-11.0292
▁suspension	-11.0294
▁universal	-11.0294
▁summit	-11.0297
▁Magic	-11.0305
nn	-11.0306
▁climbing	-11.0307
ators	-11.0307
▁gra	-11.0308
▁compression	-11.0308
SD	-11.0311
▁Ring	-11.0313
▁delivers	-11.0313
▁1.5	-11.0313
▁Mission	-11.0314
▁immune	-11.0317
▁PLC	-11.0317
▁reaching	-11.0319
▁Tool	-11.032
▁64	-11.032
▁Performance	-11.0324
▁beef	-11.0325
▁expenses	-11.0328
sai	-11.0328
▁grams	-11.0329
watches	-11.0333
▁1980	-11.0334
▁reaches	-11.0334
▁Horse	-11.0334
▁Waterproof	-11.0334
▁terminate	-11.0337
▁ears	-11.0341
▁juice	-11.0346
▁alert	-11.0349
▁leisure	-11.0353
▁Located	-11.0354
▁inserted	-11.0355
▁painted	-11.0355
▁burden	-11.0361
▁initially	-11.0361
ach	-11.0362
▁ports	-11.0363
▁keeps	-11.0366
▁authorized	-11.037
▁Amphipolis	-11.037
▁executive	-11.037
▁massage	-11.0372
▁SDK	-11.0373
▁Launch	-11.0378
generation	-11.0382
▁cultures	-11.0384
cer	-11.0389
▁Block	-11.0391
▁Ste	-11.0392
▁alloys	-11.0393
ica	-11.0395
は	-11.0395
▁Mer	-11.0396
▁Drive	-11.0397
▁driven	-11.0397
▁destruction	-11.04
▁constitute	-11.04
ena	-11.04
日	-11.0402
▁dimensions	-11.0404
▁Convert	-11.0406
hold	-11.0407
▁necessarily	-11.0407
▁conducting	-11.0408
EE	-11.0408
▁coin	-11.0409
▁Ming	-11.0409
▁hydro	-11.041
▁pad	-11.0411
FP	-11.0413
▁responses	-11.0417
lon	-11.042
▁highway	-11.0421
▁panic	-11.0423
▁breast	-11.0425
▁contracts	-11.0426
ject	-11.0426
▁pioneer	-11.0426
▁representing	-11.0427
を	-11.0427
▁swing	-11.0428
▁analog	-11.0429
▁developer	-11.0429
▁libraries	-11.043
▁threats	-11.043
▁emerge	-11.0431
▁spectacular	-11.0432
▁react	-11.0433
PL	-11.0436
▁extraordinary	-11.0437
▁Tag	-11.0439
▁coverage	-11.0441
입선	-11.0445
▁pile	-11.0445
▁phrase	-11.0446
▁Accommodation	-11.0447
izer	-11.0448
▁columns	-11.0448
eth	-11.0454
▁Meme	-11.0456
▁classification	-11.0457
▁console	-11.0457
▁Looking	-11.0458
til	-11.0458
ls	-11.0459
▁Forecast	-11.0461
▁$20	-11.0463
GI	-11.0464
▁vacation	-11.0464
▁dual	-11.0465
▁Wednesday	-11.0467
▁greenhouse	-11.0467
▁Suzhou	-11.0467
mus	-11.047
cap	-11.0472
▁PR	-11.0472
▁decade	-11.0473
▁intersection	-11.0475
▁Lightning	-11.0476
▁sons	-11.048
▁Bit	-11.048
▁Wa	-11.0483
▁searches	-11.0484
▁TOKYO	-11.0485
▁3-	-11.0487
▁unexpected	-11.0489
▁politics	-11.0492
▁placing	-11.0492
▁2012,	-11.0496
▁Yan	-11.0496
▁lists	-11.0501
▁Host	-11.0508
▁Van	-11.051
▁91	-11.0513
▁Sam	-11.0515
▁Status	-11.0517
▁closing	-11.0519
▁deck	-11.052
▁Week	-11.052
0°	-11.0521
KI	-11.0522
▁Device	-11.0522
▁boom	-11.0523
▁SP	-11.0525
▁Defense	-11.0526
ace	-11.0526
▁hub	-11.0528
▁Holdings	-11.0529
▁Holy	-11.053
▁Awards	-11.0531
▁tied	-11.0532
▁married	-11.0534
▁snap	-11.0536
▁mice	-11.0539
▁Belt	-11.0541
▁recommendations	-11.0544
▁tough	-11.0545
▁41	-11.0554
▁experiencing	-11.0554
inter	-11.0556
▁charging	-11.0557
▁coordination	-11.0557
oid	-11.0557
band	-11.056
▁Ai	-11.0561
▁diversity	-11.0562
▁banking	-11.0563
▁hosting	-11.0565
▁recycling	-11.0567
▁Bur	-11.0568
▁matching	-11.0571
▁pigment	-11.0573
▁semiconductor	-11.0577
▁bloom	-11.0579
▁[...]	-11.0579
▁chip	-11.058
▁workshops	-11.0582
▁Hospital	-11.0583
▁appreciated	-11.0583
▁structural	-11.0584
script	-11.0585
▁Jan	-11.0585
▁Matsu	-11.0586
▁Safe	-11.0586
▁Gas	-11.0587
▁Artist	-11.0588
▁identification	-11.0589
▁falls	-11.059
KU	-11.0593
▁adoption	-11.0594
▁brilliant	-11.0594
▁cache	-11.0595
▁awards	-11.0596
▁centuries	-11.0597
▁storm	-11.0598
▁Original	-11.0598
▁bid	-11.0599
▁leaf	-11.0602
▁willing	-11.0604
▁Heaven	-11.0604
sign	-11.0607
▁Assembly	-11.0607
▁neighborhood	-11.0615
▁encouraged	-11.0616
▁butter	-11.0617
▁seriously	-11.0618
▁Paper	-11.0619
▁draft	-11.062
town	-11.062
▁coach	-11.0623
▁shipped	-11.0624
▁Times	-11.0625
▁Tips	-11.0628
▁Satellite	-11.0632
▁stops	-11.0634
▁Lee	-11.0634
▁Rule	-11.0635
▁lu	-11.0636
▁loan	-11.0637
▁accommodate	-11.0639
6)	-11.064
wide	-11.0646
▁roles	-11.0647
▁tournament	-11.0649
▁pilot	-11.0653
▁consist	-11.0653
Ho	-11.0654
▁Ship	-11.0654
▁tone	-11.0655
▁reconstruction	-11.0655
▁03	-11.0656
tr	-11.0657
jiang	-11.0659
▁2014.	-11.0659
▁7,	-11.066
▁odd	-11.0661
▁Along	-11.0661
CS	-11.0664
▁Applications	-11.0664
cl	-11.0665
▁uniform	-11.0668
▁Chapter	-11.067
bound	-11.0672
▁Results	-11.0673
vol	-11.0675
▁Selection	-11.0676
train	-11.0679
▁horizontal	-11.0682
PT	-11.0684
▁Promoter	-11.0686
inc	-11.0686
▁firms	-11.0687
blog	-11.0689
ette	-11.069
▁supplier	-11.0692
▁governmental	-11.0692
▁cryptocurrencie	-11.0693
▁engineer	-11.0693
▁soldiers	-11.0694
▁Moscow	-11.0696
▁compiled	-11.0696
▁collapse	-11.0697
▁shirt	-11.0698
RP	-11.07
▁favor	-11.0705
▁39	-11.0707
▁Nha	-11.0711
▁mild	-11.0711
▁van	-11.0714
▁establishing	-11.0715
▁precisely	-11.0718
:1	-11.0721
▁dreams	-11.0724
▁Reference	-11.0726
▁proposal	-11.0726
▁Reports	-11.0726
▁jointly	-11.0727
▁Apartments	-11.073
▁contributing	-11.0731
▁Father	-11.0732
▁Eastern	-11.0733
App	-11.0734
▁Transport	-11.0736
AND	-11.0736
3)	-11.0738
har	-11.0738
▁query	-11.0739
▁genes	-11.0743
▁beat	-11.0745
▁Traditional	-11.0746
▁Michael	-11.0747
▁j	-11.0747
▁routing	-11.0749
▁Diameter	-11.0749
▁Downloads	-11.075
sia	-11.075
▁Short	-11.075
▁fare	-11.0753
▁cooling	-11.0756
vy	-11.0756
▁regarded	-11.0756
key	-11.0758
▁anymore	-11.076
▁economies	-11.0764
test	-11.0766
▁thoroughly	-11.0767
▁Syria	-11.0767
▁crew	-11.0767
▁Tom	-11.0769
User	-11.0772
▁relaxing	-11.0774
IO	-11.0775
▁BUT	-11.0781
▁graph	-11.0781
▁XP	-11.0781
▁vulnerable	-11.0782
•	-11.0783
rian	-11.0785
▁preferred	-11.0789
▁Laboratory	-11.079
hen	-11.0791
▁expressly	-11.0793
▁highlights	-11.0793
▁raising	-11.0795
▁Cell	-11.0797
▁Object	-11.0802
zip	-11.0803
▁injury	-11.0804
▁classical	-11.0804
▁beforehand	-11.0805
▁Output	-11.0806
▁bone	-11.0815
▁Issue	-11.0821
▁satisfy	-11.0821
▁Telescope	-11.0824
▁rec	-11.0826
▁zoom	-11.0833
▁prosecution	-11.0834
▁dried	-11.0837
▁preventing	-11.0839
bling	-11.084
phone	-11.084
▁demonstrate	-11.0843
▁Panel	-11.0844
LS	-11.0845
▁Shinto	-11.0846
▁specially	-11.0846
suke	-11.0851
▁Tools	-11.0856
▁Bai	-11.0856
▁enemy	-11.086
▁nervous	-11.086
▁arbitration	-11.086
▁2014,	-11.0861
las	-11.0862
▁suppliers	-11.0866
ashi	-11.0866
▁utilizing	-11.0867
▁rating	-11.0869
▁panels	-11.087
cut	-11.087
▁reproduction	-11.0871
77.	-11.0872
▁biological	-11.0873
▁visits	-11.088
ira	-11.0883
▁lean	-11.0885
▁8,	-11.0894
▁indication	-11.0896
3/	-11.0896
▁EX	-11.0897
▁Nuclear	-11.0899
▁Kyo	-11.0899
▁Around	-11.0899
▁enforce	-11.09
Let	-11.09
▁Qi	-11.09
▁Student	-11.0901
▁pet	-11.0902
▁operators	-11.0907
▁football	-11.0907
▁CPU	-11.0908
▁10%	-11.0909
▁legendary	-11.091
▁rocks	-11.0911
▁surely	-11.0913
▁55	-11.0917
▁sc	-11.0918
▁observations	-11.0919
also	-11.092
▁countless	-11.0922
▁theft	-11.0923
▁Arm	-11.0926
matic	-11.0928
▁firmly	-11.0932
▁Afghan	-11.0934
Resistant	-11.0935
▁difficulties	-11.0938
▁Federation	-11.0939
▁Setup	-11.0939
▁violent	-11.094
▁treasure	-11.0941
▁residential	-11.0943
▁believes	-11.0944
▁sends	-11.0944
▁accessing	-11.0944
▁grave	-11.0945
▁contributed	-11.0945
mine	-11.0947
Album	-11.0949
▁Brown	-11.0951
inal	-11.0952
▁Explanation	-11.0953
▁fu	-11.0957
▁Adjust	-11.0961
ched	-11.0964
▁Setting	-11.0966
▁Yellow	-11.0971
▁Point	-11.0971
▁Bun	-11.0971
▁INCLUDING	-11.0971
▁Artec	-11.0976
▁bacteria	-11.0977
▁subjects	-11.0978
▁Screen	-11.0978
▁Mediterranean	-11.0979
▁documentary	-11.098
▁burst	-11.0983
▁Aki	-11.0983
TR	-11.0985
▁prime	-11.0986
▁fingers	-11.0987
▁Plaza	-11.0987
bus	-11.099
▁knock	-11.0992
▁journal	-11.0993
▁dimension	-11.0994
oy	-11.1
-11	-11.1001
fully	-11.1003
▁emotional	-11.1005
▁ceiling	-11.1005
▁printer	-11.1006
▁fitness	-11.1007
gy	-11.1007
▁fl	-11.1009
▁Tours	-11.1011
▁Dance	-11.1011
▁Fo	-11.1012
▁remarkable	-11.1014
▁spending	-11.1015
▁pipe	-11.1015
rie	-11.1018
▁steep	-11.1019
▁obviously	-11.1019
▁LIVE	-11.1021
▁Cryptocurrencie	-11.1021
▁Chief	-11.1022
▁lesson	-11.1029
▁Chairman	-11.103
▁sta	-11.103
▁ph	-11.1031
▁suffered	-11.1031
▁Especially	-11.1032
▁Narita	-11.1032
▁rush	-11.1032
▁shade	-11.1033
▁6,	-11.1033
Page	-11.1034
pen	-11.1034
▁HE	-11.1037
▁Very	-11.104
à	-11.104
▁Flash	-11.104
▁Panda	-11.1045
▁showcase	-11.1052
▁brothers	-11.1058
▁Manufacturing	-11.1058
▁whatsoever	-11.1058
▁brick	-11.1059
▁Sheet	-11.1064
INC	-11.1065
▁molecular	-11.1066
tte	-11.1067
▁eco	-11.107
▁Hai	-11.1071
▁headquarters	-11.1071
▁requirement	-11.1071
▁2011,	-11.1072
▁slight	-11.1074
AV	-11.1076
▁strain	-11.108
path	-11.1082
▁Communication	-11.1082
view	-11.1085
▁Bre	-11.1085
▁instant	-11.1087
▁hopes	-11.1088
▁minister	-11.109
▁sweat	-11.1093
ising	-11.1095
-18	-11.1095
▁viruses	-11.1096
ggle	-11.1097
▁romantic	-11.1098
▁vs	-11.1099
▁proven	-11.11
▁Nishi	-11.1102
▁interactive	-11.1102
▁combining	-11.1103
ore	-11.1103
ering	-11.1107
▁4,	-11.1107
▁handler	-11.1113
▁20%	-11.1116
▁DivX	-11.1116
▁airline	-11.1116
▁Visual	-11.1119
▁physics	-11.1119
▁renowned	-11.112
▁coastal	-11.112
mun	-11.1123
▁metres	-11.1123
▁forever	-11.1127
▁derived	-11.1129
▁dramatic	-11.113
▁Webmaster	-11.113
▁bug	-11.1132
date	-11.1132
▁reside	-11.1133
▁gathering	-11.1135
▁umbrella	-11.1135
▁Five	-11.1137
▁contacting	-11.1138
SHI	-11.1138
3]	-11.1139
▁Arab	-11.1139
▁fellow	-11.114
▁achievement	-11.114
▁PRP	-11.1141
▁navigate	-11.1145
▁tunnel	-11.1145
▁preserve	-11.1148
II	-11.1148
▁Message	-11.1148
▁LIMITED	-11.1148
▁Shan	-11.1155
▁crust	-11.1155
avi	-11.1157
▁writer	-11.1159
▁honest	-11.1159
▁Shopping	-11.116
road	-11.1163
▁combat	-11.1163
▁flour	-11.1165
▁sunrise	-11.1168
▁investments	-11.1168
▁confidential	-11.1168
▁slip	-11.1169
▁judge	-11.117
▁anonymous	-11.1171
▁numerical	-11.1172
▁Points	-11.1174
▁reservations	-11.1176
▁hook	-11.1181
put	-11.1184
▁CoinRevolution	-11.1185
▁merely	-11.1188
▁adjusting	-11.1188
pin	-11.1189
▁poster	-11.119
▁WARRANTIES	-11.1191
▁Trang	-11.1192
rai	-11.1193
One	-11.1193
▁Self	-11.1193
▁Ze	-11.1193
▁stroll	-11.1196
▁Journal	-11.1199
ert	-11.12
duc	-11.12
verse	-11.1201
▁THESE	-11.1204
life	-11.1208
▁Inside	-11.1209
▁portfolio	-11.1209
▁AT	-11.1211
▁operator	-11.1212
▁exhibitions	-11.1212
▁Milan	-11.1213
Ca	-11.1213
▁consequences	-11.1214
▁scenarios	-11.1215
▁NTT	-11.1217
▁talks	-11.1217
▁anticipated	-11.1218
▁administer	-11.1219
▁efficiently	-11.122
BREITLING	-11.1223
pha	-11.1224
▁debate	-11.1224
▁Ab	-11.1225
some	-11.1227
▁Delete	-11.1228
▁propose	-11.1229
▁kit	-11.1229
▁LE	-11.1233
FC	-11.1236
▁WARRANTY	-11.1237
▁2.5	-11.1242
▁2013,	-11.1242
▁prosperity	-11.1247
▁secondary	-11.1249
▁III	-11.125
▁hanging	-11.1251
ender	-11.1251
▁360	-11.1254
▁Alt	-11.1254
▁formal	-11.1257
OM	-11.1258
▁reader	-11.1258
▁Juli	-11.1259
After	-11.1259
rise	-11.1259
▁Samsung	-11.126
▁destroy	-11.1262
Le	-11.1263
▁membrane	-11.1265
IE	-11.1265
ane	-11.127
more	-11.1271
high	-11.1272
▁referring	-11.1273
▁Complete	-11.1274
▁float	-11.128
▁Speed	-11.128
TER	-11.1281
▁tiny	-11.1282
7%	-11.1283
▁2010,	-11.1284
▁experimental	-11.1285
hal	-11.1286
▁commit	-11.1287
▁arrow	-11.1287
▁Aichi	-11.1288
▁stain	-11.129
ado	-11.1291
▁fade	-11.1295
dan	-11.1296
▁Pictures	-11.1297
▁Tuesday	-11.1298
▁RFID	-11.1298
▁chest	-11.13
▁borders	-11.1301
▁evaluate	-11.1303
▁paths	-11.1304
▁envelope	-11.1307
cla	-11.1308
▁pressed	-11.131
▁Round	-11.1313
▁Ball	-11.1314
▁Cosplay	-11.1315
▁royal	-11.1316
▁Electronic	-11.1316
▁75	-11.1316
)"	-11.1317
▁mill	-11.1318
▁PLEASE	-11.132
▁accelerate	-11.132
Best	-11.1322
▁arrange	-11.1324
▁converter	-11.1325
▁permit	-11.1326
ks	-11.1328
▁indoor	-11.1329
most	-11.133
▁admission	-11.1331
▁outline	-11.1333
▁removing	-11.1333
▁honey	-11.1334
▁globally	-11.1334
▁Fan	-11.1334
▁recommendation	-11.1335
▁JA	-11.1335
▁vice	-11.1339
tz	-11.1345
▁Sai	-11.1346
▁challenging	-11.1347
Man	-11.1347
▁arguments	-11.1351
saki	-11.1355
▁promptly	-11.1357
­	-11.1358
▁personality	-11.1359
▁telling	-11.1361
Pre	-11.1362
je	-11.1367
▁wealthy	-11.1368
▁Easy	-11.1369
rid	-11.1371
▁involving	-11.1371
▁declare	-11.1374
▁soap	-11.1376
TP	-11.1376
▁logic	-11.138
▁campus	-11.1381
8%	-11.1387
ifies	-11.1387
▁galaxies	-11.1388
CD	-11.1388
▁appointment	-11.1389
▁wider	-11.1391
▁combines	-11.1393
▁Perhaps	-11.1393
ude	-11.1393
▁Corp	-11.1394
▁demo	-11.1395
▁actors	-11.1395
▁Roll	-11.1396
▁speaker	-11.1397
▁Input	-11.1398
▁PI	-11.1399
▁licensed	-11.14
gon	-11.14
▁somewhere	-11.14
ien	-11.1401
▁800	-11.1404
▁Valentine	-11.1408
▁Mongolia	-11.1409
tai	-11.1411
▁endless	-11.1414
VER	-11.1415
▁commission	-11.1416
UR	-11.1422
▁twenty	-11.1423
▁Sign	-11.1426
▁Nagasaki	-11.1426
isation	-11.1429
tern	-11.143
bil	-11.1431
▁visibility	-11.1431
▁ban	-11.1433
▁mineral	-11.1433
▁wisdom	-11.144
▁volcanic	-11.144
grade	-11.144
▁Sony	-11.144
▁Lifetime	-11.1441
▁employed	-11.1442
▁protocol	-11.1443
▁promise	-11.1443
▁resulted	-11.1444
▁priest	-11.1447
▁Cambodia	-11.1448
space	-11.1449
▁Par	-11.145
▁essentially	-11.1452
▁stakeholders	-11.1453
▁rainy	-11.1455
▁smoking	-11.1457
▁Yama	-11.1458
▁Staff	-11.146
br	-11.146
▁axis	-11.1461
▁transparency	-11.1464
▁Regarding	-11.1465
ban	-11.1468
▁abandoned	-11.1471
▁aroma	-11.1476
▁Workspace	-11.1478
▁unlike	-11.148
▁county	-11.148
▁Indeed	-11.1484
▁buffet	-11.1486
▁currencies	-11.1486
▁ending	-11.1487
▁tissue	-11.1491
▁subsidiary	-11.1492
▁gl	-11.1492
▁180	-11.1494
▁declared	-11.1494
MM	-11.1496
▁Federal	-11.1497
CT	-11.1498
▁logging	-11.1504
▁Caribbean	-11.1508
hiro	-11.1511
▁Articles	-11.1511
▁objectives	-11.1514
▁rescue	-11.1514
▁claimed	-11.1514
▁Yasu	-11.1516
▁65	-11.1517
__	-11.152
▁faced	-11.1522
▁Tech	-11.1524
▁hp	-11.1524
▁approaching	-11.1527
Forcing	-11.1527
dimensional	-11.1527
▁li	-11.1528
▁Stop	-11.1529
▁poll	-11.153
▁tongue	-11.153
▁privileges	-11.1531
gate	-11.1534
▁distinctive	-11.1534
▁folders	-11.1534
▁Tiffany	-11.1535
▁Louis	-11.1536
ishi	-11.1538
▁restrict	-11.1539
▁KO	-11.1544
▁IMPLIED	-11.1544
▁Bon	-11.1545
Our	-11.1547
▁robust	-11.1547
pat	-11.1548
▁None	-11.155
▁Remember	-11.1551
▁Requirements	-11.1552
▁shuttle	-11.1553
▁Wallet	-11.1553
▁resist	-11.1554
▁screw	-11.1555
zan	-11.1556
▁aren	-11.1557
▁substance	-11.1557
▁aesthetic	-11.1558
▁Trust	-11.1559
▁agreements	-11.156
DD	-11.156
▁poverty	-11.1561
▁Dubai	-11.1561
▁Municipal	-11.1569
▁celebration	-11.1569
▁childhood	-11.157
▁Provide	-11.1572
well	-11.1575
▁Francisco	-11.1578
▁neck	-11.1579
ras	-11.158
▁slot	-11.1581
▁diving	-11.1582
▁institution	-11.1585
Ra	-11.1586
▁ko	-11.1586
▁Directory	-11.1588
▁chemicals	-11.1594
▁horizon	-11.1594
▁BA	-11.1596
-15	-11.16
▁Equipment	-11.1602
▁corruption	-11.1604
▁sheets	-11.1605
▁sacred	-11.1605
▁2016.	-11.1605
▁cliff	-11.1608
lation	-11.1609
▁excess	-11.161
lay	-11.1614
▁sought	-11.1614
piece	-11.1616
▁binary	-11.1617
▁「	-11.1618
▁friendship	-11.1619
▁exceed	-11.1629
▁Module	-11.1631
rich	-11.1632
▁situated	-11.1633
▁recall	-11.1634
ene	-11.1634
▁Would	-11.1639
face	-11.1647
▁OUT	-11.165
▁muscle	-11.1651
FI	-11.1651
▁safely	-11.1652
▁Terminal	-11.1656
▁Scenes	-11.166
▁Ethereum	-11.1664
▁Annual	-11.1664
▁speakers	-11.1666
▁SM	-11.167
GO	-11.1672
▁CC	-11.1675
▁liver	-11.1676
▁steady	-11.1678
af	-11.1679
▁paying	-11.1679
▁Dynamic	-11.168
▁jewelry	-11.1681
▁Vietnamese	-11.1681
Material	-11.1683
▁steadily	-11.1683
▁talent	-11.1688
▁Yong	-11.1688
▁Born	-11.1688
▁Insight	-11.169
▁Santa	-11.169
▁Height	-11.169
▁surge	-11.1697
▁attributes	-11.1697
▁violence	-11.1697
▁refined	-11.1698
▁duties	-11.1698
▁46	-11.1699
▁EMF	-11.1701
▁cha	-11.1702
Bo	-11.1702
▁edited	-11.1702
▁proximity	-11.1703
▁Major	-11.1703
▁kick	-11.1704
CP	-11.1704
machi	-11.1704
▁Directors	-11.1707
▁58	-11.1708
▁luxurious	-11.1712
▁47	-11.1714
▁probe	-11.1714
▁threshold	-11.1714
▁Latin	-11.1715
tory	-11.1718
▁aside	-11.1718
▁BR	-11.1719
▁ICO	-11.1722
▁transfers	-11.1722
▁cry	-11.1725
tis	-11.1726
▁nano	-11.1731
▁Im	-11.1731
cr	-11.1732
ico	-11.1733
▁tele	-11.1735
▁grain	-11.1737
▁brass	-11.1737
▁exhibited	-11.1738
▁ion	-11.1741
▁Matt	-11.1745
▁prominent	-11.1745
▁permanently	-11.1746
▁shaped	-11.1746
▁Ann	-11.1748
▁Jong	-11.1749
▁retrieve	-11.1749
▁newsletters	-11.1753
▁Climate	-11.1754
▁fifth	-11.1754
▁Current	-11.1755
DF	-11.1755
▁leak	-11.1755
aya	-11.1755
▁hardly	-11.1756
▁Prior	-11.1757
card	-11.1761
▁washed	-11.1763
▁amendments	-11.1771
▁Fine	-11.1774
▁judgment	-11.1776
HD	-11.1777
▁aiming	-11.1777
▁exclusively	-11.1777
▁darkness	-11.1778
▁harmony	-11.1779
HI	-11.1781
NK	-11.1783
▁Cover	-11.1786
Can	-11.179
▁exquisite	-11.1791
mination	-11.1792
uchi	-11.1795
▁principal	-11.1796
▁carries	-11.1797
▁contractual	-11.1801
▁joining	-11.1803
▁consisting	-11.1805
▁skies	-11.1805
▁CON	-11.1809
▁optional	-11.1809
な	-11.1813
서	-11.1813
▁damages	-11.1814
▁Unlike	-11.1816
▁buried	-11.1819
▁dioxide	-11.1819
▁consultation	-11.182
▁WA	-11.1822
Pacific	-11.1822
▁executed	-11.1824
▁NI	-11.183
▁Kita	-11.183
▁waters	-11.183
▁answered	-11.1832
/10	-11.1834
▁hate	-11.1834
▁peaks	-11.1836
▁Dharma	-11.1839
▁Deep	-11.1841
▁crazy	-11.1842
▁waterfall	-11.1844
4%	-11.1844
▁hills	-11.1845
▁minimize	-11.1845
▁alter	-11.1849
TT	-11.1853
▁notifications	-11.1854
▁Within	-11.1857
▁settlement	-11.1858
6%	-11.1859
▁Ci	-11.1859
▁blank	-11.1861
▁chi	-11.1861
▁dependent	-11.1862
▁concluded	-11.1863
▁lucky	-11.1863
RD	-11.1868
▁le	-11.1869
▁prediction	-11.1871
▁smartphones	-11.1876
▁ra	-11.1879
▁witness	-11.1882
▁sins	-11.1887
▁Sal	-11.1888
▁distinct	-11.1888
▁waveform	-11.1891
▁Side	-11.1893
シ	-11.1893
▁et	-11.1894
▁bedroom	-11.1894
▁Birthday	-11.1896
▁malware	-11.1896
▁lying	-11.1897
▁slide	-11.1897
▁releases	-11.1897
▁gu	-11.1898
▁Fe	-11.1899
▁Shot	-11.19
▁logistics	-11.1908
▁Battle	-11.1908
conf	-11.1908
▁Sand	-11.1909
▁Session	-11.1911
▁updating	-11.1913
▁terminals	-11.1916
▁Backup	-11.1919
iti	-11.192
▁influenced	-11.1921
▁DT	-11.1925
▁backpack	-11.193
▁routine	-11.1931
▁slope	-11.1931
▁op	-11.1932
▁Hoa	-11.1936
▁screening	-11.1941
Not	-11.1947
▁Britain	-11.1948
ume	-11.1955
▁Girl	-11.1956
▁dense	-11.1957
oli	-11.1958
▁dam	-11.1959
▁meets	-11.1965
▁Sta	-11.1965
▁Oyster	-11.1965
▁Band	-11.1966
▁vegetable	-11.1968
▁Peninsula	-11.1968
と	-11.1968
▁protecting	-11.1972
rit	-11.1974
▁startup	-11.1976
▁focuses	-11.1976
▁excellence	-11.1977
▁stylish	-11.1977
▁injection	-11.1977
dia	-11.1979
▁99	-11.1981
▁Giant	-11.1982
Portal	-11.1985
kh	-11.1985
store	-11.1987
ram	-11.1991
▁festivals	-11.1991
▁vaccine	-11.1991
▁twin	-11.1993
▁junior	-11.1994
▁TR	-11.1995
▁Worlds	-11.1998
▁acceptable	-11.2
▁transmitted	-11.2001
▁cruise	-11.2002
▁Included	-11.2003
и	-11.2003
▁Single	-11.2004
▁surgery	-11.2004
▁analysts	-11.2004
▁Farm	-11.2004
▁Resources	-11.2004
▁accounting	-11.2009
▁stack	-11.2011
▁31,	-11.2012
▁Bell	-11.2014
▁drain	-11.2014
▁flowing	-11.2015
▁Given	-11.2015
▁pushing	-11.2018
▁porcelain	-11.2018
▁herself	-11.2018
▁sheep	-11.2018
▁gender	-11.2018
▁probability	-11.202
▁opposition	-11.202
▁Oct	-11.2021
graph	-11.2022
▁CAGR	-11.2023
len	-11.2029
▁planted	-11.203
▁correction	-11.2031
▁va	-11.2034
▁crime	-11.2036
▁Mag	-11.2039
▁attribute	-11.2039
▁Holiday	-11.2043
▁Thursday	-11.2043
▁consciousness	-11.2048
ii	-11.2049
▁mat	-11.205
▁dr	-11.2055
▁negotiations	-11.2055
▁palm	-11.2056
only	-11.2057
ros	-11.2058
▁jet	-11.2061
ident	-11.2062
▁anyway	-11.2063
TSU	-11.2063
vin	-11.2063
▁deployment	-11.2064
▁365	-11.2066
NET	-11.2069
▁emphasis	-11.207
▁Function	-11.2071
lat	-11.2071
eration	-11.208
▁mounted	-11.2081
ense	-11.2083
▁subscribe	-11.2087
▁corporations	-11.2087
uch	-11.2088
▁Bal	-11.2088
▁engagement	-11.209
▁stereo	-11.209
▁Angel	-11.2095
▁winds	-11.2098
▁nose	-11.2098
▁::	-11.2102
KA	-11.2104
▁blowing	-11.2104
▁winner	-11.2106
▁attach	-11.2106
▁villa	-11.2106
▁winding	-11.2109
▁apparent	-11.2111
▁resin	-11.2112
▁Tourist	-11.2112
▁Representative	-11.2114
▁bold	-11.2114
▁demonstrated	-11.2114
▁Ling	-11.2117
cor	-11.2119
▁sing	-11.2121
atory	-11.2122
cgi	-11.2124
▁loud	-11.2124
▁losses	-11.2126
defined	-11.2132
▁diagram	-11.2134
▁sleeping	-11.2136
▁vector	-11.2137
▁Abe	-11.2137
▁characterized	-11.2139
▁Rules	-11.2141
▁JBIC	-11.2143
tail	-11.2143
▁construct	-11.2144
▁Disaster	-11.2146
▁architectural	-11.2146
▁CIA	-11.2146
▁Operation	-11.2147
▁Risk	-11.2152
▁foreigners	-11.2153
▁recovered	-11.2153
▁specialty	-11.2155
cher	-11.2157
hang	-11.216
▁pharmaceutical	-11.2162
▁ISIS	-11.2163
▁zones	-11.2164
▁nu	-11.2165
▁Mei	-11.2167
▁valve	-11.2169
ending	-11.217
▁temples	-11.2171
▁highlighted	-11.2172
▁Cart	-11.2172
▁aging	-11.2174
▁George	-11.2175
▁profiles	-11.2178
▁Chrome	-11.2181
▁candidate	-11.2181
▁Value	-11.2182
▁integrate	-11.2183
▁Metro	-11.2184
▁Contract	-11.2185
ied	-11.2186
▁terrorism	-11.2187
▁jacket	-11.2187
▁tries	-11.219
▁sensitivity	-11.2191
▁Items	-11.2191
▁directors	-11.2193
▁Pri	-11.2195
▁Partner	-11.2196
▁wake	-11.22
tone	-11.2204
▁Target	-11.2205
mentioned	-11.2209
▁holder	-11.221
▁jurisdiction	-11.2211
▁qua	-11.2211
scape	-11.2213
▁Example	-11.2213
▁Little	-11.2215
Ka	-11.2215
▁cooked	-11.2216
▁OTHERWISE	-11.2217
▁James	-11.2217
▁Val	-11.2217
▁deeper	-11.222
▁Camera	-11.2222
`	-11.2224
cam	-11.2226
▁Construction	-11.2235
▁experiments	-11.2235
▁mount	-11.2237
rio	-11.2237
▁registry	-11.224
▁campaigns	-11.2241
▁presentations	-11.2242
▁computing	-11.2243
▁blossom	-11.2245
▁beam	-11.2245
▁tastes	-11.2246
▁buyers	-11.2251
gun	-11.2253
▁switching	-11.2253
▁LCD	-11.2254
^	-11.2255
▁Kyushu	-11.2255
▁teeth	-11.2255
shed	-11.2257
▁Kawa	-11.2258
wo	-11.2265
▁Ukraine	-11.2267
▁connectivity	-11.2273
▁tutorial	-11.2276
▁mud	-11.2277
▁optimized	-11.2277
▁earned	-11.2279
page	-11.2279
yuki	-11.228
▁sculpture	-11.2281
ule	-11.2283
▁Opening	-11.2285
▁surfaces	-11.2286
▁BTC	-11.2291
▁Col	-11.2292
▁noble	-11.2292
▁afford	-11.2294
9%	-11.2296
▁Th	-11.2296
▁fog	-11.2298
now	-11.2299
▁imagination	-11.23
▁missile	-11.23
▁producer	-11.2301
▁bulk	-11.2303
▁grip	-11.2304
▁Train	-11.2305
ened	-11.2307
▁volunteer	-11.2308
▁MATERIAL	-11.2309
var	-11.2309
▁2-	-11.231
▁Angeles	-11.231
▁trusted	-11.2313
▁durable	-11.2318
▁worst	-11.2318
▁2012.	-11.2318
▁stuck	-11.2318
rr	-11.2318
▁3)	-11.2324
▁shine	-11.2328
▁spreading	-11.233
▁pit	-11.2331
▁estimate	-11.2334
▁codes	-11.2335
▁telescope	-11.2336
▁drill	-11.2336
resolution	-11.2337
▁preset	-11.2338
▁Browser	-11.2342
▁Need	-11.2342
▁bonus	-11.2343
Mon	-11.2344
▁shelter	-11.2345
▁portable	-11.2346
▁Ranking	-11.2347
mod	-11.2349
▁2016,	-11.235
▁beds	-11.2358
cen	-11.2359
▁acceptance	-11.236
CK	-11.2364
▁linear	-11.2364
▁LINKS	-11.2366
hr	-11.2366
▁Close	-11.2367
building	-11.2368
▁Tree	-11.2371
sec	-11.2372
▁Toyota	-11.2372
▁(4	-11.2374
▁AL	-11.2378
▁Championship	-11.2381
▁Cy	-11.2381
▁molecules	-11.2383
ux	-11.2383
▁Miss	-11.2383
Edit	-11.2386
▁Recovery	-11.2386
▁Vienna	-11.2387
▁armed	-11.2389
▁shipment	-11.2391
▁assess	-11.2393
▁bundle	-11.2396
zawa	-11.2397
Open	-11.2397
teen	-11.2397
▁proved	-11.2397
▁1970	-11.2402
▁sapphire	-11.2402
▁boats	-11.2404
▁$4.95	-11.2405
▁incredible	-11.2405
▁blade	-11.2405
lim	-11.2405
oh	-11.2405
ole	-11.2409
▁Early	-11.241
▁lightning	-11.2412
▁Walk	-11.2412
▁Could	-11.2414
▁lectures	-11.2416
▁AR	-11.2418
pos	-11.2419
rick	-11.2422
▁fairly	-11.2422
step	-11.2422
▁sick	-11.2424
Hi	-11.2429
▁vessel	-11.243
-9	-11.243
▁ethnic	-11.2432
ICE	-11.2433
▁inventory	-11.2434
See	-11.2434
▁fried	-11.2434
▁Expo	-11.2435
▁29,	-11.2439
▁dB	-11.2439
▁bits	-11.244
GB	-11.2441
▁literature	-11.2441
▁dashboard	-11.2441
▁Karate	-11.2442
▁comp	-11.2444
▁sentence	-11.2444
▁affordable	-11.2447
cket	-11.2449
IVE	-11.2451
kyu	-11.2452
▁tempo	-11.2454
▁upcoming	-11.2455
▁pine	-11.2455
▁newspaper	-11.2455
▁Core	-11.2458
▁Cas	-11.2458
▁Several	-11.2459
▁pulse	-11.2459
▁Ripple	-11.2462
▁Discount	-11.2462
▁handled	-11.2467
▁melt	-11.247
▁Manual	-11.247
▁pottery	-11.2474
▁Until	-11.2475
▁Manufacture	-11.2481
▁bearing	-11.2481
»	-11.2485
commerce	-11.2486
AG	-11.2487
▁Texas	-11.249
▁Va	-11.249
"),	-11.2494
そ	-11.2499
▁Huangshan	-11.2499
▁emerged	-11.25
▁bouquet	-11.2501
▁Officer	-11.2501
▁Gulf	-11.2502
unk	-11.2504
▁electro	-11.251
▁excavation	-11.2511
▁pixel	-11.2513
▁Ye	-11.2513
▁---	-11.2515
▁harmful	-11.2517
▁alliance	-11.2517
▁segments	-11.2518
▁Mill	-11.2519
ians	-11.2519
▁DRM	-11.2523
flow	-11.2523
▁specialists	-11.2525
▁treatments	-11.2526
:10	-11.2529
met	-11.2529
▁pour	-11.2529
▁facts	-11.2532
▁Shinjuku	-11.2532
lla	-11.2533
▁managers	-11.2533
▁excitement	-11.2535
▁Wei	-11.2536
▁instruction	-11.2538
▁Hard	-11.2538
▁panda	-11.2539
▁staying	-11.2542
▁den	-11.2542
▁intend	-11.2545
gger	-11.2546
▁JavaScript	-11.2548
:15	-11.2551
▁receives	-11.2554
ulated	-11.2556
▁Menu	-11.2556
▁CARE	-11.2558
▁1994	-11.2559
▁crossing	-11.2561
▁finger	-11.2562
▁stem	-11.2563
JP	-11.2563
▁Tor	-11.2566
bon	-11.2566
▁INFORMATION	-11.2566
▁Muslim	-11.2566
▁foam	-11.2568
▁Mal	-11.2571
▁43	-11.2572
▁Instruments	-11.2572
ature	-11.2574
▁2010.	-11.2574
▁microphone	-11.2579
ata	-11.2581
▁clauses	-11.2583
▁addressed	-11.2585
▁DA	-11.2585
High	-11.2587
SU	-11.2591
▁VI	-11.2591
▁GT	-11.2593
▁promoted	-11.2593
▁accessed	-11.2598
▁Miya	-11.2599
▁virtually	-11.2599
Type	-11.2601
dom	-11.2601
iao	-11.2602
▁Tian	-11.2605
VA	-11.2607
▁accidents	-11.2607
▁Consulate	-11.2611
▁compete	-11.2613
▁cart	-11.2613
▁3.0	-11.2615
▁sad	-11.2616
▁Factory	-11.2616
hood	-11.2617
▁grace	-11.2617
▁Comments	-11.2619
▁notify	-11.2619
cin	-11.2623
▁dancing	-11.2624
pri	-11.2624
▁bend	-11.2627
▁holders	-11.263
lea	-11.2631
▁quietly	-11.2632
▁ES	-11.2633
▁creativity	-11.2634
▁pa	-11.2636
▁coat	-11.2638
▁enhancing	-11.264
▁verse	-11.264
▁#1	-11.264
▁reflects	-11.2641
▁Six	-11.2641
▁1.2	-11.2641
▁significance	-11.2643
▁authorization	-11.2644
▁TSMC	-11.2646
▁lovely	-11.2652
▁deny	-11.2653
▁vacuum	-11.2655
▁cables	-11.2655
▁emotions	-11.2657
▁Ray	-11.2658
▁spam	-11.266
▁officers	-11.2661
▁prototype	-11.2661
▁holy	-11.2662
vid	-11.2664
▁seller	-11.2667
ク	-11.2668
▁fe	-11.2669
ERS	-11.2669
▁700	-11.2672
で	-11.2674
fl	-11.2674
▁TEL	-11.2674
▁4-	-11.2676
▁rhythm	-11.2679
▁Capital	-11.268
▁ages	-11.2683
phe	-11.2683
ALL	-11.2684
▁rarely	-11.2685
▁bracelet	-11.269
▁revolution	-11.2691
▁namespace	-11.2692
▁KA	-11.2692
▁Think	-11.2693
▁noon	-11.2693
▁adjusted	-11.2695
▁Ser	-11.2696
▁9,	-11.2697
▁Sale	-11.2697
▁restored	-11.2698
▁fulfill	-11.27
bri	-11.2703
▁decreased	-11.2707
▁DAY	-11.2708
▁sacrifice	-11.2708
▁Sapphire	-11.2709
via	-11.2709
International	-11.2714
▁cargo	-11.2714
▁Cut	-11.2715
▁glance	-11.2715
eu	-11.2716
▁succeeded	-11.2716
version	-11.2717
▁worried	-11.2717
▁invitation	-11.2717
▁binding	-11.2718
▁reproduce	-11.2723
stop	-11.2725
▁absorb	-11.2728
▁reactions	-11.2728
▁Editing	-11.2729
▁identical	-11.273
▁crowded	-11.2731
▁04	-11.2732
▁pond	-11.2732
Tokyo	-11.2733
▁worker	-11.2735
-17	-11.2736
achi	-11.2736
▁hereby	-11.2738
▁headers	-11.274
▁PRE	-11.2746
ites	-11.2747
▁destinations	-11.2747
FF	-11.2748
▁AUROTEK	-11.2748
▁Finance	-11.2749
▁enormous	-11.2752
▁Zhu	-11.2753
▁nail	-11.2753
▁popup	-11.2755
▁Currency	-11.2755
▁rack	-11.2756
▁apparently	-11.2757
▁Civil	-11.2758
▁trucks	-11.2758
rop	-11.276
▁hum	-11.276
active	-11.276
del	-11.2765
itch	-11.2766
mes	-11.2767
▁debris	-11.2767
▁circuits	-11.2773
▁wise	-11.2774
▁publishing	-11.2777
▁lakes	-11.2779
▁packed	-11.2781
▁paragraph	-11.2783
▁regime	-11.2783
UC	-11.2784
▁ne	-11.2786
▁CR	-11.2787
▁assured	-11.2787
▁ultimately	-11.2788
▁accumulated	-11.2794
▁unsubscribe	-11.2799
din	-11.2799
▁2019.	-11.2801
▁Drum	-11.2801
▁Simply	-11.2802
▁Saving	-11.2803
craft	-11.2804
▁Supreme	-11.2805
▁accompanying	-11.2806
tori	-11.2807
▁Hua	-11.2808
▁Retention	-11.2809
▁predictions	-11.281
▁Robert	-11.2812
cri	-11.2812
▁Tra	-11.2814
▁Minh	-11.2814
▁lovers	-11.2816
SL	-11.2818
▁Maybe	-11.2819
▁lit	-11.2821
word	-11.2822
▁picked	-11.2825
▁05	-11.2835
▁Del	-11.2835
▁profits	-11.2836
SR	-11.2836
▁mar	-11.2836
By	-11.2839
▁restoration	-11.2843
▁tin	-11.2843
cons	-11.2846
real	-11.2846
▁Ly	-11.2847
▁spray	-11.2848
▁Mc	-11.2849
▁bond	-11.285
▁HP	-11.2852
▁afterwards	-11.2852
ele	-11.2855
IX	-11.2856
▁pointing	-11.2859
▁relaxed	-11.2859
▁streaming	-11.2863
▁09	-11.2863
▁investigations	-11.2864
▁Navy	-11.2865
▁barely	-11.2866
SK	-11.2867
▁substantial	-11.2872
▁11,	-11.2876
BC	-11.2876
▁nodes	-11.2877
▁2003,	-11.2879
▁emission	-11.2882
▁Sin	-11.2885
▁optimize	-11.2889
▁Vision	-11.289
▁Technologies	-11.289
▁mg	-11.2892
▁conclude	-11.2892
▁SQL	-11.2895
▁euro	-11.2896
▁gently	-11.2903
cca	-11.2904
size	-11.2905
▁Provincial	-11.2906
▁dough	-11.2906
ways	-11.2906
ike	-11.2907
world	-11.2909
▁silence	-11.2909
nel	-11.291
▁adjustments	-11.2911
0%	-11.2915
▁governance	-11.2915
▁Consul	-11.2916
omi	-11.2917
▁Position	-11.2918
▁Documents	-11.2919
▁Villa	-11.2919
ford	-11.292
▁compounds	-11.292
▁gi	-11.292
▁trials	-11.2921
▁melting	-11.2921
▁optimization	-11.2922
▁Workshop	-11.2922
▁Apply	-11.2922
▁Works	-11.2923
▁Shows	-11.2924
5.00	-11.2924
▁EN	-11.2924
}	-11.2925
▁reward	-11.2931
second	-11.2932
pper	-11.2935
tar	-11.2936
ben	-11.294
▁creator	-11.2944
▁variations	-11.2944
▁heading	-11.2945
▁cement	-11.2947
▁archive	-11.2947
▁diver	-11.2949
▁streams	-11.2949
▁offset	-11.2949
▁disposal	-11.295
▁requiring	-11.2953
▁hoping	-11.2955
▁translated	-11.2955
▁Vari	-11.2956
▁diagnosis	-11.2957
▁linking	-11.2958
▁modulation	-11.2958
▁ramen	-11.2961
bl	-11.2963
▁specialist	-11.2963
2019	-11.2965
▁Administrator	-11.2966
guchi	-11.2967
▁continually	-11.2967
▁soba	-11.2968
▁Ren	-11.297
▁fragrance	-11.2973
ora	-11.2973
▁beaches	-11.2976
▁occasionally	-11.2983
▁Recent	-11.2984
▁polymer	-11.2985
▁compatibility	-11.2986
UM	-11.2987
▁elementary	-11.2988
▁debut	-11.2989
▁Preferences	-11.2992
▁Creative	-11.2992
▁Solutions	-11.2996
▁refreshing	-11.2996
▁grasp	-11.2996
atsu	-11.2997
col	-11.2998
▁belonging	-11.2998
▁compile	-11.2998
▁accurately	-11.2999
▁largely	-11.3
aba	-11.3
pl	-11.3
▁2011.	-11.3001
▁des	-11.3003
▁graphical	-11.3008
▁cyber	-11.3008
▁murder	-11.3008
▁balanced	-11.301
▁clan	-11.3011
ches	-11.3012
▁cho	-11.3013
▁bot	-11.3014
▁variant	-11.3018
▁encountered	-11.3018
chan	-11.3019
▁warehouse	-11.3021
▁Off	-11.3023
that	-11.3024
▁06	-11.3025
Ba	-11.3026
▁Tax	-11.3026
▁External	-11.3027
▁themes	-11.3028
▁exhaust	-11.3029
▁affecting	-11.303
▁catalyst	-11.303
▁racing	-11.3031
▁Army	-11.3033
▁theatre	-11.3034
IV	-11.3036
▁praise	-11.3036
main	-11.3037
▁Permission	-11.3038
▁z	-11.3039
▁indicating	-11.304
▁Chamber	-11.304
▁Fun	-11.3042
▁quantities	-11.3046
▁Arabia	-11.3049
NG	-11.3054
group	-11.3061
▁spacious	-11.3063
live	-11.3066
core	-11.307
OU	-11.3072
▁lawful	-11.3072
▁epi	-11.3076
source	-11.3077
▁scholarship	-11.3079
ique	-11.3079
parties	-11.3079
▁sermon	-11.3082
▁SU	-11.3083
▁tasty	-11.3085
▁30%	-11.3086
▁Chile	-11.3087
ates	-11.3088
▁5-	-11.3088
▁Brother	-11.3088
Di	-11.309
oki	-11.309
▁prison	-11.3096
▁Hours	-11.3099
▁drunk	-11.3101
▁elections	-11.3102
▁Starting	-11.3103
▁qualified	-11.3104
▁CORPORATION	-11.3104
▁affairs	-11.3105
▁glad	-11.3106
▁Putin	-11.3109
▁Naga	-11.311
tta	-11.3112
▁Wide	-11.3113
о	-11.3114
▁batteries	-11.3114
▁Things	-11.3116
LM	-11.3117
▁derivative	-11.3117
▁Hat	-11.3119
▁Nevertheless	-11.3121
▁trained	-11.3124
▁elegance	-11.3124
/12	-11.3126
▁cultivation	-11.3127
▁heavily	-11.3127
▁Hangzhou	-11.3127
▁Originally	-11.3128
▁invalid	-11.3128
▁motorcycle	-11.313
▁Task	-11.3131
▁Wood	-11.3132
▁ignore	-11.3133
▁incorporated	-11.3136
▁Guests	-11.3136
▁fewer	-11.3141
▁ownership	-11.3142
▁individually	-11.3143
First	-11.3144
arch	-11.3146
▁corresponds	-11.3146
▁Fre	-11.3148
▁Dream	-11.3151
yaki	-11.3151
▁till	-11.3152
▁indicator	-11.3153
し	-11.3153
Holiday	-11.3154
▁Sustainable	-11.3155
▁ignored	-11.3157
▁titles	-11.3158
▁welfare	-11.3159
capped	-11.316
cro	-11.3163
▁healthcare	-11.3164
▁puzzle	-11.3166
BR	-11.3167
▁PARTNERS	-11.3169
▁Instagram	-11.3176
▁collecting	-11.3177
▁Theater	-11.318
▁Nov	-11.3182
▁Complaints	-11.3182
▁mystery	-11.3182
▁2008,	-11.3182
▁geo	-11.3185
gro	-11.3186
▁2009,	-11.319
▁lemon	-11.319
ava	-11.319
▁boasts	-11.3191
▁affiliated	-11.3193
▁Cool	-11.3193
▁Liu	-11.3194
2%	-11.3194
▁ill	-11.3197
▁excessive	-11.3197
▁Lady	-11.3197
▁×	-11.3198
eri	-11.3199
▁Portugal	-11.3199
▁hurt	-11.3199
▁radar	-11.3202
▁Heat	-11.3202
▁XML	-11.3205
レ	-11.3205
▁mapping	-11.321
ional	-11.3211
▁refresh	-11.3214
lle	-11.3215
▁Hesse	-11.3217
▁identifier	-11.3219
▁strike	-11.322
▁pri	-11.322
▁1992	-11.3221
Blu	-11.3221
▁collective	-11.3222
▁hyper	-11.3224
▁bitch	-11.3225
Shi	-11.3226
▁Clip	-11.3227
aw	-11.3228
uo	-11.3228
▁Saturdays	-11.3229
▁pulling	-11.323
▁lifting	-11.323
▁convention	-11.3231
YA	-11.3233
▁Toyo	-11.3233
▁moderate	-11.3234
▁Hold	-11.3236
▁trains	-11.3238
▁pride	-11.3239
▁Sri	-11.324
▁Load	-11.3241
▁prestigious	-11.3244
▁cons	-11.3248
▁distinguish	-11.325
▁ga	-11.3251
▁evolved	-11.3251
▁ties	-11.3252
Or	-11.3254
▁Method	-11.3255
▁titled	-11.3255
▁Driver	-11.3255
▁Tab	-11.3258
▁alongside	-11.3258
▁Additional	-11.3258
▁proteins	-11.326
▁2013.	-11.326
hy	-11.3261
▁Mitsubishi	-11.3263
▁refugees	-11.3264
▁Story	-11.3264
▁underlying	-11.3265
▁Purposes	-11.3265
▁loose	-11.3265
▁labels	-11.3267
position	-11.3269
▁Talk	-11.3272
▁farming	-11.3273
LL	-11.3276
shirt	-11.3277
▁potatoes	-11.328
▁mi	-11.3283
▁civilization	-11.3286
▁satellites	-11.3287
▁margin	-11.3288
▁TT	-11.329
▁illness	-11.3291
▁resolved	-11.3292
ae	-11.3293
▁hungry	-11.3295
▁Switch	-11.3297
▁70%	-11.3298
▁Zhang	-11.3299
▁Treatment	-11.3301
▁Exp	-11.3303
▁monster	-11.3304
lines	-11.3305
▁pig	-11.3306
▁preserved	-11.3307
▁bra	-11.3309
▁viewer	-11.3311
▁Moms	-11.3315
▁Associate	-11.3317
▁consecutive	-11.3317
▁vicinity	-11.3317
▁lady	-11.3318
lot	-11.3321
▁makeup	-11.3322
▁citizen	-11.3322
▁gratitude	-11.3333
aka	-11.3335
▁fork	-11.3337
▁Poly	-11.3338
From	-11.334
▁cow	-11.3341
▁complement	-11.3342
inch	-11.3343
▁Cash	-11.3348
▁arc	-11.3349
▁flesh	-11.335
▁Adam	-11.3351
▁Onsen	-11.3351
▁lively	-11.3352
stwatches	-11.3354
note	-11.3354
▁developments	-11.3358
▁Republican	-11.3362
▁savings	-11.3363
▁Framework	-11.3363
▁BO	-11.3364
▁Converter	-11.3368
qi	-11.3369
▁jewel	-11.3369
▁departments	-11.337
700	-11.337
▁ARE	-11.3371
▁healing	-11.3371
▁stayed	-11.3373
▁proportions	-11.3374
ula	-11.3376
imp	-11.3376
USA	-11.3376
▁130	-11.3377
ean	-11.338
▁preceding	-11.338
rain	-11.338
▁electromagnetic	-11.3383
lies	-11.3387
▁Iwa	-11.3387
▁connector	-11.3388
▁considerable	-11.3389
▁aged	-11.339
▁HRM	-11.3391
▁Democratic	-11.3396
▁Functions	-11.3398
PRO	-11.34
▁Storage	-11.3403
front	-11.3405
▁generating	-11.3406
zz	-11.3406
abi	-11.341
olo	-11.3411
▁tokens	-11.3411
▁Window	-11.3418
▁fake	-11.3418
▁checks	-11.3419
carbon	-11.3422
▁gods	-11.3422
wai	-11.3423
▁AGREE	-11.3423
▁Ve	-11.3427
state	-11.3428
▁Records	-11.3428
1,	-11.343
リ	-11.343
▁Internal	-11.3433
▁possess	-11.3433
▁Arctic	-11.3434
MD	-11.3434
▁spare	-11.3436
▁Visitors	-11.344
▁accommodations	-11.3443
í	-11.3445
▁virgin	-11.3447
▁erotic	-11.3447
▁(18	-11.3451
▁federal	-11.3453
▁Zi	-11.3462
Time	-11.3462
▁analyse	-11.3466
▁Galaxy	-11.3467
▁silent	-11.3469
RY	-11.3471
bot	-11.3473
▁Continue	-11.3473
▁adverse	-11.3474
bre	-11.3475
▁recipients	-11.3477
▁Ber	-11.3478
▁deliveries	-11.3478
▁clubs	-11.3479
▁unfortunately	-11.3479
▁Companies	-11.348
▁disappeared	-11.3481
▁alleged	-11.3484
▁missed	-11.3487
▁disabilities	-11.3487
▁refused	-11.3487
▁Links	-11.349
▁Sep	-11.3493
▁warned	-11.3493
▁exp	-11.3493
치	-11.3493
aga	-11.3494
system	-11.3495
▁tro	-11.3502
▁Stores	-11.3502
▁Avoid	-11.3503
auth	-11.3504
tron	-11.3505
ido	-11.3505
▁(5	-11.3506
▁Pearl	-11.3507
AGE	-11.3508
she	-11.3508
▁fossil	-11.3514
▁glory	-11.3514
osis	-11.3515
▁Forecasts	-11.3516
▁factories	-11.3517
▁Below	-11.3518
iki	-11.3519
▁rows	-11.3519
▁notebook	-11.352
sure	-11.3521
lash	-11.3525
▁ecosystem	-11.3526
▁sushi	-11.3528
▁TAKE	-11.3529
▁Kit	-11.353
▁eruption	-11.3531
yuan	-11.3533
▁acoustic	-11.3534
1%	-11.3534
-30	-11.3535
▁1017	-11.3536
▁mall	-11.3537
▁Police	-11.3537
cess	-11.3539
ib	-11.3539
▁Mel	-11.354
being	-11.354
00,000	-11.3541
▁Wild	-11.3541
▁emperor	-11.3544
▁Reserve	-11.3545
fold	-11.3545
▁vibration	-11.3547
▁Near	-11.355
Net	-11.3551
pet	-11.3552
tical	-11.3553
ö	-11.3554
▁unlikely	-11.3557
▁110	-11.3559
stra	-11.356
▁affiliates	-11.356
▁TA	-11.3561
▁catalog	-11.3561
▁Indo	-11.3561
▁Chiba	-11.357
▁guitar	-11.3571
▁Configuration	-11.3571
▁Sweden	-11.3571
▁protective	-11.3572
▁lining	-11.3574
away	-11.3584
DM	-11.3584
▁texts	-11.3584
Chopard	-11.3584
▁GR	-11.3585
▁separation	-11.3585
▁Tam	-11.3587
▁Competent	-11.3591
▁ri	-11.3593
yoshi	-11.3595
▁Kazu	-11.3596
▁humidity	-11.3599
▁grateful	-11.3602
▁galleries	-11.3605
▁col	-11.3608
▁companion	-11.3608
far	-11.361
▁insight	-11.3611
aging	-11.3611
▁flavors	-11.3611
▁Registration	-11.3611
▁cosplay	-11.3612
kou	-11.3612
▁Zoom	-11.3613
▁Sim	-11.3614
▁fleet	-11.3615
▁Ultimately	-11.3615
▁Publication	-11.362
▁perception	-11.3621
bur	-11.3621
▁Philip	-11.3622
▁Senior	-11.3622
▁Upon	-11.3622
▁def	-11.3623
▁fer	-11.3623
▁creatures	-11.3625
▁locate	-11.3626
tim	-11.3626
▁com	-11.3629
rag	-11.3631
▁union	-11.3634
BU	-11.3635
▁lung	-11.3636
▁momentum	-11.3637
▁architect	-11.3639
▁Mass	-11.3639
▁pairs	-11.3639
▁1993	-11.3641
▁tens	-11.3642
▁Challenge	-11.3642
▁sustainability	-11.3643
▁sustain	-11.3646
▁thereof	-11.3647
▁periodically	-11.3649
▁Hide	-11.3649
tors	-11.3649
▁workspace	-11.3649
▁chamber	-11.365
▁Beautiful	-11.3651
▁exercises	-11.3653
▁Otherwise	-11.3654
▁Copyright	-11.3654
▁Job	-11.3659
bel	-11.3659
UI	-11.366
▁Noh	-11.3664
▁crops	-11.3667
▁modes	-11.3667
▁unclear	-11.3669
▁roughly	-11.3669
▁smoothly	-11.3669
▁ye	-11.3671
▁exported	-11.3673
▁evident	-11.3673
▁officer	-11.3674
▁settled	-11.3676
▁gem	-11.3677
▁€10...	-11.3677
▁€11...	-11.3677
▁€7...	-11.3677
▁€12...	-11.3677
▁wrist	-11.3677
▁financing	-11.368
▁Native	-11.3682
ml	-11.3683
ddle	-11.3684
▁somehow	-11.3684
▁timely	-11.3686
▁graduated	-11.3688
▁generator	-11.3689
oku	-11.369
under	-11.3691
proof	-11.3693
▁anxiety	-11.3697
▁ibis	-11.3697
▁shi	-11.3698
▁cra	-11.3699
▁cooperative	-11.3701
lio	-11.3701
▁OIST	-11.3703
Work	-11.3704
▁impacts	-11.3705
▁edits	-11.3706
▁mesh	-11.3708
▁Wo	-11.3709
emia	-11.371
▁collections	-11.3712
morph	-11.3714
▁rocket	-11.3716
▁possession	-11.3719
4)	-11.3722
▁Usage	-11.3724
▁beneficial	-11.3725
ibility	-11.373
bro	-11.3731
▁Herengracht	-11.3735
▁occurrence	-11.3735
▁Audit	-11.3735
▁10,000	-11.3735
els	-11.3737
▁Fee	-11.3737
▁compound	-11.3737
▁moral	-11.3737
▁Memorial	-11.3742
▁Feedback	-11.3742
▁MOSHI	-11.3742
▁Khanh	-11.3743
▁snacks	-11.3744
pic	-11.3745
▁scattered	-11.375
▁bones	-11.3751
▁collaborative	-11.3756
▁RS	-11.3758
▁teenagers	-11.3758
▁abolish	-11.3759
▁Parts	-11.3761
▁copied	-11.3763
а	-11.3763
Water	-11.3763
host	-11.3766
▁neighboring	-11.3767
▁Vo	-11.3767
▁Flo	-11.3767
▁Present	-11.3773
▁LOTTE	-11.3773
▁Martin	-11.3774
▁597,	-11.3775
▁unauthorized	-11.3777
▁Others	-11.3777
▁Individual	-11.3779
▁rope	-11.378
oke	-11.378
▁realistic	-11.3782
ush	-11.3787
▁Devices	-11.3788
▁Stone	-11.3788
▁finishing	-11.3789
etic	-11.3789
MENT	-11.379
▁copying	-11.379
▁ACCESS	-11.379
▁eaten	-11.3795
▁attempting	-11.3796
▁martial	-11.3797
▁penalty	-11.3797
▁shield	-11.3797
rest	-11.3799
OO	-11.3799
▁Living	-11.3801
▁literally	-11.3805
▁tech	-11.3806
GS	-11.3809
OC	-11.381
▁launching	-11.3811
▁belief	-11.3811
▁Opera	-11.3815
▁vulnerability	-11.3815
▁Mont	-11.3817
▁Fortunately	-11.3818
▁Scientific	-11.3818
service	-11.3821
▁defeat	-11.3821
▁matrix	-11.3822
▁metadata	-11.3822
▁Floor	-11.3822
mori	-11.3823
▁favorable	-11.3825
Dis	-11.384
Go	-11.3841
▁adjacent	-11.3843
ika	-11.3848
▁Alliance	-11.385
▁Sites	-11.385
ink	-11.3852
aff	-11.3853
▁accomplish	-11.3854
▁12,	-11.3858
▁chemistry	-11.3859
DL	-11.386
▁circular	-11.386
Ar	-11.3861
▁drops	-11.3862
local	-11.3863
처	-11.3863
ESS	-11.3866
ector	-11.3866
▁Unix	-11.3866
ジ	-11.3867
▁Customers	-11.3867
▁Password	-11.3867
ching	-11.3867
▁Wan	-11.3869
▁qualities	-11.387
▁blast	-11.3871
▁Dual	-11.3872
▁precautions	-11.3873
hereinafter	-11.3874
▁pork	-11.3874
▁Hira	-11.3875
▁welding	-11.3878
▁periodic	-11.3878
▁roller	-11.3881
▁circulation	-11.3881
▁CV	-11.3881
Su	-11.3883
▁plugin	-11.3892
▁Ultra	-11.3895
▁doctors	-11.3897
!)	-11.39
hiko	-11.3901
AB	-11.3901
▁dogs	-11.3902
▁occasions	-11.3904
▁wheels	-11.3905
▁piano	-11.3906
▁tablets	-11.391
▁Bali	-11.3911
▁attending	-11.3911
▁CM	-11.3912
▁remind	-11.3914
▁Inn	-11.3915
▁Dutch	-11.3916
▁53	-11.3916
▁1960	-11.3917
UP	-11.3918
0.0	-11.3918
▁1989	-11.3919
▁Jacob	-11.3919
These	-11.3925
▁Fish	-11.3925
▁violate	-11.3927
dd	-11.3929
▁confusion	-11.393
▁carved	-11.3934
ret	-11.3935
▁Cancel	-11.3935
▁Match	-11.3936
▁Economy	-11.3937
lk	-11.3939
▁wi	-11.3939
▁constraints	-11.394
▁troops	-11.3941
byte	-11.3941
▁restricted	-11.3942
▁intent	-11.3944
▁grab	-11.3945
▁attendance	-11.3945
using	-11.3947
En	-11.3949
▁Important	-11.3949
night	-11.3949
ich	-11.395
▁namely	-11.395
▁Pavilion	-11.3958
▁Sar	-11.3958
▁shoulder	-11.3961
る	-11.3962
value	-11.3962
▁Eye	-11.3963
color	-11.3963
ups	-11.3964
bol	-11.3966
▁Theme	-11.3969
▁patch	-11.3971
fall	-11.3971
▁리	-11.3972
▁candidates	-11.3972
▁discontinue	-11.3972
▁woods	-11.3973
▁volunteers	-11.3977
▁Bro	-11.3977
▁BMW	-11.3978
rang	-11.398
och	-11.3983
▁loyalty	-11.3983
▁MOL	-11.3984
▁Dictionary	-11.3986
▁endeavor	-11.3986
▁velocity	-11.3986
exe	-11.3987
magnetic	-11.399
▁drawings	-11.3991
▁weapon	-11.3991
▁Campaign	-11.3993
▁kindly	-11.3995
▁guru	-11.3996
▁MD	-11.3999
▁ci	-11.3999
▁Parks	-11.4
▁organ	-11.4001
▁hero	-11.4001
▁proportion	-11.4002
▁sensation	-11.4004
▁BOX	-11.4004
▁LET	-11.4006
Car	-11.4007
gri	-11.4008
▁controlling	-11.4011
▁followers	-11.4011
▁wouldn	-11.4011
▁nights	-11.4011
▁Mountains	-11.4012
▁advertisement	-11.4015
▁genome	-11.4015
▁scanner	-11.4016
▁singer	-11.4016
fire	-11.4016
▁Ob	-11.4017
dio	-11.4017
▁beans	-11.4019
actic	-11.4021
▁NT	-11.4021
yeong	-11.4022
▁kingdom	-11.4022
▁guided	-11.4024
▁hip	-11.4025
▁Baseball	-11.4026
turn	-11.4027
▁1:30	-11.4031
▁instances	-11.4032
▁2,000	-11.4034
▁confused	-11.4036
▁Various	-11.4037
▁bridges	-11.4037
body	-11.404
▁tent	-11.4042
▁opera	-11.4047
▁08	-11.4047
▁reveals	-11.4049
▁utilization	-11.405
▁inquiries	-11.405
vel	-11.4051
▁blessed	-11.4053
▁designing	-11.4055
excluding	-11.4057
BL	-11.4057
▁vintage	-11.4061
네이	-11.4061
ans	-11.4061
▁Jiang	-11.4063
▁rod	-11.4063
▁photographer	-11.4065
▁Dam	-11.4065
▁Root	-11.4068
▁Default	-11.4069
nia	-11.407
▁breeze	-11.4072
▁references	-11.4074
▁footage	-11.4074
5,000	-11.4074
▁signing	-11.4077
▁Route	-11.4087
▁Stream	-11.4092
ART	-11.4093
▁barrier	-11.4094
wer	-11.4096
▁purple	-11.4097
▁institute	-11.4097
▁LAW	-11.4099
gr	-11.4101
▁breathing	-11.4104
▁Str	-11.4105
▁browsers	-11.4106
▁fairest	-11.4106
▁ur	-11.4107
ü	-11.4107
▁Lang	-11.4107
▁Deputy	-11.4107
▁(*	-11.4109
▁foster	-11.411
▁suck	-11.4112
▁manifest	-11.4114
▁logical	-11.4114
▁59	-11.4116
udemars	-11.4118
lecommunications	-11.4122
▁lap	-11.4123
▁Princess	-11.4123
ically	-11.4123
▁Cre	-11.4126
yi	-11.4127
▁Seven	-11.4127
rail	-11.4128
▁depression	-11.4129
oe	-11.413
▁overhead	-11.4131
▁volumes	-11.4131
▁Military	-11.4132
lent	-11.4133
▁abilities	-11.4134
▁involvement	-11.4135
mpl	-11.4135
▁21,	-11.4136
▁questionnaire	-11.4136
▁span	-11.4143
▁poison	-11.4143
▁violation	-11.4144
▁ICU	-11.4145
▁beautifully	-11.4146
▁dear	-11.4146
LT	-11.4147
е	-11.4149
▁blocking	-11.4156
str	-11.4156
▁stimulate	-11.4157
▁enhancement	-11.4159
System	-11.4161
cul	-11.4161
▁LOCAL	-11.4161
▁surround	-11.4162
▁Pink	-11.4165
Press	-11.4166
THE	-11.4167
▁Para	-11.4168
▁pregnant	-11.4168
nai	-11.4169
▁max	-11.4169
AA	-11.4171
▁substrate	-11.4172
performance	-11.4175
▁sentient	-11.4177
▁humanity	-11.418
▁incoming	-11.4181
▁Plug	-11.4183
hon	-11.4185
feng	-11.4185
▁Supplier	-11.4186
▁Views	-11.4189
▁cafe	-11.4189
File	-11.419
▁representations	-11.4191
▁52	-11.4191
▁Lion	-11.4192
▁polar	-11.4193
▁💐	-11.4193
▁minimal	-11.4194
▁indispensable	-11.4197
▁cease	-11.4202
▁mixing	-11.4202
ered	-11.4202
▁Ito	-11.4203
heat	-11.4203
▁wizard	-11.4204
▁casino	-11.4204
pers	-11.4205
▁bathtub	-11.4206
▁workplace	-11.4209
▁2257	-11.4209
▁waiver	-11.4211
GP	-11.4218
▁tie	-11.4218
▁(6	-11.4219
▁assistant	-11.422
▁Newborn	-11.4221
▁TH	-11.4223
east	-11.4224
▁silicon	-11.4227
▁Retail	-11.4228
SSI	-11.4228
▁Lecture	-11.423
▁appreciation	-11.423
▁producers	-11.4235
▁Planning	-11.4235
▁automobile	-11.4239
▁imaging	-11.4241
▁Client	-11.4242
▁contrary	-11.4244
/2	-11.4244
▁Pool	-11.4246
cip	-11.4247
▁fits	-11.4247
▁FI	-11.4247
▁FU	-11.4248
▁buffer	-11.4251
▁ritual	-11.4251
▁Pattern	-11.4251
▁Activity	-11.4252
▁subtle	-11.4253
lly	-11.4254
▁locally	-11.4255
emi	-11.4256
▁lion	-11.4256
が	-11.4259
LD	-11.4262
▁Combined	-11.4262
▁erected	-11.4266
▁Huang	-11.4268
-25	-11.4268
▁frames	-11.427
▁arising	-11.427
/01	-11.4271
spec	-11.4271
▁Newsletter	-11.4273
▁bilateral	-11.4273
▁whereas	-11.4273
▁fails	-11.4274
▁Fig	-11.4279
cious	-11.4279
channel	-11.428
▁galaxy	-11.4284
CHI	-11.4286
▁thrown	-11.4287
▁logs	-11.4288
▁pose	-11.4291
▁divide	-11.4292
▁Survey	-11.4295
▁dynasty	-11.4295
▁Mor	-11.4295
▁disciples	-11.4297
▁fatigue	-11.4302
▁harsh	-11.4302
▁Assistant	-11.4303
▁inland	-11.4303
▁puts	-11.4306
vit	-11.4308
TRA	-11.4311
ages	-11.4311
▁Again	-11.4311
▁reign	-11.4312
▁Moncler	-11.4313
▁bottles	-11.4313
▁Making	-11.4316
-14	-11.4318
▁Includes	-11.4319
▁retained	-11.4319
EV	-11.432
▁bands	-11.432
▁LO	-11.432
▁explicitly	-11.432
▁independently	-11.4324
▁insist	-11.4324
▁ghost	-11.4325
▁methane	-11.4328
▁patience	-11.4328
▁07	-11.4329
▁Spot	-11.4331
▁wrapped	-11.4332
▁tanks	-11.4332
▁Final	-11.4336
▁cure	-11.4337
mount	-11.4338
▁ITS	-11.4339
▁stroke	-11.434
Fri	-11.434
▁incorporate	-11.434
▁fashionable	-11.4345
▁containers	-11.4345
▁exploring	-11.4346
▁positioned	-11.4347
-16	-11.435
▁salad	-11.435
▁alignment	-11.4352
rator	-11.4354
▁EC	-11.4355
▁rainfall	-11.4358
▁banner	-11.4358
ural	-11.4359
▁sponsor	-11.4361
▁skilled	-11.4364
raw	-11.4366
▁filename	-11.4366
IST	-11.437
▁62	-11.437
▁shake	-11.437
▁corn	-11.4373
▁marble	-11.4376
▁Scene	-11.4377
▁boards	-11.4378
sum	-11.4379
▁facilitating	-11.4379
▁meta	-11.4379
▁Pure	-11.4382
▁invasion	-11.4383
▁Hostel	-11.4383
▁liked	-11.4384
▁utilized	-11.4388
▁revisions	-11.439
nit	-11.4393
▁Strategy	-11.4397
▁carbide	-11.4397
MU	-11.4398
▁Sato	-11.44
▁independence	-11.4405
▁platinum	-11.4408
▁11.	-11.4416
▁flame	-11.4416
iving	-11.4417
▁minds	-11.442
ees	-11.442
taka	-11.4422
▁settle	-11.4423
▁Faculty	-11.4423
▁proposals	-11.4427
▁generous	-11.4427
▁hostels	-11.4436
nge	-11.4437
information	-11.4438
▁25,	-11.4438
▁Gorge	-11.4442
rink	-11.4444
▁FC	-11.4445
▁dramatically	-11.4446
ali	-11.4449
rou	-11.4449
erate	-11.4452
Read	-11.4457
eli	-11.4457
▁drift	-11.4462
▁spirits	-11.4462
▁generates	-11.4463
▁Florida	-11.4464
▁kidney	-11.4464
RR	-11.4466
▁concerts	-11.4469
bank	-11.4469
▁upward	-11.4469
▁PE	-11.4473
▁chips	-11.4474
▁24-	-11.4476
▁Meetup	-11.4476
text	-11.4477
try	-11.4479
ド	-11.4479
▁terrible	-11.4479
▁CH	-11.4479
▁Engage	-11.448
▁Sol	-11.4481
books	-11.4482
▁EXPRESS	-11.4483
bashi	-11.4485
▁UNIQLO	-11.4486
▁2009.	-11.4486
USE	-11.4487
▁Feng	-11.4491
/11	-11.4492
▁pearl	-11.4495
▁Cons	-11.4496
bble	-11.4496
▁wanting	-11.4498
▁Sport	-11.4499
▁charming	-11.45
▁lava	-11.45
▁meaningful	-11.4501
ivity	-11.4502
▁Chan	-11.4504
▁SSL	-11.4507
▁Pack	-11.4509
▁incidents	-11.4513
▁networking	-11.4517
commercial	-11.4517
ution	-11.452
▁introduces	-11.4521
▁Instrument	-11.4523
900	-11.4524
▁tomato	-11.4528
▁teen	-11.4529
▁Chicago	-11.4531
▁Together	-11.4531
▁fed	-11.4531
▁suspect	-11.4532
▁160	-11.4533
▁Industries	-11.4535
▁mercy	-11.4538
▁Lock	-11.4539
/8	-11.4541
▁suited	-11.4541
case	-11.4541
▁supplement	-11.4542
▁Ink	-11.4545
▁Reg	-11.4545
▁ju	-11.4546
▁anime	-11.4546
▁switches	-11.4548
▁pasta	-11.4548
▁robots	-11.4549
▁consulting	-11.455
lang	-11.455
▁incorrect	-11.455
▁Invest	-11.4551
▁shortly	-11.4552
▁navigator	-11.4553
ius	-11.4555
zy	-11.4559
dal	-11.4562
PORT	-11.4564
▁digit	-11.4565
wave	-11.4571
oriented	-11.4573
▁translate	-11.4574
▁eligible	-11.4576
▁Pat	-11.4576
cultural	-11.4576
▁preference	-11.4579
▁profound	-11.458
Search	-11.458
▁router	-11.4581
ison	-11.4583
▁gaming	-11.4584
▁personalized	-11.4587
▁Path	-11.4588
▁bay	-11.459
▁Inspector	-11.4591
▁Front	-11.4591
▁Still	-11.4595
present	-11.4596
▁26,	-11.4597
▁struck	-11.4599
▁wrap	-11.46
▁PU	-11.4605
▁Geo	-11.4607
▁13,	-11.4608
▁fold	-11.4611
▁impressed	-11.4612
▁Iranian	-11.462
▁deepen	-11.4621
▁Mary	-11.4622
▁Arbitration	-11.4625
▁LAN	-11.4627
TF	-11.4627
▁frozen	-11.4628
▁Topics	-11.4628
sch	-11.4629
▁Soft	-11.4631
Min	-11.4631
▁rays	-11.4631
TX	-11.4632
▁blossoms	-11.4634
▁;	-11.4636
▁Voice	-11.4636
▁asteroid	-11.4636
▁Theatre	-11.4636
Lo	-11.4638
▁theoretical	-11.464
▁neuro	-11.464
▁bucket	-11.4641
pel	-11.4641
▁Bracelet	-11.4641
▁Browse	-11.4643
▁ecological	-11.4644
shop	-11.4644
AF	-11.4644
▁accidentally	-11.4645
▁49	-11.4646
check	-11.4648
sea	-11.465
▁mothers	-11.465
bility	-11.4651
▁Yuan	-11.4652
▁fortune	-11.4652
▁pursuan	-11.4655
▁Ruby	-11.4656
UE	-11.4658
▁activation	-11.4659
Na	-11.4659
pir	-11.466
▁equally	-11.4663
▁develops	-11.4664
chin	-11.4666
▁airplane	-11.4671
▁85	-11.4671
▁actor	-11.4672
person	-11.4681
▁abstract	-11.4681
▁wheat	-11.4681
▁Ari	-11.4684
▁expense	-11.4687
▁Bri	-11.4687
▁leverage	-11.4688
▁urgent	-11.4692
▁Accessories	-11.4693
▁Jewish	-11.4693
▁chronic	-11.4693
Br	-11.4696
PATEK	-11.4696
▁storing	-11.4696
▁cinema	-11.4697
▁ch	-11.4697
▁Pra	-11.4698
▁beneath	-11.47
▁integrity	-11.47
▁Stay	-11.4701
▁Perform	-11.4703
▁revised	-11.4703
▁PHILIPPE	-11.4704
axis	-11.4705
▁edges	-11.4706
ister	-11.4707
▁champion	-11.4707
▁chairman	-11.471
▁14.	-11.471
web	-11.4712
▁boundaries	-11.4712
▁Maximum	-11.4715
▁machining	-11.4715
▁termination	-11.4716
Got	-11.4716
▁Eva	-11.4717
▁realm	-11.4722
▁lounge	-11.4723
cker	-11.4723
▁diplomatic	-11.4723
Link	-11.4724
edit	-11.4724
▁CF	-11.4726
▁Taichung	-11.4726
▁CREATIVE	-11.4727
▁KITCHEN	-11.4727
flex	-11.4727
▁Submit	-11.4727
▁Okayama	-11.4731
▁Fix	-11.4731
▁schematic	-11.4731
logy	-11.4733
▁minerals	-11.4735
▁killing	-11.4736
▁surprising	-11.4738
▁onlinesaleus	-11.4738
▁Days	-11.4741
▁Languages	-11.4743
▁mistakes	-11.4743
emon	-11.4745
▁Providing	-11.4746
hor	-11.4747
ELL	-11.4748
Now	-11.4749
▁shorter	-11.4749
ail	-11.4749
▁varied	-11.475
▁Designer	-11.4751
▁Puppet	-11.4753
▁interactions	-11.4756
lai	-11.4757
▁mileage	-11.4758
▁Luc	-11.476
▁corrupt	-11.476
▁Philippine	-11.476
▁weekly	-11.4761
Ko	-11.4764
▁Unity	-11.4764
▁Sydney	-11.4765
▁Foreigners	-11.4765
.2.	-11.4767
▁1991	-11.4768
▁Functional	-11.4768
▁variation	-11.4768
▁yard	-11.4768
▁LIABILITY	-11.4769
▁542	-11.4769
▁Wal	-11.477
trans	-11.477
▁coordinate	-11.4771
▁Christians	-11.4771
▁Ross	-11.4771
▁clarifying	-11.4775
▁2007,	-11.4775
▁William	-11.4776
▁celebrated	-11.478
VC	-11.4781
Wa	-11.4783
▁eternal	-11.4784
▁tub	-11.4791
ough	-11.4791
▁approx	-11.4792
▁Ever	-11.4793
▁shocking	-11.4797
phy	-11.4799
▁Grid	-11.48
effective	-11.4801
equ	-11.4803
▁endure	-11.4803
▁quote	-11.4805
count	-11.4806
odo	-11.4807
▁dawn	-11.4807
2017	-11.4808
▁horny	-11.4809
▁thy	-11.4809
dies	-11.4811
▁consume	-11.4811
▁angry	-11.4811
ifier	-11.4811
▁Sapporo	-11.4815
▁Everything	-11.4815
▁vol	-11.4815
▁examined	-11.4818
iwa	-11.4823
market	-11.4826
▁garlic	-11.483
kei	-11.4831
▁infant	-11.4833
▁Annunaki	-11.4834
▁SYSTEM	-11.4834
gas	-11.4835
weight	-11.4836
MX	-11.4837
▁missions	-11.4838
▁VR	-11.4842
▁›	-11.4843
▁Chain	-11.4846
burg	-11.4849
▁Intel	-11.4849
▁Integration	-11.4849
▁wholesale	-11.4851
▁fertilizer	-11.4852
▁Width	-11.4853
Panerai	-11.4853
▁tender	-11.4854
▁voices	-11.4854
▁[1	-11.4855
▁Perfect	-11.4856
▁Tube	-11.4856
▁Cast	-11.4857
▁Luxembourg	-11.4857
▁legislation	-11.4857
media	-11.4857
▁SICILIAN	-11.4861
▁travellers	-11.4861
▁lamp	-11.4862
▁Barcelona	-11.4865
▁2-3	-11.4868
mini	-11.4872
▁grows	-11.4872
▁Remote	-11.4872
oni	-11.4874
▁atmospheric	-11.4876
▁Prevention	-11.4877
char	-11.4877
HT	-11.4878
▁Between	-11.4878
used	-11.4879
ECT	-11.4879
iro	-11.488
lish	-11.4881
▁Mono	-11.4882
▁faint	-11.4882
▁deploy	-11.4882
▁photographers	-11.4882
▁prompted	-11.4882
▁Shibuya	-11.4884
▁exploration	-11.4884
rap	-11.4884
▁papers	-11.4885
▁Leader	-11.4886
ddy	-11.4886
▁Transportation	-11.4887
▁radical	-11.4888
ille	-11.489
▁chains	-11.489
▁inclusive	-11.4893
▁terrorist	-11.4895
▁Prediction	-11.4896
▁friction	-11.4896
▁Ladies	-11.4896
▁(10	-11.4898
▁pregnancy	-11.4899
▁downtown	-11.49
▁emphasize	-11.4901
rri	-11.4903
▁publicly	-11.4904
▁wires	-11.4905
▁NA	-11.4906
▁chef	-11.491
▁Resource	-11.4911
▁URLs	-11.4914
▁annually	-11.4916
▁Palm	-11.4917
▁NE	-11.4921
▁timeline	-11.4922
▁Bear	-11.4922
enti	-11.4922
▁adapted	-11.4925
▁existed	-11.4927
▁Problem	-11.4927
▁abuse	-11.4931
▁crafts	-11.4932
tani	-11.4935
▁Yuki	-11.4937
▁slider	-11.4937
▁Schaffhausen	-11.4938
▁UNESCO	-11.4938
▁favourite	-11.4939
▁insights	-11.4941
master	-11.4943
▁rewards	-11.4943
▁projection	-11.4946
▁Person	-11.4946
▁Structure	-11.4946
2.5	-11.4947
urge	-11.4947
▁Left	-11.4949
▁habit	-11.4949
▁rehabilitation	-11.495
▁1080	-11.4952
▁Jing	-11.4952
arian	-11.4953
カ	-11.4954
▁Gospel	-11.4954
▁Tele	-11.4958
▁tide	-11.496
Fu	-11.4962
▁Usually	-11.4964
▁lord	-11.4964
▁enemies	-11.4965
▁Apart	-11.4969
▁Permanent	-11.4973
▁78	-11.4974
los	-11.4975
▁demanding	-11.4977
pop	-11.4977
hotel	-11.4978
▁Accept	-11.498
▁Dear	-11.4984
▁thirty	-11.4985
▁adhere	-11.4985
▁duck	-11.4987
▁solved	-11.4991
▁Bath	-11.4992
▁Used	-11.4994
▁provinces	-11.4994
List	-11.4994
▁visualize	-11.4995
▁deadline	-11.4996
▁́	-11.4997
▁presses	-11.4998
▁Bin	-11.4999
Ta	-11.5
▁alphabet	-11.5001
▁limitations	-11.5001
▁JP	-11.5001
▁dirty	-11.5003
▁completing	-11.5004
▁portrait	-11.5005
▁YIDFF	-11.5008
▁café	-11.5008
▁astronomers	-11.501
▁classroom	-11.5012
rine	-11.5012
▁Mayor	-11.5014
▁calculations	-11.5014
▁jp	-11.5016
▁DPRK	-11.5016
▁unpleasant	-11.5016
▁rings	-11.5018
▁Performing	-11.5018
▁suspend	-11.5018
▁Cost	-11.5019
▁slave	-11.5019
▁batch	-11.502
▁correspondence	-11.5021
▁Poland	-11.5021
▁keyword	-11.5026
▁Wine	-11.5027
▁transformed	-11.503
dam	-11.5032
▁(+34	-11.5032
▁jam	-11.5033
▁tears	-11.5034
▁accordingly	-11.5035
▁artwork	-11.5035
▁Pot	-11.5036
▁Abstract	-11.5036
▁encouraging	-11.5036
▁isolated	-11.504
▁unnecessary	-11.5044
▁appearing	-11.5045
▁malfunction	-11.505
▁Jay	-11.505
▁bubble	-11.5052
▁Adding	-11.5052
jia	-11.5054
▁simultaneous	-11.5055
▁amateur	-11.5056
▁timetables	-11.5056
YO	-11.5056
RAM	-11.5057
▁scrap	-11.5057
▁recipes	-11.5057
▁30-	-11.5063
▁curtain	-11.5064
▁Legend	-11.5064
mber	-11.5064
direct	-11.5065
▁coral	-11.5065
▁admit	-11.5066
sight	-11.5069
▁dynamics	-11.5073
▁deletion	-11.5075
▁widespread	-11.5075
Sat	-11.5075
▁curious	-11.5079
▁Op	-11.5081
▁plasma	-11.5083
▁Measures	-11.5086
▁floors	-11.5087
Te	-11.5089
▁WE	-11.5089
▁XS	-11.5091
▁coil	-11.5093
*1	-11.5093
▁lobby	-11.5095
▁encryption	-11.5095
▁admitted	-11.5096
▁Money	-11.5097
▁eager	-11.5099
▁Tudor	-11.5099
▁lands	-11.51
▁dick	-11.5102
▁Enable	-11.5103
▁offerings	-11.5104
▁Shimo	-11.5104
▁Bed	-11.5106
▁BAUNAT	-11.5111
▁interval	-11.5113
▁ruins	-11.5115
▁environmentally	-11.5119
▁bandwidth	-11.5123
▁Writer	-11.5123
▁supermarket	-11.5123
▁Specify	-11.5124
▁durability	-11.5126
▁Inner	-11.5127
Part	-11.5127
▁denied	-11.5131
▁encrypted	-11.5131
▁stressed	-11.5132
▁Sanya	-11.5134
▁thrill	-11.5134
▁dressed	-11.5136
▁wipe	-11.5138
▁Ceremony	-11.5138
▁SHALL	-11.5138
mov	-11.5139
▁MJ	-11.5145
▁comet	-11.5148
▁Must	-11.5149
logical	-11.5149
▁organs	-11.5151
▁delegation	-11.5154
▁symposium	-11.5154
▁Renderpeople	-11.5154
▁makers	-11.5155
▁identifying	-11.5158
▁Catholic	-11.5158
▁pursuit	-11.5158
▁Operating	-11.516
▁confidentiality	-11.5161
▁Competition	-11.5162
▁Vulnerability	-11.5162
▁THAT	-11.5163
▁DI	-11.5164
layer	-11.5164
ern	-11.5165
post	-11.5165
▁SUCH	-11.5167
▁sunny	-11.5167
▁rip	-11.5172
▁Rate	-11.5172
▁orchestra	-11.5174
▁folding	-11.5176
▁SDL	-11.5176
.*	-11.5178
ago	-11.5179
rance	-11.5179
た	-11.5182
Ad	-11.5183
RM	-11.5185
▁evaluated	-11.5186
▁illegally	-11.5186
▁wafer	-11.5187
▁Partnership	-11.5187
uki	-11.5189
▁knife	-11.519
▁seminars	-11.519
▁Lanka	-11.5191
▁3,000	-11.5193
▁infections	-11.5194
mei	-11.5194
▁Kanji	-11.5194
elli	-11.5197
▁Cur	-11.5198
▁Emei	-11.5198
▁Quartz	-11.5206
▁suppress	-11.5207
▁ge	-11.5208
18~	-11.5209
▁28,	-11.5212
▁dome	-11.5213
cial	-11.5214
▁PT	-11.5217
track	-11.522
arm	-11.5222
▁Tungsten	-11.5222
▁tennis	-11.5222
▁treaty	-11.5225
▁Scholarship	-11.5226
▁sincerely	-11.5229
▁musicians	-11.5229
▁uninstall	-11.523
▁maneuver	-11.5234
▁Kii	-11.5235
lect	-11.5236
▁wage	-11.5237
▁Visa	-11.5238
▁subsequently	-11.524
except	-11.5241
▁writes	-11.5242
▁finds	-11.5243
wash	-11.5247
▁offline	-11.5248
▁Disney	-11.525
▁naked	-11.525
▁variants	-11.5253
▁mist	-11.5254
▁Guilin	-11.5255
ffer	-11.5256
fix	-11.5256
▁fiction	-11.5258
▁Developer	-11.5261
▁physically	-11.5261
▁toxicity	-11.5263
▁Jewel	-11.5264
▁Contents	-11.5267
▁shed	-11.5268
▁attempted	-11.527
▁conjunction	-11.527
▁conflicts	-11.5277
video	-11.5277
▁muscles	-11.5281
▁fraction	-11.5282
▁breaks	-11.5283
ACE	-11.5283
English	-11.5285
▁fallen	-11.5287
▁Kar	-11.5288
▁trap	-11.5292
▁specialised	-11.5292
▁cord	-11.5292
▁rank	-11.5292
▁brightness	-11.5293
▁suicide	-11.5294
▁interference	-11.5294
▁Documentation	-11.5296
▁conform	-11.5296
▁stuffed	-11.5297
▁shareholders	-11.5299
GN	-11.53
▁bind	-11.53
▁frequencies	-11.5302
▁expressions	-11.5303
▁CSS	-11.5304
ä	-11.5306
Size	-11.531
▁winners	-11.5311
Cartier	-11.5313
▁Klocwork	-11.5314
▁Generally	-11.5315
▁Actually	-11.5316
/4	-11.5317
▁locals	-11.5321
▁Kumamoto	-11.5323
▁submission	-11.5324
▁Scan	-11.5324
▁directories	-11.5326
▁maritime	-11.5326
Add	-11.5331
Cosplay	-11.5333
ying	-11.5335
▁tiger	-11.5335
▁tomatoes	-11.5335
▁HR	-11.5335
RK	-11.5336
▁Commerce	-11.5337
▁Gan	-11.534
▁vo	-11.5343
▁cub	-11.5347
▁echo	-11.5347
EST	-11.5347
▁Photography	-11.5348
▁prevents	-11.5351
▁Agriculture	-11.5351
▁baggage	-11.5351
ona	-11.5351
Da	-11.5352
▁Harry	-11.5354
▁Nor	-11.5354
Chi	-11.5355
▁DATA	-11.5358
AU	-11.536
▁tubes	-11.5366
roid	-11.5366
▁Kamakura	-11.5367
▁forums	-11.5369
law	-11.5372
2016	-11.5374
▁Desktop	-11.5375
▁extends	-11.5378
▁handles	-11.5378
▁14,	-11.5379
▁mess	-11.5379
▁swirl	-11.5379
ロ	-11.5379
▁RAM	-11.538
▁22,	-11.5383
▁tan	-11.5383
的	-11.5383
▁exchanged	-11.5385
▁deployed	-11.5386
tur	-11.5386
▁hazards	-11.5387
▁duplicate	-11.5387
▁Rice	-11.5389
▁RI	-11.539
▁volcano	-11.5391
▁imply	-11.5396
month	-11.5402
▁bezel	-11.5402
tum	-11.5403
▁Trading	-11.5404
▁courage	-11.5407
▁MB	-11.5409
▁Anniversary	-11.5412
▁Pla	-11.5413
▁buses	-11.5413
nate	-11.5414
▁tu	-11.5417
▁disciple	-11.5418
▁molecule	-11.5418
▁Venezuela	-11.542
▁regards	-11.5422
▁misuse	-11.5423
▁memorable	-11.5424
▁protest	-11.5425
▁Honda	-11.5426
▁shrimp	-11.5428
▁oxide	-11.5429
dian	-11.543
lift	-11.5431
▁Push	-11.5433
▁spotted	-11.5436
▁Pad	-11.5438
▁discounts	-11.5438
▁Fall	-11.544
▁faithful	-11.544
▁11:00	-11.5441
▁organisations	-11.5442
▁shutter	-11.5445
dict	-11.5447
green	-11.5448
▁basin	-11.5448
▁16:30-20	-11.5448
▁rotate	-11.5449
▁Alex	-11.5451
▁FX	-11.5452
▁motivation	-11.5452
10-13:30	-11.5453
▁ね	-11.5453
wind	-11.5455
unnamed	-11.5457
▁uploading	-11.5458
▁wings	-11.5459
▁jewellery	-11.5461
Bu	-11.5462
▁horn	-11.5463
▁Hub	-11.5467
▁dozens	-11.547
▁Hiroshi	-11.5472
5)	-11.5473
▁lacquer	-11.5473
▁wore	-11.5473
▁steal	-11.5473
Is	-11.5473
▁descriptions	-11.5474
▁Pump	-11.5474
▁enjoyable	-11.5474
▁1983	-11.5476
▁spoken	-11.5477
▁brake	-11.5478
▁triggered	-11.5479
▁flavour	-11.5481
▁Rio	-11.5481
:20	-11.5482
rib	-11.5483
▁laugh	-11.5483
▁Movie	-11.5484
▁waist	-11.5484
▁Solid	-11.5484
▁Tim	-11.5485
▁Want	-11.5485
▁void	-11.5487
▁vendor	-11.5488
▁fastest	-11.5488
▁Fri	-11.549
.3.	-11.5491
▁FE	-11.5493
▁hospitality	-11.5494
▁synthetic	-11.5494
▁(2017	-11.5497
▁vivid	-11.5498
ONE	-11.55
▁Netflix	-11.5502
▁exam	-11.5503
▁obligations	-11.5504
▁Feb	-11.5505
▁rep	-11.5505
where	-11.5506
▁POMWA	-11.5506
▁Happy	-11.5506
▁cattle	-11.5506
Wind	-11.5506
▁Campus	-11.5509
▁stickers	-11.551
▁disorder	-11.551
▁NATO	-11.551
▁Cheap	-11.5517
▁presenting	-11.5518
▁compromise	-11.5518
▁reject	-11.5519
▁museums	-11.5522
▁Different	-11.5522
lder	-11.5523
▁Ginza	-11.5523
IWC	-11.5524
cep	-11.5525
▁survivors	-11.5525
▁Bad	-11.5526
Properties	-11.5526
▁Egyptian	-11.5527
▁immense	-11.5528
cel	-11.553
▁miracle	-11.5531
▁fr	-11.5531
▁27,	-11.5531
hou	-11.5532
ifying	-11.5533
▁Architecture	-11.5535
▁Branch	-11.5535
▁Jeju	-11.5535
▁Shenzhen	-11.5537
▁Preview	-11.5537
▁sling	-11.5542
▁balls	-11.5543
HS	-11.5544
▁Phase	-11.5547
▁forgotten	-11.5547
▁Knowledge	-11.5549
sale	-11.5549
Investigative	-11.5551
▁forecasts	-11.5552
▁Monte	-11.5553
Up	-11.5553
▁Norway	-11.5556
▁12.	-11.5558
▁blame	-11.5559
▁parks	-11.5561
▁Soviet	-11.5564
than	-11.5564
▁spell	-11.5565
▁ruler	-11.5566
charge	-11.5566
eller	-11.5567
▁drilling	-11.5567
▁Instructions	-11.5568
▁Sh	-11.5571
▁COMPUTER	-11.5572
▁procurement	-11.5572
▁retro	-11.5574
▁Thani	-11.5574
▁chances	-11.5575
▁enclosure	-11.5576
▁attendees	-11.5576
▁Carbon	-11.5579
▁recipient	-11.558
LF	-11.5582
rium	-11.5583
▁coastline	-11.5584
▁Gre	-11.5584
▁transmitting	-11.5587
▁dirt	-11.5587
▁shifting	-11.5587
gia	-11.5587
▁Beyond	-11.5588
zaki	-11.559
▁Pressing	-11.559
▁adapter	-11.5591
▁passionately	-11.5592
current	-11.5592
▁handy	-11.5593
▁promotional	-11.5598
▁theories	-11.56
vation	-11.56
▁authenticity	-11.56
▁deleting	-11.5601
/3	-11.5601
▁freeze	-11.5604
▁2003.	-11.5604
▁clinic	-11.5605
▁Victoria	-11.5605
▁Dialog	-11.5606
▁Ed	-11.5607
▁steering	-11.5609
▁fluorescence	-11.5609
▁purchases	-11.5612
▁23,	-11.5614
Case	-11.5619
▁Term	-11.5621
gram	-11.5624
▁improves	-11.5627
▁grounds	-11.5631
▁IPS	-11.5632
dir	-11.5632
▁limiting	-11.5632
▁watchmaker	-11.5632
▁Tama	-11.5632
▁Bat	-11.5634
temp	-11.5636
mid	-11.5637
▁Script	-11.5637
▁interfaces	-11.5637
▁funny	-11.5639
RF	-11.5639
2015	-11.5641
▁RA	-11.5641
tun	-11.5642
bul	-11.5642
RISING	-11.5643
▁beside	-11.5643
▁workflow	-11.5646
▁px	-11.5646
▁balcony	-11.5647
▁dive	-11.5652
▁readily	-11.5652
▁heated	-11.5654
Date	-11.5654
▁traditions	-11.5657
profit	-11.5657
▁coupon	-11.5658
story	-11.5661
▁Projects	-11.5661
▁Diego	-11.5664
▁infrared	-11.5665
▁Consulting	-11.5665
▁bending	-11.5668
▁torn	-11.5669
▁`	-11.567
rong	-11.567
▁bases	-11.5671
▁Electro	-11.5672
▁Patent	-11.5673
▁expire	-11.5675
▁Hara	-11.5675
sub	-11.5677
▁iconic	-11.5678
saving	-11.5678
▁Nagano	-11.5679
▁interpret	-11.5682
▁hypo	-11.5682
▁lightweight	-11.5682
▁Governor	-11.5684
▁Holder	-11.5688
▁LNG	-11.5688
▁tolerance	-11.5689
▁Kawasaki	-11.5689
▁lined	-11.5689
Qu	-11.569
suit	-11.5692
▁promised	-11.5692
rel	-11.5692
▁prescribed	-11.5693
▁handed	-11.5693
▁varies	-11.5694
lets	-11.5694
trac	-11.5696
▁2004,	-11.5697
▁wh	-11.57
TL	-11.5701
▁consistently	-11.5702
▁stadium	-11.5705
emb	-11.5706
matsu	-11.5707
▁Half	-11.5708
▁courtyard	-11.571
HC	-11.571
/5	-11.5713
▁surveys	-11.5715
▁rated	-11.5718
▁founding	-11.5719
▁Grant	-11.572
▁Doing	-11.5722
▁dropping	-11.5722
▁estimates	-11.5722
INE	-11.5723
PDF	-11.5725
▁invention	-11.5726
▁lately	-11.5728
FL	-11.573
▁dare	-11.5732
▁Rather	-11.5732
nam	-11.5733
▁350	-11.5735
▁Technavio	-11.5735
▁injured	-11.5735
▁(8	-11.5736
▁determines	-11.5737
▁cylinder	-11.5737
▁retreat	-11.5737
▁investing	-11.5738
▁hint	-11.5739
▁5:	-11.5741
▁waterproof	-11.5743
▁bitter	-11.5747
▁democracy	-11.5747
dol	-11.5748
▁neso	-11.5748
▁stake	-11.5748
▁knee	-11.5749
▁sec	-11.5749
▁donation	-11.5752
▁FreeBSD	-11.5753
▁Ref	-11.5754
▁ISS	-11.5757
▁mainstream	-11.5757
▁handmade	-11.5758
AZ	-11.576
▁threw	-11.576
▁backed	-11.576
▁dialect	-11.5761
▁MM	-11.5761
ITA	-11.5761
▁acceleration	-11.5764
▁legacy	-11.5764
▁Created	-11.5765
▁ceramics	-11.5767
▁align	-11.5767
national	-11.5772
▁accepting	-11.5773
▁Pin	-11.5774
▁masses	-11.5775
▁stays	-11.5775
▁peel	-11.5776
▁fixing	-11.5777
▁Lan	-11.5777
▁anger	-11.5777
▁CT	-11.5778
▁conversations	-11.5778
ATA	-11.5779
iva	-11.578
▁malfunctioned	-11.5783
▁concentrate	-11.5784
▁camps	-11.5785
▁pie	-11.5786
asse	-11.5787
▁Capacity	-11.5789
▁repository	-11.5789
▁guardian	-11.5792
▁Fax	-11.5793
▁relaxation	-11.5793
▁KIND	-11.5794
▁wines	-11.5795
▁0.5	-11.5795
xia	-11.5795
▁SI	-11.5796
ended	-11.5797
outs	-11.58
▁13.	-11.5801
ATE	-11.5801
▁Moto	-11.5801
▁inhibit	-11.5802
▁baseball	-11.5804
▁behaviour	-11.5806
▁Tro	-11.5806
▁wavelength	-11.5807
▁torque	-11.5807
▁contributes	-11.5808
▁Insurance	-11.5811
lee	-11.5812
▁anticipate	-11.5814
▁genre	-11.5815
▁98	-11.5819
▁titanium	-11.5819
▁Outline	-11.5819
fr	-11.582
▁Limit	-11.5821
▁Trac	-11.5822
▁Aug	-11.5822
▁wondering	-11.5823
▁Daedalus	-11.5823
▁employer	-11.5824
▁rub	-11.5826
tec	-11.5827
▁scripting	-11.583
▁Secure	-11.5831
▁hence	-11.5832
▁Cafe	-11.5832
▁reactor	-11.5839
ulating	-11.5841
stick	-11.5843
++	-11.5844
▁trunk	-11.5845
▁0.0	-11.5846
▁recognise	-11.5848
kata	-11.5849
▁Ceramic	-11.5849
▁cal	-11.585
▁devoted	-11.5851
▁Character	-11.5851
▁Cyprus	-11.5853
▁DS	-11.5855
▁11:	-11.5855
dium	-11.5856
▁confer	-11.5856
▁nerve	-11.5857
▁Ask	-11.5858
▁Hanoi	-11.5858
▁Tiger	-11.5858
gmail	-11.5859
▁immigration	-11.5862
itter	-11.5865
anda	-11.5868
▁nutrition	-11.587
▁terrain	-11.587
▁wound	-11.5874
▁invested	-11.5876
▁churches	-11.5877
▁Simple	-11.5877
▁Himeji	-11.5879
▁Cable	-11.5882
Solid	-11.5883
▁loves	-11.5885
▁invoice	-11.5887
▁UAE	-11.5887
▁ranges	-11.5889
▁bull	-11.5891
nta	-11.5892
▁auction	-11.5892
▁Taking	-11.5894
▁Build	-11.5894
World	-11.5896
▁Ancient	-11.5896
limit	-11.5897
▁convinced	-11.5897
▁regulator	-11.5898
alia	-11.5899
▁ware	-11.5899
▁parcel	-11.5901
gel	-11.5902
▁tumor	-11.5902
rav	-11.5905
▁Types	-11.5907
▁Blood	-11.5909
▁mobility	-11.5909
▁indicators	-11.5909
▁spark	-11.591
care	-11.5911
▁scar	-11.5913
▁repaired	-11.5913
▁Wizards	-11.5913
▁Bluetooth	-11.5917
▁amplifier	-11.5917
▁maximize	-11.5921
▁gateway	-11.5924
▁bump	-11.5925
▁Spec	-11.5925
▁Tsugaru	-11.5926
phon	-11.5928
▁colon	-11.5928
▁proxy	-11.593
▁WhatsApp	-11.593
▁rival	-11.593
▁AVI	-11.5933
..."	-11.5933
▁monks	-11.5933
YAMA	-11.5934
soft	-11.5935
▁Protect	-11.5936
▁nationwide	-11.5939
DER	-11.5939
▁combinations	-11.5942
▁displaying	-11.5943
▁trillion	-11.5943
▁63	-11.5945
VM	-11.5946
PER	-11.5946
▁resume	-11.5947
process	-11.5949
▁Publications	-11.5952
▁opposed	-11.5956
white	-11.5956
▁Snap	-11.5957
▁Rating	-11.5957
▁resident	-11.5957
▁2005,	-11.5958
PH	-11.596
▁2006,	-11.5963
▁bin	-11.5963
▁RT	-11.5964
purpose	-11.5965
▁<<	-11.5967
▁analyzed	-11.5968
▁fotologue	-11.5969
▁NEW	-11.597
tian	-11.5971
gna	-11.5971
ト	-11.5972
▁gaining	-11.5977
vertical	-11.5977
▁Ice	-11.5977
keeping	-11.5978
▁Aftertime	-11.5978
▁Define	-11.598
▁Sightseeing	-11.5982
▁fabrics	-11.5983
▁florist	-11.5983
▁attain	-11.5986
▁Normal	-11.5987
▁Israeli	-11.5988
ination	-11.5988
▁Definition	-11.599
▁delight	-11.599
▁seedlings	-11.599
▁Ireland	-11.599
▁timestamp	-11.5991
▁Guidelines	-11.5991
▁loving	-11.5991
▁painter	-11.5991
▁Kura	-11.5993
▁reflecting	-11.5993
)?	-11.5994
▁downloadable	-11.5994
oms	-11.5995
▁promising	-11.5995
▁Airlines	-11.5996
▁headed	-11.5998
uous	-11.5999
▁tableware	-11.5999
▁Balance	-11.6
RON	-11.6
lv	-11.6001
▁PD	-11.6004
▁jade	-11.6004
-13	-11.6006
8)	-11.6007
▁1.0	-11.6007
▁obtaining	-11.6007
▁specifies	-11.6008
lig	-11.6008
▁realization	-11.6008
▁appliances	-11.6009
▁Lao	-11.6012
responsibilities	-11.6012
zer	-11.6014
▁Added	-11.6016
▁Honolulu	-11.6016
▁Kuro	-11.6017
▁tile	-11.6018
▁dim	-11.6021
▁urge	-11.6022
data	-11.6028
▁Perpetual	-11.6029
▁threatening	-11.6029
▁bun	-11.6032
▁packet	-11.6033
▁virtue	-11.6034
▁screens	-11.6034
▁powers	-11.6035
ski	-11.6035
▁psychological	-11.6038
▁yeast	-11.6038
▁roadside	-11.6039
static	-11.6041
▁57	-11.6042
▁Xin	-11.6043
connect	-11.6043
▁rational	-11.6044
nami	-11.6045
▁amongst	-11.6045
HDL	-11.6046
▁fascinating	-11.6047
Ki	-11.6049
frame	-11.605
Estate	-11.6051
▁promotes	-11.6051
chemical	-11.6052
▁travelling	-11.6052
▁Vehicle	-11.6053
▁welcoming	-11.6055
▁aggressive	-11.6056
×	-11.6056
▁Jakarta	-11.606
▁drought	-11.606
▁Copper	-11.6062
▁antenna	-11.6064
▁floods	-11.6065
▁FL	-11.6069
▁diesel	-11.6069
▁relate	-11.6069
▁PV	-11.6072
▁Yangshuo	-11.6073
▁beta	-11.6075
▁associate	-11.6076
▁chill	-11.6077
▁improper	-11.6077
just	-11.6078
▁receptor	-11.608
▁Bodyguard	-11.6081
Yuki	-11.6085
▁hoped	-11.6087
----------------	-11.6088
▁DISCLAIMER	-11.609
▁harder	-11.609
▁polio	-11.609
▁UV	-11.6091
▁Toshi	-11.6092
scribe	-11.6094
▁unlock	-11.6094
-22	-11.6094
▁imperial	-11.6094
[1]	-11.6096
ache	-11.6096
▁printable	-11.6099
▁shoots	-11.61
▁disorders	-11.61
kon	-11.61
makers	-11.6102
▁Fra	-11.6104
▁indirectly	-11.6105
dot	-11.6105
▁PayPal	-11.6105
omwa	-11.6106
encies	-11.6107
▁viewpoint	-11.611
Bi	-11.611
▁Bird	-11.6111
HUBLOT	-11.6112
▁Crown	-11.6112
Christmas	-11.6113
mari	-11.6115
▁compressed	-11.612
▁abnormal	-11.612
rent	-11.6123
▁Concept	-11.6126
▁bro	-11.6129
▁Casino	-11.6134
▁ct	-11.6134
▁intensive	-11.6136
▁atomic	-11.6137
▁kernel	-11.6138
▁complain	-11.614
Some	-11.6143
ici	-11.6145
bing	-11.6147
▁Wash	-11.6147
▁RESULTS	-11.6149
こ	-11.6151
▁Cyber	-11.6153
▁emphasized	-11.6153
▁Controller	-11.6154
root	-11.6154
▁Indonesian	-11.6156
mann	-11.6157
▁negotiation	-11.6158
▁lineup	-11.6159
▁glow	-11.6159
▁Shizuoka	-11.616
etsu	-11.6162
chang	-11.6163
▁detergent	-11.6164
▁refrigerator	-11.6164
▁Ryo	-11.6166
▁Premier	-11.6167
▁justice	-11.6167
▁complexity	-11.6169
▁accelerometer	-11.6169
PD	-11.617
▁Dist	-11.6172
uga	-11.6172
▁thorough	-11.6174
Box	-11.6174
▁attracting	-11.6175
flower	-11.6176
▁tooth	-11.6178
cid	-11.6179
▁Pick	-11.6179
horizontal	-11.6179
▁1.1	-11.618
▁icons	-11.618
▁Jean	-11.6181
マ	-11.6182
▁textile	-11.6182
▁trapped	-11.6183
▁SIP	-11.6187
Windows	-11.6188
▁Transformation	-11.6188
▁BI	-11.619
▁Organic	-11.6191
▁paradise	-11.6191
▁3.5	-11.6192
▁Animation	-11.6195
き	-11.6195
▁conditioner	-11.6195
nie	-11.6196
tary	-11.6196
▁Bao	-11.6198
▁dominant	-11.62
▁apple	-11.6201
nar	-11.6202
▁Dating	-11.6203
▁ham	-11.6203
▁promises	-11.6203
▁Motherfuckers	-11.6204
▁pavilion	-11.6204
AX	-11.6205
▁Asked	-11.6205
▁ditch	-11.6205
▁stolen	-11.6205
▁Drop	-11.6206
TB	-11.6207
▁phrases	-11.6207
▁innovations	-11.6208
▁SkyDesk	-11.6209
▁transit	-11.6209
▁addressing	-11.6212
▁syntax	-11.6213
▁essay	-11.6213
▁seeks	-11.6213
▁Opt	-11.6218
Wi	-11.6226
PF	-11.6227
GL	-11.623
▁besides	-11.6232
▁donated	-11.6232
▁Bracelets	-11.6233
▁faculty	-11.6235
Tu	-11.6237
▁differently	-11.6239
▁Boy	-11.6242
▁targeting	-11.6243
▁equation	-11.6244
▁keywords	-11.6244
▁140	-11.6248
▁VPN	-11.6248
▁presets	-11.6249
▁flare	-11.6249
▁bypass	-11.625
▁Consider	-11.625
▁algorithms	-11.6253
▁Metropolitan	-11.6253
▁widget	-11.6253
coming	-11.6253
last	-11.6254
2012	-11.6254
▁sour	-11.6254
▁shallow	-11.6255
▁Autumn	-11.6255
▁Chuo	-11.6257
▁embrace	-11.6257
▁rises	-11.6259
▁evolve	-11.6261
self	-11.6263
▁0.1	-11.6264
▁Wen	-11.6264
▁san	-11.6265
▁nitrogen	-11.6266
▁Issues	-11.6268
▁behave	-11.6268
plo	-11.6269
uda	-11.6272
▁||	-11.6274
▁unprecedented	-11.6275
▁24,	-11.6275
round	-11.6277
▁CS	-11.6278
▁Bangladesh	-11.6278
▁kimono	-11.6279
▁MediaWiki	-11.628
clear	-11.6281
Should	-11.6281
▁Getting	-11.6281
▁Often	-11.6282
Log	-11.6283
▁Craft	-11.6284
▁Consultation	-11.6284
▁SUV	-11.6288
die	-11.6293
▁posture	-11.6294
flu	-11.6296
GR	-11.6297
trip	-11.6297
BVLGARI	-11.6297
▁RatingEye	-11.6297
aire	-11.6299
▁ingredient	-11.63
▁hose	-11.6303
▁lofty	-11.6303
▁deem	-11.6305
ock	-11.6306
▁manga	-11.6306
Li	-11.6307
▁nylon	-11.6311
▁Ash	-11.6311
▁Conduct	-11.6317
mag	-11.6318
MT	-11.632
▁Fer	-11.632
vic	-11.632
▁lotus	-11.6321
LK	-11.6321
plan	-11.6323
days	-11.6324
▁swiss	-11.6324
▁Suzuki	-11.6324
▁1950	-11.6326
ô	-11.6328
▁Cook	-11.6329
watch	-11.6333
▁Schedule	-11.6333
▁Trip	-11.6338
duction	-11.6338
Book	-11.6339
▁Woman	-11.6339
▁signify	-11.6341
▁engaging	-11.6342
▁pedestrian	-11.6342
Taiwan	-11.6343
▁loans	-11.6344
▁Sync	-11.6346
▁SITES	-11.6348
▁outputs	-11.6349
▁owns	-11.635
yard	-11.6351
]]	-11.6352
GAMES	-11.6353
▁Console	-11.6356
▁CL	-11.6356
/7	-11.6358
▁Symposium	-11.636
▁infinite	-11.636
▁tackle	-11.636
▁SW	-11.636
▁embed	-11.636
▁plea	-11.6362
wiki	-11.6364
▁Focus	-11.6364
▁Bel	-11.6365
▁traces	-11.6365
▁56	-11.6367
FR	-11.6372
yen	-11.6372
pack	-11.6373
▁prefix	-11.6374
タ	-11.6377
è	-11.6377
▁connects	-11.6378
▁Tre	-11.6378
▁Iceland	-11.6378
ello	-11.638
▁overwhelming	-11.638
▁Zu	-11.638
▁Solo	-11.6381
7)	-11.6385
berry	-11.6385
▁poles	-11.6385
ily	-11.6386
▁OBTAIN	-11.6387
WD	-11.6387
▁Generation	-11.6387
▁courts	-11.6392
▁defines	-11.6399
▁correlation	-11.64
▁institutional	-11.6401
▁jo	-11.6401
▁Beer	-11.6402
▁VIA	-11.6403
▁canvas	-11.6405
大	-11.6409
▁boutique	-11.6409
▁Bla	-11.641
▁abundance	-11.6415
▁Hence	-11.6417
▁Infrastructure	-11.6418
▁dignity	-11.6418
▁Resident	-11.6418
mis	-11.642
▁Boston	-11.6427
▁punch	-11.6431
り	-11.6432
▁dig	-11.6432
▁Olympics	-11.6432
▁synthesis	-11.6433
▁strings	-11.6433
▁ir	-11.6434
BT	-11.6436
▁VIOLATION	-11.6436
mai	-11.6436
▁Clo	-11.6437
▁episode	-11.6437
▁Popular	-11.6441
▁Updates	-11.6441
▁bunch	-11.6441
winding	-11.6444
▁locked	-11.6444
▁Def	-11.6448
▁sanctions	-11.6448
change	-11.6449
▁sail	-11.6449
▁Yunnan	-11.6449
▁decorative	-11.645
▁bidding	-11.6451
▁(7	-11.6451
▁17,	-11.6451
▁detector	-11.6451
▁SSI	-11.6452
▁Pangaea	-11.6454
▁Universal	-11.6454
▁Cuba	-11.6456
▁90%	-11.6459
▁sponge	-11.6459
▁Macedonian	-11.6459
▁Stage	-11.646
▁overlooking	-11.6461
itive	-11.6463
▁exterior	-11.6463
▁BoysForcingM	-11.6463
KB	-11.6465
phi	-11.6469
れ	-11.6472
▁inch	-11.6473
▁compliant	-11.6474
gami	-11.6475
They	-11.6476
▁1985	-11.6477
agi	-11.6481
▁craftsmanship	-11.6481
Your	-11.6482
▁Prague	-11.6482
aged	-11.6484
JA	-11.6486
▁Winston	-11.6486
▁concentrated	-11.6487
config	-11.6487
▁sticky	-11.6488
▁IR	-11.6488
▁landscapes	-11.6489
elle	-11.649
▁traveled	-11.649
▁saint	-11.6491
Welcome	-11.6492
▁Backpack	-11.6493
CON	-11.6493
standing	-11.6494
jun	-11.6495
▁Propert	-11.6497
▁incense	-11.65
▁cats	-11.6501
▁Au	-11.6502
duct	-11.6503
フ	-11.6504
▁mere	-11.6505
dori	-11.6507
rack	-11.6507
thy	-11.6508
▁technician	-11.6509
ako	-11.651
rb	-11.651
▁crimes	-11.6511
ounce	-11.6512
▁Orchestra	-11.6513
▁chick	-11.6514
▁bonds	-11.6514
▁Tong	-11.6516
▁1987	-11.6516
▁Token	-11.652
▁ranked	-11.652
▁1.3	-11.6521
▁passionate	-11.6522
▁Hell	-11.6522
▁touched	-11.6524
▁Employee	-11.6527
awa	-11.6528
▁PST	-11.6529
▁crab	-11.6529
lac	-11.6529
▁fitted	-11.6531
▁Literature	-11.6531
▁appetite	-11.6531
▁disadvantage	-11.6531
looking	-11.6532
▁Shape	-11.6532
▁Chord	-11.6533
action	-11.6535
▁conditioning	-11.6536
▁gym	-11.6536
▁LORD	-11.6536
▁volcanoes	-11.6536
▁Bezel	-11.6536
▁Tempo	-11.6539
▁Argentina	-11.654
▁denial	-11.6541
▁Disclaimer	-11.6545
▁Smooth	-11.655
▁chaos	-11.6551
▁67	-11.6553
▁1988	-11.6558
▁USER	-11.6558
▁PIGUET	-11.6559
▁Volume	-11.6559
▁sorted	-11.6559
▁pipeline	-11.656
▁Label	-11.656
first	-11.6561
▁breed	-11.6561
▁Agile	-11.6561
▁Detail	-11.6563
bei	-11.6565
▁medal	-11.6566
▁Robot	-11.6566
▁Authority	-11.6567
▁stating	-11.6568
▁2008.	-11.657
▁Response	-11.6571
tou	-11.6573
safe	-11.6576
▁magical	-11.6579
aste	-11.658
▁lane	-11.658
▁Certainly	-11.6581
▁radius	-11.6582
mmer	-11.6583
▁superb	-11.6585
▁68	-11.6586
▁Charles	-11.6587
mul	-11.6587
▁finest	-11.6588
▁Cause	-11.659
▁autonomous	-11.6591
▁Jews	-11.6591
▁(4)	-11.6591
▁Arita	-11.6594
section	-11.6594
▁masterpiece	-11.6595
▁wing	-11.6596
▁Revolution	-11.6596
▁lighter	-11.6601
ground	-11.6601
▁NY	-11.6602
▁jumped	-11.6605
▁Had	-11.6608
Ni	-11.6609
▁consolidated	-11.661
▁80%	-11.661
▁enthusiasm	-11.6614
▁Collect	-11.6616
▁preparations	-11.6617
▁Abu	-11.6617
▁carriers	-11.6617
▁civilian	-11.6618
titu	-11.6619
chen	-11.6619
ception	-11.662
cheng	-11.6623
▁overflow	-11.6624
para	-11.6625
▁Pet	-11.6628
▁Dor	-11.6629
▁Kon	-11.6629
▁Shinonome	-11.6632
▁sperm	-11.6633
▁viewers	-11.6637
▁sweets	-11.6638
▁striking	-11.6641
▁Membership	-11.6642
/15	-11.6643
▁88	-11.6646
poli	-11.6647
▁66	-11.6648
SF	-11.6648
▁opponent	-11.665
course	-11.6654
▁oral	-11.6655
▁Emergency	-11.6655
▁liberal	-11.6655
▁latitude	-11.6656
▁painful	-11.6656
▁woke	-11.666
▁Competitors	-11.666
▁pursuing	-11.666
▁divine	-11.666
▁Reservations	-11.6661
▁formerly	-11.6661
▁fusion	-11.6664
▁Observatory	-11.6664
▁Slide	-11.6665
coin	-11.6666
imo	-11.6666
mir	-11.6666
tunes	-11.6668
▁arriving	-11.6669
▁facial	-11.6669
▁dressing	-11.667
▁Weather	-11.6671
▁dozen	-11.6673
▁Waytostay	-11.6674
▁Give	-11.6674
▁Background	-11.6674
▁intends	-11.6678
▁Sil	-11.6679
▁Ali	-11.6679
eau	-11.668
▁positioning	-11.6683
...).	-11.6683
▁Islam	-11.6684
▁Books	-11.6686
pil	-11.6686
▁Mercedes	-11.6687
▁rubbing	-11.6688
▁overlap	-11.6688
▁balloon	-11.6688
-01	-11.6692
▁MC	-11.6694
wl	-11.6695
LU	-11.6696
▁plateau	-11.6696
▁Thomas	-11.6697
▁Fort	-11.67
pul	-11.6701
▁sixth	-11.6701
▁Cer	-11.6702
1.1	-11.6704
▁landmark	-11.6704
▁Graphic	-11.6706
▁Safari	-11.6706
base	-11.6706
▁Pope	-11.6707
Dual	-11.6708
ility	-11.6708
▁soy	-11.6709
ssa	-11.6711
▁traders	-11.6711
▁pub	-11.6713
▁Worldwide	-11.6715
本	-11.6715
▁86	-11.672
▁pumps	-11.672
▁Overseas	-11.672
▁Relations	-11.672
/19	-11.6722
▁WILL	-11.6722
▁Disc	-11.6723
▁schemes	-11.6724
▁composite	-11.6725
claim	-11.6726
▁Bronze	-11.6729
▁hell	-11.673
asis	-11.6731
▁tune	-11.6732
▁correspond	-11.6733
▁calcium	-11.6734
▁Yamagata	-11.6734
home	-11.6735
▁Whatever	-11.6737
▁rolled	-11.6738
▁Finland	-11.6739
▁Anyone	-11.6739
lessly	-11.674
▁Ran	-11.6741
▁Ei	-11.6742
▁monitors	-11.6742
▁substitute	-11.6743
▁defects	-11.6744
▁reviewed	-11.6747
scope	-11.6748
▁Shen	-11.6749
▁Layer	-11.6753
▁letting	-11.6753
hard	-11.6753
▁rendering	-11.6753
▁Hair	-11.6754
▁Protocol	-11.6757
▁comparing	-11.6757
▁NYK	-11.676
EAR	-11.6762
lie	-11.6762
▁acute	-11.6765
▁filed	-11.6766
▁Jerusalem	-11.6766
▁hunting	-11.6767
▁stir	-11.6769
▁curves	-11.6771
IMI	-11.6772
▁NEWS	-11.6776
▁wherever	-11.6779
mble	-11.6779
▁Rental	-11.6781
▁Thy	-11.6781
▁triple	-11.6782
▁Symbol	-11.6782
▁socket	-11.6783
▁alley	-11.6783
▁scent	-11.6785
▁conferences	-11.6786
▁leap	-11.6786
▁competitiveness	-11.6786
▁passport	-11.6788
▁ranks	-11.6791
reference	-11.6791
pac	-11.6792
{	-11.6793
▁inclusion	-11.6795
HE	-11.6795
▁screenshot	-11.6796
▁Pop	-11.6798
▁assumes	-11.6799
▁exploit	-11.68
▁honored	-11.6801
▁peer	-11.6802
▁Jam	-11.6802
▁Ping	-11.6802
▁Flow	-11.6802
▁speeds	-11.6803
▁Pal	-11.6806
▁Qui	-11.6807
▁hyperlink	-11.6809
▁Alien	-11.681
▁cellular	-11.681
ONG	-11.6812
▁DM	-11.6812
▁intuitive	-11.6813
▁burned	-11.6815
▁Feature	-11.6815
▁closest	-11.6816
▁hardened	-11.6816
▁coloring	-11.6816
▁HIV	-11.6817
▁2007.	-11.6818
▁preservation	-11.6818
▁32-	-11.682
▁Outlet	-11.682
▁oils	-11.6822
▁mon	-11.6823
▁corrosion	-11.6823
▁bass	-11.6824
8.00	-11.6826
▁Iron	-11.6826
▁gains	-11.6827
▁vegetation	-11.6827
▁Coupon	-11.6827
Thank	-11.683
▁isolation	-11.6832
▁biomass	-11.6837
▁Controls	-11.6837
▁keypad	-11.6838
▁distinguished	-11.6839
▁Mie	-11.6841
ん	-11.6841
▁absorption	-11.6841
▁symbolic	-11.6842
▁onion	-11.6842
▁poetry	-11.6842
▁EMP	-11.6843
▁Programme	-11.6843
人	-11.6846
▁interfere	-11.6846
▁secrets	-11.6849
▁PID	-11.685
▁organizing	-11.6852
▁Monitor	-11.6853
▁Math	-11.6854
▁FR	-11.6854
▁Partners	-11.6855
▁vibrant	-11.6856
▁Concert	-11.6856
▁Fin	-11.6856
▁glue	-11.6857
▁Taiwanese	-11.6858
▁skip	-11.6858
▁prop	-11.6859
MV	-11.6861
▁sightings	-11.6861
▁statues	-11.6867
rad	-11.6867
vari	-11.6867
▁lasting	-11.6867
▁boundary	-11.6869
▁sho	-11.6869
▁RF	-11.687
▁snack	-11.6872
▁raft	-11.6873
▁habitat	-11.6873
▁HI	-11.6874
▁Wire	-11.6874
▁rejected	-11.6876
▁enrich	-11.6876
▁partnerships	-11.6877
▁Translation	-11.688
2014	-11.6881
▁consultant	-11.6881
Product	-11.6882
▁disturb	-11.6883
Sensors	-11.6884
▁IE	-11.6886
▁stopping	-11.6887
▁DB	-11.6888
▁comb	-11.6889
▁centered	-11.6891
▁Sk	-11.6891
▁prospects	-11.6892
▁oscillator	-11.6893
▁STO	-11.6895
▁definitions	-11.6896
▁fur	-11.6897
▁twist	-11.6897
naka	-11.6898
rp	-11.6899
May	-11.6899
▁sealed	-11.6901
▁sells	-11.6902
▁Determines	-11.6902
▁bush	-11.6904
▁hits	-11.6905
▁countryside	-11.6906
▁Lounge	-11.6908
▁Break	-11.6909
▁nursing	-11.6912
▁versatile	-11.6912
▁Integrated	-11.6912
▁Tomo	-11.6916
each	-11.6917
▁compress	-11.6917
▁Kami	-11.6918
▁GNU	-11.6919
▁acted	-11.692
NP	-11.6921
▁quit	-11.6924
standard	-11.6925
1.5	-11.6926
▁venues	-11.6926
▁Cri	-11.6926
▁infringing	-11.6926
年	-11.6926
▁Alaska	-11.6927
▁flooded	-11.6928
▁Feel	-11.6929
▁Rich	-11.693
electric	-11.6932
▁permissions	-11.6933
DN	-11.6933
▁Purchase	-11.6934
▁dwarf	-11.6936
▁Always	-11.6937
▁Ethernet	-11.6941
]:	-11.6943
▁compiler	-11.6944
▁lid	-11.6945
4.00	-11.6946
▁unified	-11.6949
▁fireworks	-11.695
rig	-11.6953
▁EV	-11.6955
▁foil	-11.6956
Th	-11.6956
▁validity	-11.6958
mel	-11.6958
▁solving	-11.696
2013	-11.696
2]	-11.6961
▁flock	-11.6961
▁IV	-11.6962
▁mega	-11.6963
▁hospitals	-11.6964
▁integer	-11.6964
▁GP	-11.6966
after	-11.697
▁pathway	-11.6971
▁lush	-11.6972
▁Supply	-11.6974
う	-11.6974
▁Carrera	-11.6974
▁Nao	-11.6974
▁VIP	-11.6975
▁initiated	-11.6979
▁Zo	-11.6979
uka	-11.6981
▁outcomes	-11.6982
▁shoe	-11.6983
▁SEA	-11.6983
lysis	-11.6985
▁implied	-11.6988
▁depart	-11.6991
▁Doctor	-11.6991
cross	-11.6992
RG	-11.6992
▁defect	-11.6992
▁approached	-11.6993
▁mAh	-11.6993
▁designation	-11.6994
0.5	-11.6996
▁biodiversity	-11.6998
▁confortable	-11.6998
▁Kansai	-11.7003
▁relay	-11.7003
▁backward	-11.7004
END	-11.7006
▁exceeds	-11.7006
▁surcharges	-11.7007
cco	-11.7008
▁Xu	-11.7009
▁diabetes	-11.7012
▁diagnostic	-11.7012
▁sorts	-11.7012
▁Interview	-11.7014
▁corporation	-11.7017
▁renovation	-11.7017
▁Players	-11.7018
iber	-11.7018
owned	-11.702
▁progressive	-11.7022
▁norm	-11.7023
▁antique	-11.7025
▁Interest	-11.7025
▁insulation	-11.7027
▁Colour	-11.7027
▁Promoters	-11.7028
▁Manage	-11.7031
▁CRM	-11.7032
▁offshore	-11.7033
▁5%	-11.7034
▁Guan	-11.7034
yaku	-11.7035
▁therapeutic	-11.7036
will	-11.7037
▁1-2	-11.7039
KE	-11.7039
▁competitors	-11.704
▁Chair	-11.704
▁Bring	-11.7042
▁persist	-11.7043
▁UI	-11.7043
▁neighbors	-11.7048
Gen	-11.7051
▁revise	-11.7051
▁ja	-11.7052
▁Tickets	-11.7052
▁oceans	-11.7053
▁magazines	-11.7053
dar	-11.7055
▁freight	-11.7055
▁inputs	-11.7055
▁crane	-11.706
▁puppet	-11.706
iga	-11.7061
▁assembled	-11.7063
▁meditation	-11.7065
▁gasoline	-11.7065
nto	-11.7066
▁infringement	-11.7067
▁audiences	-11.7068
▁exports	-11.7069
▁hy	-11.7069
▁declaration	-11.707
▁speaks	-11.7072
▁Listen	-11.7073
▁corridor	-11.7074
月	-11.7074
▁alternate	-11.7075
nova	-11.7076
▁Notification	-11.7078
erie	-11.7078
▁bore	-11.7081
▁ti	-11.7082
cyc	-11.7082
agon	-11.7083
Out	-11.7086
▁VAT	-11.7087
▁pets	-11.7089
Keeping	-11.7092
▁clone	-11.7092
▁vacancies	-11.7094
CF	-11.7097
pad	-11.7097
▁Chiang	-11.7097
▁1979	-11.7097
stock	-11.7098
▁stairs	-11.7099
▁trash	-11.7099
▁Interface	-11.7099
▁CHI	-11.7099
▁shining	-11.71
▁electron	-11.7101
▁Macro	-11.7102
Hoimi	-11.7102
▁panoramic	-11.7103
コ	-11.7103
▁interviews	-11.7104
▁Il	-11.7104
▁admire	-11.7104
▁workout	-11.7106
1.00	-11.7108
▁arrest	-11.711
▁asphalt	-11.7113
:45	-11.7114
▁respected	-11.7114
▁feeding	-11.7114
▁Gang	-11.7115
▁boast	-11.7115
dor	-11.7116
▁hydraulic	-11.7118
▁ce	-11.7119
▁politicians	-11.7121
▁cranes	-11.7123
▁defective	-11.7124
▁Kenya	-11.7125
eria	-11.7126
▁tiles	-11.7127
▁Kabuki	-11.7127
▁Leaders	-11.7128
left	-11.7132
▁sleeve	-11.7132
▁pricing	-11.7133
▁extracted	-11.7135
Back	-11.7135
▁accompany	-11.7136
Click	-11.7138
▁Recommended	-11.7139
▁Cancer	-11.7139
install	-11.714
▁Franc	-11.7141
rma	-11.7141
block	-11.7142
▁Dress	-11.7142
rom	-11.7143
▁households	-11.7146
▁Offers	-11.7147
▁idol	-11.7147
around	-11.7148
lide	-11.7148
▁Parliament	-11.7152
▁recycled	-11.7152
▁vocal	-11.7152
▁accomplished	-11.7152
▁Holland	-11.7152
▁ribbon	-11.7157
▁worthy	-11.7161
▁Gift	-11.7162
▁renewed	-11.7164
▁performs	-11.7167
▁exhibits	-11.7167
enter	-11.7167
▁anchor	-11.7168
ext	-11.717
▁WITH	-11.7171
▁advocate	-11.7171
▁Kiev	-11.7172
▁Register	-11.7173
uted	-11.7173
▁occupied	-11.7174
▁1984	-11.7175
gaku	-11.7177
▁promotions	-11.7179
▁54	-11.7181
▁Tar	-11.7183
say	-11.7184
Front	-11.7185
grad	-11.7185
▁practicing	-11.7186
1.0	-11.7186
▁Historical	-11.7186
▁Chef	-11.7186
▁(2015	-11.7186
▁dying	-11.7187
ono	-11.7191
▁myth	-11.7191
▁mate	-11.7192
▁gang	-11.7193
omo	-11.7194
gyo	-11.7195
▁stance	-11.7195
▁council	-11.7195
▁trick	-11.7196
▁pane	-11.7196
▁distortion	-11.7197
5.6	-11.7197
▁Taisha	-11.7198
▁elected	-11.72
▁wallets	-11.72
▁voucher	-11.72
inate	-11.7201
▁SAME	-11.7201
▁souvenir	-11.7203
▁Warming	-11.7203
Sha	-11.7203
▁fate	-11.7206
▁renovated	-11.721
▁Mind	-11.7212
▁Drawing	-11.7215
▁fountain	-11.7215
▁fame	-11.7217
▁Kra	-11.7219
▁transferring	-11.722
▁Immediately	-11.722
※	-11.7224
▁scream	-11.7224
MF	-11.7226
▁Clan	-11.7228
▁syndrome	-11.723
▁Scheme	-11.723
tus	-11.7232
normal	-11.7234
IES	-11.7234
Trans	-11.7237
▁march	-11.7238
therapy	-11.7239
▁merge	-11.7239
▁AK	-11.724
▁corrupted	-11.7242
▁316	-11.7243
bal	-11.7244
▁PP	-11.7244
р	-11.7244
▁advancement	-11.7245
▁Moving	-11.7247
sky	-11.7247
▁researcher	-11.7248
ked	-11.7249
▁Daniel	-11.7249
▁Kay	-11.725
▁intermediate	-11.7254
▁salvation	-11.7254
product	-11.7255
▁Buyer	-11.7256
▁battles	-11.7256
West	-11.7257
▁manages	-11.7257
fit	-11.7258
taro	-11.7259
▁projected	-11.726
▁Admin	-11.726
aid	-11.7262
:12	-11.7263
▁Residence	-11.7264
oil	-11.7264
▁Tutorial	-11.7264
▁fa	-11.7265
ides	-11.7266
▁depths	-11.7268
▁mandatory	-11.7269
tine	-11.7269
wang	-11.7269
▁Say	-11.727
▁macros	-11.7273
▁designations	-11.7274
MR	-11.7274
▁Wireless	-11.7275
-21	-11.7276
doc	-11.7277
▁Ecliptic	-11.7279
▁Policies	-11.7279
▁pants	-11.728
▁purity	-11.728
TU	-11.728
▁contractor	-11.7282
South	-11.7283
reach	-11.7283
▁AG	-11.7284
▁builds	-11.7285
▁swallow	-11.7288
▁ALICE	-11.7289
Step	-11.7289
oxy	-11.729
zai	-11.729
osa	-11.7293
▁preaching	-11.7295
▁Rec	-11.7295
▁furnace	-11.7298
▁Jacket	-11.73
▁cuts	-11.73
▁tremendous	-11.73
eno	-11.7301
▁Bull	-11.7303
▁tribe	-11.7305
▁breeding	-11.7306
▁elephant	-11.7308
game	-11.7309
▁Reduction	-11.731
▁boots	-11.7316
▁candle	-11.7316
kaku	-11.7316
▁Mining	-11.7317
▁Commercial	-11.7318
UB	-11.7318
▁Loop	-11.7319
▁16,	-11.7322
▁harbor	-11.7323
▁Hor	-11.7324
▁Hz	-11.7324
▁collaborate	-11.7324
▁Poker	-11.7324
▁Jack	-11.7325
spiring	-11.7328
▁societies	-11.7328
▁Sur	-11.7329
▁potato	-11.7329
▁Hack	-11.733
tag	-11.7331
▁reminder	-11.7332
▁Forbidden	-11.7333
▁releasing	-11.7333
sca	-11.7334
▁provincial	-11.7336
lian	-11.7336
▁MY	-11.7337
▁Ok	-11.7337
there	-11.7338
circ	-11.734
ale	-11.734
info	-11.7341
▁iPod	-11.7343
▁Syrian	-11.7343
eye	-11.7348
▁Phoenix	-11.7348
▁bite	-11.735
▁cultivated	-11.735
▁[2	-11.7352
.4.	-11.7352
▁feudal	-11.7352
▁poet	-11.7353
Ga	-11.7354
▁Unless	-11.7354
▁render	-11.7357
▁royalty	-11.7359
▁Frequently	-11.7362
▁Saga	-11.7363
▁Rooms	-11.7366
▁gotten	-11.7366
▁LI	-11.7369
▁Archive	-11.7369
▁(16	-11.737
pli	-11.7371
▁draws	-11.7371
lemont	-11.7372
Single	-11.7373
▁Neither	-11.7373
▁Laser	-11.7373
▁cleanse	-11.7373
crypt	-11.7374
▁Intelligence	-11.7382
▁dock	-11.7382
▁Americans	-11.7383
▁leisurely	-11.7384
▁vent	-11.7386
▁Spi	-11.7387
▁stretched	-11.7387
usr	-11.7387
▁Facilities	-11.7387
▁exceeding	-11.7389
▁Cave	-11.7391
Sports	-11.7392
▁Nepal	-11.7393
▁Beauty	-11.7393
▁MAR	-11.7393
▁milestone	-11.7393
▁verified	-11.7393
▁remembered	-11.7396
gata	-11.7397
▁Proxy	-11.7397
▁Ram	-11.7399
▁Oracle	-11.7402
▁garbage	-11.7402
▁distress	-11.7402
Web	-11.7402
▁municipal	-11.7405
▁inscription	-11.7407
▁warmth	-11.7409
▁stalls	-11.7409
▁id	-11.7409
hibi	-11.741
add	-11.7411
▁harness	-11.7412
bat	-11.7413
▁Discover	-11.7413
got	-11.7413
pho	-11.7415
▁storms	-11.7416
Download	-11.7416
オ	-11.7417
▁Built	-11.7417
▁bat	-11.7417
▁coordinates	-11.7417
▁rotating	-11.7418
▁voting	-11.7418
▁Jiu	-11.7421
naga	-11.7422
▁HOLIC	-11.7422
▁thou	-11.7423
▁Parties	-11.7425
sar	-11.7427
▁sincere	-11.743
▁Score	-11.743
▁psycho	-11.7432
か	-11.7432
▁dealt	-11.7432
▁AirWatch	-11.7433
▁villagers	-11.7433
tti	-11.7437
▁clarity	-11.7437
ANCE	-11.7439
▁rolls	-11.744
▁Discussions	-11.7443
Game	-11.7443
▁ICT	-11.7445
pond	-11.7445
▁relatives	-11.7447
▁reforms	-11.7448
clo	-11.7452
▁OFFERING	-11.7452
▁translator	-11.7452
▁Venue	-11.7452
▁describing	-11.7453
▁undertake	-11.7454
member	-11.7455
▁Certificate	-11.7457
▁elaborate	-11.7457
▁daemon	-11.7457
▁pointer	-11.7458
office	-11.7458
radi	-11.7459
▁SERVICE	-11.7459
qing	-11.746
yun	-11.7461
shift	-11.7462
▁EmEditor	-11.7462
▁incarnation	-11.7462
▁Anime	-11.7462
▁drying	-11.7463
▁Philippe	-11.7465
▁(0	-11.7466
▁temp	-11.7467
▁dip	-11.7467
enza	-11.7468
▁Leave	-11.7468
▁Physical	-11.7469
▁bugs	-11.747
wall	-11.7471
▁consensus	-11.7472
▁Automation	-11.7472
▁19,	-11.7472
▁hiding	-11.7473
▁nest	-11.7473
▁Geneva	-11.7474
ema	-11.7474
▁1986	-11.7477
▁Tao	-11.7478
▁pat	-11.748
▁Photograph	-11.7481
▁aggregated	-11.7482
▁coefficient	-11.7483
▁dragging	-11.7483
oro	-11.7484
▁Past	-11.7484
▁clue	-11.7485
ener	-11.7488
rab	-11.7489
make	-11.7489
BD	-11.749
▁Noah	-11.7491
▁PL	-11.7492
▁Practice	-11.7492
▁Takeda	-11.7494
gang	-11.7494
WS	-11.7497
▁Gun	-11.7499
▁Sweet	-11.7502
pal	-11.7502
▁assault	-11.7502
▁mad	-11.7503
▁lenses	-11.7503
udge	-11.7504
▁MUST	-11.7504
▁maker	-11.7506
accelerometer	-11.7507
gest	-11.7507
▁dishwasher	-11.7507
VR	-11.751
▁chic	-11.751
▁subsidiaries	-11.7512
▁cheer	-11.7512
sheet	-11.7513
tang	-11.7514
▁neighbor	-11.7514
▁Tracking	-11.7517
▁Mizu	-11.7518
▁horizontally	-11.7518
assi	-11.752
lev	-11.7521
▁corners	-11.7521
▁Photoshop	-11.7524
cover	-11.7527
▁TRAKTOR	-11.7527
urg	-11.7529
talk	-11.7532
▁preliminary	-11.7532
▁Models	-11.7532
▁generic	-11.7533
▁Managing	-11.7533
▁asleep	-11.7537
▁tailor	-11.7538
▁regulate	-11.7539
wel	-11.7542
▁avoided	-11.7542
Service	-11.7542
dera	-11.7542
▁irregular	-11.7542
▁shrink	-11.7542
▁imposed	-11.7543
photo	-11.7545
other	-11.7545
▁farms	-11.7549
▁captures	-11.755
▁Ticket	-11.7551
▁Detective	-11.7552
120	-11.7554
▁treasures	-11.7556
▁Scenic	-11.7557
▁observatory	-11.7557
hol	-11.756
▁Austria	-11.7562
▁Pyongyang	-11.7562
▁tasting	-11.7562
▁switched	-11.7563
FX	-11.7563
▁Cold	-11.7563
Per	-11.7564
inu	-11.7566
▁inflammatory	-11.7567
▁Shira	-11.7567
▁publishers	-11.7567
▁Bldg	-11.7567
▁Participants	-11.7569
▁athletes	-11.7571
▁Normally	-11.7572
lum	-11.7573
▁scores	-11.7576
▁Cisco	-11.7578
ARI	-11.7578
2010	-11.7578
atic	-11.7579
▁Compared	-11.7581
▁populations	-11.7585
▁realizing	-11.7585
uan	-11.7587
▁coconut	-11.7588
▁responding	-11.7588
▁excluding	-11.7588
▁DELIVERED	-11.7593
▁mosaic	-11.7593
▁functioning	-11.7595
▁tends	-11.7595
une	-11.7597
WI	-11.7599
▁documented	-11.76
▁slices	-11.7602
▁WS	-11.7602
BM	-11.7602
▁Ana	-11.7605
▁Years	-11.7606
ré	-11.7607
▁pillars	-11.7608
▁wrapper	-11.7609
▁socio	-11.7612
▁Nik	-11.7615
▁{	-11.7615
▁underwater	-11.7618
rey	-11.7619
▁illnesses	-11.762
uge	-11.7621
▁pizza	-11.7623
▁engraved	-11.7628
▁tobacco	-11.7628
▁95	-11.7629
▁failures	-11.763
▁Purse	-11.763
model	-11.7634
▁Medi	-11.7635
▁souvenirs	-11.7636
▁adaptation	-11.7639
▁Empress	-11.7639
▁sal	-11.764
▁curry	-11.7641
▁Lunch	-11.7642
▁struggling	-11.7644
▁supervision	-11.7644
▁bounce	-11.7644
▁SN	-11.7646
graphic	-11.7648
phil	-11.7648
▁Joseph	-11.7649
▁Admission	-11.765
▁brutally	-11.7652
pur	-11.7658
▁ferry	-11.7661
▁Bang	-11.7663
▁auctions	-11.7663
[...]
