<unk>	0
<s>	0
</s>	0
、	-2.84263
▁	-3.01696
。	-3.37016
の	-3.71231
は	-4.18795
が	-4.57678
を	-4.58104
に	-4.70271
と	-4.76461
で	-4.9664
,	-5.17106
)	-5.1924
.	-5.22105
・	-5.34625
:	-5.48747
(	-5.54387
」	-5.6814
や	-5.78319
から	-5.85731
です	-5.91268
し	-5.98648
する	-6.10091
「	-6.11871
も	-6.1549
▁-	-6.28093
▁(	-6.33262
1	-6.34016
-	-6.35948
年	-6.39977
した	-6.40082
"	-6.42237
2	-6.42522
ます	-6.45113
か	-6.51777
な	-6.58268
月	-6.58629
この	-6.59978
▁|	-6.61243
には	-6.61643
日	-6.62457
s	-6.63241
?	-6.63686
3	-6.6443
では	-6.65543
します	-6.66693
/	-6.67507
る	-6.6884
して	-6.68902
た	-6.69085
として	-6.70561
その	-6.73661
!	-6.77437
である	-6.78245
▁この	-6.81723
された	-6.85992
または	-6.86849
]	-6.88318
▁:	-6.93381
て	-6.93419
および	-6.93604
によって	-6.99585
5	-7.02103
4	-7.08193
など	-7.09824
、「	-7.10358
▁[	-7.10981
ました	-7.1318
している	-7.15038
▁「	-7.1754
ス	-7.18189
という	-7.20751
について	-7.21838
▁また	-7.22252
への	-7.28004
しています	-7.29559
人	-7.30166
6	-7.32937
ている	-7.33088
10	-7.33493
しました	-7.37031
7	-7.37326
より	-7.40762
い	-7.42127
ています	-7.42551
S	-7.43613
C	-7.43653
8	-7.45663
される	-7.46013
大	-7.47384
すべての	-7.48175
情報	-7.48177
的な	-7.49738
による	-7.50076
り	-7.50445
へ	-7.50467
こと	-7.50626
あなたの	-7.50951
A	-7.52411
まで	-7.52606
D	-7.53101
サービス	-7.54638
▁しかし	-7.55767
され	-7.58077
により	-7.58952
のために	-7.59175
日本	-7.59207
ように	-7.59732
私は	-7.6007
ト	-7.60351
ために	-7.61444
時	-7.63282
時間	-7.63913
す	-7.64205
▁これは	-7.644
com	-7.64486
G	-7.64578
のための	-7.64772
性	-7.65336
されます	-7.65498
B	-7.65847
つの	-7.65871
そして	-7.66244
ない	-7.66339
ア	-7.66828
ファイル	-7.6686
9	-7.66954
機能	-7.6713
ク	-7.67602
新しい	-7.69062
に関する	-7.69364
お	-7.706
的	-7.70989
することができます	-7.71125
中	-7.71642
があります	-7.72164
X	-7.7223
山	-7.73055
ら	-7.73158
されている	-7.74466
ラ	-7.74555
▁/	-7.75254
本	-7.75307
及び	-7.75529
く	-7.75765
プログラム	-7.7649
T	-7.76589
水	-7.7659
ので	-7.77511
多くの	-7.78353
▁–	-7.78387
F	-7.78857
であり	-7.78896
分	-7.79171
方法	-7.79505
_	-7.80211
さ	-7.80691
化	-7.81684
でも	-7.8254
リ	-7.82722
m	-7.83243
設定	-7.84834
▁私は	-7.85302
また	-7.85405
がある	-7.8553
年に	-7.8624
▁"	-7.86316
P	-7.86419
だ	-7.86529
場合	-7.87507
国	-7.8805
一	-7.88289
M	-7.88664
システム	-7.88787
用	-7.88792
▁S	-7.88802
12	-7.88956
▁そして	-7.89068
ル	-7.89306
者	-7.89785
などの	-7.89817
できます	-7.89938
他の	-7.90231
ー	-7.91044
にも	-7.91646
ため	-7.91795
技術	-7.9199
における	-7.92237
後	-7.92543
き	-7.92603
それは	-7.92754
▁1	-7.93233
数	-7.93349
にある	-7.93607
ことを	-7.93692
環境	-7.94046
...	-7.95111
において	-7.95505
11	-7.95993
った	-7.96178
ことができます	-7.96565
y	-7.96668
できる	-7.96692
つ	-7.97124
タ	-7.97414
非常に	-7.9787
データ	-7.98435
上	-7.98554
されています	-7.98912
ある	-7.99672
H	-8.00472
み	-8.00687
ド	-8.0082
K	-8.01264
約	-8.01276
製品	-8.01529
カ	-8.02212
マ	-8.02462
名	-8.03243
18	-8.036
20	-8.03617
▁2	-8.03882
ナ	-8.04558
これらの	-8.05017
E	-8.05481
って	-8.05483
管理	-8.06191
▁それは	-8.06475
30	-8.06516
彼の	-8.06964
使用	-8.07155
もの	-8.07556
d	-8.08178
法	-8.08942
研究	-8.09182
ダウンロード	-8.09827
e	-8.10699
ロ	-8.1088
高	-8.10996
での	-8.11237
N	-8.11443
R	-8.12022
手	-8.12023
V	-8.12762
イ	-8.1296
開発	-8.13378
ズ	-8.13633
いる	-8.13802
それ	-8.13872
Cookie	-8.14562
う	-8.14681
からの	-8.14836
回	-8.15162
c	-8.15857
▁その	-8.16072
活動	-8.16676
行	-8.16912
'	-8.16941
L	-8.17101
▁A	-8.17324
er	-8.17487
シ	-8.17868
コ	-8.18551
a	-8.18583
表示	-8.18826
等	-8.19077
私の	-8.19363
するために	-8.19739
g	-8.20015
写真	-8.20028
いた	-8.20399
場所	-8.2057
上の	-8.20611
|	-8.21061
市	-8.21209
人の	-8.21266
W	-8.21269
力	-8.2175
中国	-8.22036
時に	-8.22117
問題	-8.22191
だった	-8.22509
変更	-8.23155
地域	-8.23155
サイト	-8.23318
になります	-8.23325
レ	-8.2353
前	-8.23741
▁B	-8.24099
▁C	-8.2423
バー	-8.24821
色	-8.25121
点	-8.25398
▁3	-8.2542
ジ	-8.26461
世界	-8.26519
企業	-8.26528
p	-8.26608
あなたが	-8.26641
見	-8.27086
処理	-8.27534
19	-8.27632
地	-8.27709
オ	-8.2802
大きな	-8.28447
いくつかの	-8.2847
不	-8.29068
&	-8.29197
彼は	-8.29643
15	-8.29699
のような	-8.2973
グループ	-8.29809
ム	-8.29828
)」	-8.29974
ま	-8.29983
ご	-8.30098
第	-8.30336
ダ	-8.30548
前に	-8.30705
プロジェクト	-8.30875
家	-8.30894
内	-8.31271
に対する	-8.313
型	-8.31442
バ	-8.31686
でした	-8.32099
的に	-8.32874
になる	-8.33219
これは	-8.33336
されました	-8.33379
に対して	-8.33446
フ	-8.33476
会	-8.33504
o	-8.33757
各	-8.3391
ドル	-8.34217
t	-8.34417
物	-8.34417
線	-8.34554
元	-8.35139
▁P	-8.35335
事業	-8.35361
を含む	-8.3547
;	-8.35715
金	-8.35762
います	-8.35869
国際	-8.3587
なく	-8.3588
川	-8.36276
ません	-8.36352
ン	-8.36484
n	-8.36493
よう	-8.36702
ミ	-8.36713
道	-8.36783
ing	-8.37209
ユーザー	-8.37585
i	-8.37817
新	-8.38204
子	-8.38573
ください	-8.38688
度	-8.38889
生	-8.3903
海	-8.39259
のみ	-8.39279
ホテル	-8.39707
の中で	-8.39772
すると	-8.39939
でしょう	-8.39975
イン	-8.40028
~	-8.40167
体	-8.40269
16	-8.40404
外	-8.4041
エ	-8.4065
サ	-8.40986
号	-8.41263
事	-8.41344
長	-8.4147
大学	-8.41496
出	-8.41674
▁M	-8.417
下	-8.4178
▁ローマ	-8.4184
』	-8.42564
のある	-8.42667
ページ	-8.42847
自分の	-8.43185
を選択し	-8.43222
してください	-8.43419
場合は	-8.43438
J	-8.43535
デザイン	-8.43608
あなたは	-8.43681
▁H	-8.43711
様々な	-8.43913
ことができる	-8.43962
リー	-8.4404
計画	-8.44299
ブ	-8.44528
間	-8.44616
al	-8.44692
関係	-8.45087
イベント	-8.45205
文化	-8.45232
ゲーム	-8.45561
in	-8.45663
だけ	-8.45873
▁No	-8.45892
旅行	-8.46101
会社	-8.46396
を使用して	-8.46524
島	-8.46722
すること	-8.47405
モデル	-8.47495
最も	-8.47714
店	-8.4814
部	-8.48227
ための	-8.48359
キ	-8.48407
画像	-8.48764
販売	-8.48986
良い	-8.49132
のように	-8.49151
センター	-8.4934
車	-8.49394
だけでなく	-8.50047
ん	-8.50155
▁F	-8.50395
心	-8.50535
め	-8.50651
利用	-8.50809
光	-8.51048
上で	-8.51246
方	-8.51366
▁これらの	-8.51472
ウ	-8.51473
を持つ	-8.51807
目	-8.5183
ネットワーク	-8.51853
en	-8.52646
ではない	-8.5265
ことは	-8.52839
となる	-8.53147
ビジネス	-8.53471
都市	-8.53503
米国	-8.53777
ニ	-8.53796
田	-8.54334
面	-8.54839
惑星	-8.54898
社会	-8.55055
よりも	-8.55177
今	-8.55195
チ	-8.55546
値	-8.55609
彼らの	-8.5562
条件	-8.55639
▁D	-8.55711
特に	-8.56103
プ	-8.56339
版	-8.56391
ッ	-8.56447
r	-8.5647
デ	-8.56616
学	-8.56619
状況	-8.56628
v	-8.567
or	-8.56882
神	-8.57078
小	-8.57413
社	-8.57497
わ	-8.57651
マン	-8.57674
ね	-8.5775
場	-8.57778
口	-8.57792
なら	-8.57939
何	-8.57944
それを	-8.58152
南	-8.58169
州	-8.58207
私たちの	-8.58222
x	-8.58455
保証	-8.58455
無	-8.58677
ビデオ	-8.58685
I	-8.58691
ネ	-8.5879
石	-8.58854
同じ	-8.58953
▁あなたは	-8.59175
▁T	-8.59517
っ	-8.59898
経済	-8.60094
·	-8.60253
ノ	-8.60263
あ	-8.6027
こ	-8.60293
メ	-8.60311
所	-8.60527
ツール	-8.60577
▁E	-8.60926
▁ゆんフリー写真素材集	-8.61117
編集	-8.61171
オプション	-8.61512
100	-8.61667
】	-8.61675
接続	-8.61851
があり	-8.61879
要素	-8.6196
我々は	-8.62016
レベル	-8.62132
気	-8.62424
b	-8.62614
花	-8.62643
内の	-8.62877
させる	-8.62917
テ	-8.63025
観光	-8.63179
パ	-8.63419
よ	-8.63438
私たちは	-8.63478
f	-8.63705
をタップします	-8.63707
『	-8.6373
別の	-8.6388
それが	-8.64017
とき	-8.64061
Z	-8.64111
円	-8.64182
▁R	-8.64387
エネルギー	-8.64593
O	-8.64779
転送	-8.64893
しない	-8.64945
14	-8.65063
先	-8.6519
さらに	-8.6555
風	-8.65614
ディ	-8.65677
機	-8.65702
on	-8.65744
ことが	-8.65864
ていた	-8.66236
生産	-8.66238
h	-8.66508
品	-8.66512
▁G	-8.66609
アプリケーション	-8.66728
13	-8.66778
市場	-8.66785
21	-8.66825
Y	-8.67005
50	-8.67087
もあります	-8.67515
三	-8.67931
ソフトウェア	-8.68104
船	-8.68223
チーム	-8.68264
同	-8.68421
現在	-8.68434
サイズ	-8.68438
24	-8.68532
すべて	-8.68599
ガ	-8.6889
選択	-8.69005
商品	-8.69097
彼女の	-8.69179
▁我々は	-8.69321
であった	-8.69457
教育	-8.69534
彼らは	-8.69589
ed	-8.69701
人が	-8.6976
熱	-8.6976
17	-8.69967
リンク	-8.70324
▁・・・	-8.70403
を行う	-8.70481
デバイス	-8.70516
のため	-8.70555
全	-8.70746
すぐに	-8.70757
実行	-8.70852
については	-8.70942
リスト	-8.71001
ではなく	-8.71548
小さな	-8.71607
していた	-8.71628
日に	-8.71728
んだ	-8.72029
▁4	-8.72101
支援	-8.72176
必要があります	-8.72259
投資	-8.72466
次の	-8.72578
主	-8.72639
日本の	-8.72852
コン	-8.72949
木	-8.7311
られた	-8.73347
▁私たちは	-8.73442
l	-8.73487
協力	-8.7354
サポート	-8.7364
検索	-8.73709
ような	-8.73719
ポイント	-8.73727
重要な	-8.73905
特定の	-8.73938
式	-8.7396
音楽	-8.74148
っている	-8.74463
年の	-8.74558
グ	-8.74566
k	-8.74618
キー	-8.7497
高い	-8.75016
これ	-8.75164
ており	-8.75164
万	-8.75268
以上	-8.75482
u	-8.75485
映画	-8.75559
さまざまな	-8.75583
01	-8.75761
結果	-8.7577
ハ	-8.75792
を使って	-8.75875
インターネット	-8.75969
ファイル拡張子	-8.76038
したい	-8.76153
書	-8.76349
天	-8.76371
私たち	-8.76482
[	-8.76539
とともに	-8.76595
を選択します	-8.76833
ツ	-8.76868
む	-8.76872
白	-8.7701
じ	-8.77187
ですが	-8.77208
生活	-8.77253
セ	-8.77269
ながら	-8.77517
北	-8.77549
最初の	-8.77652
西	-8.77983
後に	-8.78081
構造	-8.78168
▁K	-8.78198
まだ	-8.78326
愛	-8.78395
アン	-8.78494
のか	-8.78695
したり	-8.78719
25	-8.78721
ビ	-8.78954
え	-8.79016
例	-8.79074
産業	-8.79109
ましょう	-8.79462
メール	-8.79507
▁V	-8.79509
よく	-8.79829
調査	-8.80165
コード	-8.80268
プロセス	-8.80458
なかった	-8.80539
多	-8.80565
ライン	-8.80802
―	-8.81179
異なる	-8.81306
el	-8.81306
する必要があります	-8.81335
関連	-8.81372
モ	-8.81415
言語	-8.81443
カメラ	-8.81607
コンテンツ	-8.81807
▁さらに	-8.8203
▁彼は	-8.8209
料理	-8.82322
原	-8.82373
入力	-8.82449
形	-8.82464
40	-8.82498
以上の	-8.82724
状態	-8.82934
▁彼らは	-8.83073
アクセス	-8.8329
ウェブサイト	-8.83336
カード	-8.83399
▁7	-8.83403
作業	-8.83497
のです	-8.83623
常に	-8.83705
能力	-8.83754
理由	-8.83782
東京	-8.83903
東	-8.84071
以下	-8.84331
たい	-8.84483
▁本	-8.84505
登録	-8.84572
文	-8.84682
感	-8.84682
そう	-8.84816
設計	-8.84878
町	-8.84935
れ	-8.84945
ティ	-8.85002
▁デジタル台風	-8.85368
非	-8.85401
変化	-8.8553
経験	-8.85547
ときに	-8.85613
空	-8.85656
美しい	-8.8587
▁W	-8.85941
バス	-8.86147
リング	-8.86172
施設	-8.86329
リン	-8.8639
評価	-8.86451
28	-8.86522
ソ	-8.86556
ボ	-8.87265
▁J	-8.8734
少し	-8.87363
音	-8.87507
組織	-8.87546
ること	-8.87632
ター	-8.87658
部分	-8.87683
だろう	-8.87753
ず	-8.87933
量	-8.87974
土	-8.88131
作品	-8.88243
トラック	-8.88264
z	-8.8835
体験	-8.88385
変換	-8.88612
台	-8.88786
にとって	-8.889
人は	-8.88921
クラス	-8.89137
しかし	-8.89152
保護	-8.89312
位置	-8.89477
co	-8.89585
自然	-8.89641
室	-8.89715
あなた	-8.89743
製造	-8.89894
成長	-8.90049
ほど	-8.90123
村	-8.90176
とは	-8.90226
着	-8.90429
の間に	-8.90528
発表	-8.90538
するための	-8.90664
されて	-8.90756
@	-8.90913
月に	-8.90951
対応	-8.91663
私	-8.92202
自動	-8.92299
ば	-8.92457
表	-8.92646
プラットフォーム	-8.92771
流	-8.92809
制御	-8.93
取引	-8.93356
株式会社	-8.93368
女性	-8.93522
られる	-8.93545
分析	-8.93674
セキュリティ	-8.93718
又は	-8.93739
についての	-8.93796
▁L	-8.93873
説明	-8.93916
年間	-8.94344
le	-8.94408
最大	-8.94438
ではありません	-8.9453
期間	-8.94634
▁10	-8.94634
あるいは	-8.94679
区	-8.94777
契約	-8.94802
け	-8.94872
図	-8.94907
購入	-8.95527
を通じて	-8.95547
王	-8.95565
オン	-8.95639
素晴らしい	-8.95701
理解	-8.9573
re	-8.95873
ち	-8.95923
率	-8.95955
語	-8.96057
カー	-8.96082
の間	-8.96147
▁<	-8.96218
内容	-8.96359
項目	-8.96376
家族	-8.96393
Q	-8.96574
スト	-8.96904
文字	-8.96934
メッセージ	-8.96941
60	-8.97018
ほとんど	-8.97135
平	-8.97421
=	-8.97506
▁【	-8.97607
ものです	-8.97731
追加	-8.97752
必要	-8.9783
▁5	-8.98106
メーカー	-8.98148
報告	-8.98154
テキスト	-8.98162
新たな	-8.9818
参加	-8.983
ゴ	-8.98447
来	-8.98542
移動	-8.98767
確認	-8.98775
ことで	-8.98851
タイプ	-8.99118
へと	-8.99265
を見て	-8.99343
コース	-8.99419
和	-8.99443
正	-8.99461
it	-8.9948
予約	-8.99501
保存	-8.99512
以下の	-8.99531
仕事	-8.99566
行動	-8.99682
注文	-8.99892
話	-8.99926
野	-9.00013
ブランド	-9.00049
健康	-9.00062
にて	-9.00234
科学	-9.00248
全ての	-9.00267
▁Windows	-9.00274
提供	-9.00298
通信	-9.00321
ソリューション	-9.00325
するには	-9.00471
装置	-9.0052
発	-9.00553
コミュニティ	-9.00563
価格	-9.00635
48	-9.00652
▁of	-9.00715
出力	-9.00795
材料	-9.01153
星	-9.01219
人々	-9.01232
楽	-9.01276
どのように	-9.01281
安全	-9.01332
〜	-9.01364
通	-9.014
メディア	-9.01401
味	-9.01484
▁あなたの	-9.01576
部品	-9.01659
中に	-9.01778
▁あなたが	-9.0188
政府	-9.02036
入	-9.02118
テスト	-9.02123
はありません	-9.02161
波	-9.02243
低	-9.02278
シリーズ	-9.02368
することで	-9.02653
ラン	-9.02706
操作	-9.02716
交換	-9.02743
net	-9.03035
薬	-9.03153
できない	-9.03341
00	-9.03436
地球	-9.0361
中の	-9.0373
▁N	-9.03933
時計	-9.03961
ところ	-9.04199
食	-9.04277
かもしれない	-9.04455
配置	-9.0457
クチコミ	-9.04586
ar	-9.0461
器	-9.0462
二	-9.04717
▁日本	-9.04742
を見	-9.048
番号	-9.04847
w	-9.04934
によると	-9.04966
となります	-9.04987
開始	-9.0503
かつ	-9.05102
しており	-9.05137
が表示されます	-9.05155
定	-9.05186
可能な	-9.053
さん	-9.05317
U	-9.0535
us	-9.0538
課題	-9.05535
品質	-9.05586
セット	-9.0559
エラー	-9.05722
種	-9.05762
達	-9.0587
▁9	-9.06125
寺	-9.06149
いい	-9.06165
駅	-9.06209
作成	-9.06311
頭	-9.06432
予測	-9.0644
黒	-9.0654
考え	-9.06589
私が	-9.06842
いて	-9.06853
ツアー	-9.06935
橋	-9.0695
の中に	-9.07039
そのような	-9.07213
to	-9.07329
会議	-9.07504
再	-9.07569
個人	-9.07764
80	-9.07852
広告	-9.07855
複数の	-9.08043
その後	-9.08109
ロー	-9.0817
身	-9.08219
それらの	-9.08309
オンライン	-9.08509
予定	-9.08605
お客様の	-9.08924
氏	-9.08951
効果	-9.09002
道路	-9.09057
公	-9.09081
スタイル	-9.09094
▁今	-9.0911
名前	-9.09225
アプリ	-9.09413
火	-9.09433
an	-9.09435
最高の	-9.09468
簡単に	-9.09501
細胞	-9.096
0	-9.09662
コンピュータ	-9.09723
戦	-9.09742
th	-9.09791
ヤ	-9.09952
OK	-9.09962
層	-9.10062
工場	-9.10422
足	-9.10453
城	-9.10487
を通して	-9.10664
直	-9.10964
お客様	-9.10977
チャンネル	-9.11054
23	-9.11151
ケース	-9.11249
ケ	-9.11366
になった	-9.1139
現在の	-9.11394
ch	-9.11491
+	-9.11799
電子	-9.11801
22	-9.11812
の使用	-9.11905
トン	-9.11987
機関	-9.1203
ベ	-9.1204
実際に	-9.12058
取り	-9.12253
有	-9.12323
ット	-9.12438
いたします	-9.12674
彼らが	-9.13121
ことに	-9.1322
を持っている	-9.13231
ガイド	-9.13241
あります	-9.13247
ブロック	-9.13275
別	-9.13354
学生	-9.13679
メートル	-9.13719
ことです	-9.14041
):	-9.14248
目標	-9.14383
していない	-9.14593
ていない	-9.14651
メニュー	-9.14771
ローマ	-9.14823
何か	-9.14829
IP	-9.14915
ワ	-9.14979
ニュース	-9.15081
湖	-9.15132
レストラン	-9.15158
総	-9.15371
▁the	-9.15388
シー	-9.15465
ですか	-9.1556
ピ	-9.1563
に基づいて	-9.15758
®	-9.15887
長い	-9.15917
ポ	-9.15931
ていました	-9.16
質	-9.1608
コントロール	-9.16093
無料	-9.16099
美	-9.16175
当	-9.16216
々	-9.16312
通り	-9.16341
世界の	-9.16351
公開	-9.1647
記録	-9.165
曲	-9.16569
作	-9.16636
タイ	-9.16656
ペ	-9.16656
賞	-9.16797
モード	-9.17143
決定	-9.17238
ヒ	-9.17258
芸術	-9.17259
スポーツ	-9.17377
デジタル	-9.17387
唯一の	-9.17451
ザ	-9.17598
動画	-9.17608
街	-9.17734
あらゆる	-9.17795
エリア	-9.17941
それら	-9.18004
ur	-9.18013
赤	-9.18078
アカウント	-9.18165
植物	-9.18169
範囲	-9.18183
再生	-9.18184
付け	-9.18211
▁第	-9.18254
それぞれ	-9.18312
地球の	-9.18435
太陽	-9.1845
▁Apache	-9.18459
日の	-9.18702
銀行	-9.18737
右	-9.18773
その他	-9.18789
▁I	-9.18904
フィ	-9.1891
させ	-9.18963
代	-9.18974
のでしょうか	-9.19091
半	-9.19179
存在	-9.19277
系	-9.19288
台風	-9.19351
あり	-9.1944
次	-9.19672
成	-9.19756
ID	-9.19807
そ	-9.19884
付き	-9.19932
場合があります	-9.19934
どのような	-9.19974
共有	-9.19997
ガス	-9.20184
29	-9.20246
*	-9.20378
26	-9.20432
イメージ	-9.2045
許可	-9.20469
歴史	-9.20647
宇宙	-9.20681
パス	-9.20934
県	-9.20951
とても	-9.21186
フィウミチーノ	-9.21231
省	-9.21507
アジア	-9.2154
適切な	-9.21549
死	-9.21652
もう	-9.21799
Aurotek	-9.2182
を持っています	-9.21959
▁海外	-9.22008
プロ	-9.22024
強い	-9.22112
優れた	-9.2215
必要な	-9.22326
紙	-9.22368
表現	-9.22373
電気	-9.22413
通知	-9.22424
治療	-9.22465
ランド	-9.22499
の場合	-9.22753
位	-9.22773
古い	-9.22836
▁例えば	-9.22883
ボタン	-9.23001
ion	-9.23032
当社	-9.23102
ファン	-9.23125
がない	-9.23221
び	-9.23225
温度	-9.23315
期	-9.23378
定義	-9.23389
直接	-9.23408
上に	-9.2357
アイテム	-9.236
特別な	-9.23664
法律	-9.23768
▁O	-9.23861
可能	-9.2389
重	-9.23938
mm	-9.23942
用の	-9.24033
カル	-9.2404
することができる	-9.24096
子供	-9.24125
節	-9.24169
マー	-9.24173
明	-9.24176
空港	-9.244
本当に	-9.24558
産	-9.24592
27	-9.24631
レポート	-9.24663
素材	-9.24679
英語	-9.2469
印刷	-9.24743
▁6	-9.24848
ia	-9.24906
政策	-9.24981
彼	-9.25038
合	-9.25046
取得	-9.25067
調整	-9.2514
リスク	-9.25252
要求	-9.25261
Windows	-9.25292
夜	-9.25532
内で	-9.25546
なる	-9.25602
紹介	-9.25713
どんな	-9.25831
製	-9.25858
特徴	-9.25954
空間	-9.25956
再び	-9.26046
▁1.	-9.26058
行く	-9.26171
地震	-9.26279
オープン	-9.26321
になり	-9.26352
かどうか	-9.26435
と共に	-9.26505
極	-9.26538
テーブル	-9.26636
標準	-9.26638
機会	-9.26764
かもしれません	-9.26789
攻撃	-9.26821
は非常に	-9.26941
安	-9.27041
PC	-9.27056
米	-9.27062
完全に	-9.27159
記事	-9.27184
is	-9.27241
バージョン	-9.27244
になりました	-9.27402
感じ	-9.27416
ファ	-9.27535
男性	-9.2756
iPhone	-9.27593
より多くの	-9.27598
ぎ	-9.27689
領域	-9.27714
削除	-9.27764
質問	-9.27825
年度	-9.2786
ガラス	-9.27929
人間	-9.27949
設備	-9.2821
▁2.	-9.28247
認識	-9.28276
残	-9.2832
ホ	-9.2838
機器	-9.28401
母	-9.2847
スペース	-9.28472
試験	-9.28479
パートナー	-9.28549
提案	-9.28658
悪	-9.28661
どの	-9.29032
un	-9.29056
電	-9.2906
んで	-9.29064
情報を	-9.29171
70	-9.29179
方法で	-9.29183
旅	-9.293
門	-9.2932
友人	-9.29341
物質	-9.29355
▁すべての	-9.29445
動	-9.29559
すれば	-9.29581
es	-9.2968
以来	-9.29683
ライセンス	-9.29795
id	-9.29906
顧客	-9.30024
測定	-9.30029
認証	-9.30034
et	-9.30035
海外	-9.30071
構成	-9.30093
もっと	-9.30186
と思います	-9.30197
アメリカ	-9.30248
ギ	-9.30286
といった	-9.30397
するか	-9.30431
終了	-9.30458
根	-9.30506
2017	-9.3051
があった	-9.30555
ラー	-9.30632
ぐ	-9.30862
de	-9.30879
期待	-9.30879
改善	-9.30913
ふ	-9.30928
サン	-9.3099
基準	-9.31003
岩	-9.3112
グローバル	-9.31127
バック	-9.31221
未	-9.31234
動き	-9.31258
パッケージ	-9.31326
中央	-9.31384
▁我々	-9.31608
▁次に	-9.31728
となった	-9.31804
コスト	-9.31856
一番	-9.31937
停止	-9.31962
▁その後	-9.32005
送信	-9.32011
国の	-9.32027
せ	-9.32069
対	-9.3218
アップ	-9.32187
シュ	-9.32292
解析	-9.32321
▁ア	-9.32345
ro	-9.32365
間の	-9.32374
を使用する	-9.32545
特別	-9.32623
青	-9.32715
解決	-9.32794
発展	-9.32811
計算	-9.32885
撮影	-9.33077
立	-9.33107
であろう	-9.33134
ang	-9.33161
▁Rome	-9.33177
超	-9.33225
資源	-9.33308
いました	-9.33389
夏	-9.33419
分野	-9.33448
このような	-9.33486
戦略	-9.33489
含んでいます	-9.33523
今日	-9.3356
回転	-9.33581
ック	-9.33625
200	-9.33669
を与える	-9.33768
チェック	-9.33806
無料ライブセックスチャット	-9.33861
と呼ばれる	-9.33872
公園	-9.33885
てください	-9.33987
と同じ	-9.34038
リリース	-9.34042
▁壁紙	-9.34065
を提供します	-9.34068
la	-9.34071
に関して	-9.3413
フル	-9.34209
▁もし	-9.34233
だけで	-9.344
歳	-9.344
馬	-9.34414
自由	-9.34437
油	-9.34665
路	-9.34871
ジェ	-9.34877
の設定	-9.34903
されていない	-9.3494
を提供しています	-9.34984
実施	-9.34997
業界	-9.35007
スター	-9.35106
時代	-9.35145
電話	-9.35145
彼女は	-9.35294
可能性があります	-9.35454
目的	-9.35503
通常	-9.35529
意味	-9.35687
価値	-9.35723
画面	-9.35797
を提供する	-9.35816
制限	-9.35848
no	-9.35903
発見	-9.35951
章	-9.35999
インド	-9.36072
等の	-9.3614
を行い	-9.3629
血	-9.36343
オーディオ	-9.36351
学校	-9.36422
パー	-9.36498
カラー	-9.36507
者は	-9.36553
者の	-9.36577
動作	-9.36584
31	-9.36627
パン	-9.36652
園	-9.3666
ファイルを	-9.36664
料金	-9.36715
の開発	-9.3672
ly	-9.36755
部門	-9.36761
親	-9.369
高速	-9.36969
▁JAPAN	-9.37126
▁18	-9.37168
修正	-9.37248
韓国	-9.37261
当社の	-9.37371
am	-9.37382
春	-9.37468
格安ホテル予約	-9.37471
▁世界のホテル情報	-9.37491
ad	-9.37502
ホテルを探して最安値でホテル予約	-9.37507
秒	-9.3755
在	-9.37641
建設	-9.37709
Facebook	-9.37713
内に	-9.37786
▁&	-9.37808
トップ	-9.37809
階	-9.37811
リクエスト	-9.37833
他	-9.37863
と一緒に	-9.37946
アル	-9.38031
影響	-9.38057
その他の	-9.38074
医療	-9.38119
実	-9.38179
相	-9.38277
をご覧ください	-9.38435
すでに	-9.38473
Web	-9.38479
▁私たちの	-9.38516
可能性	-9.38572
業務	-9.38598
データベース	-9.38655
に対応しました	-9.38776
になって	-9.38813
更新	-9.38877
▁現在	-9.38929
一緒に	-9.38964
独自の	-9.39074
なければならない	-9.39115
マップ	-9.39147
核	-9.39156
クライアント	-9.39158
、[	-9.39182
供給	-9.39271
れば	-9.39289
病	-9.39305
られ	-9.39334
増	-9.39336
ノート	-9.39384
詳細	-9.3941
団体	-9.39431
国家	-9.39467
自動車	-9.39476
前の	-9.39569
向け	-9.39574
市民	-9.39601
彼が	-9.39849
人々が	-9.39851
MA	-9.39899
明らかに	-9.39958
肉	-9.40119
ホール	-9.40171
成功	-9.40191
速度	-9.40214
▁拡張子に	-9.40215
最近	-9.40273
ロシア	-9.40289
500	-9.40409
松	-9.40551
責任	-9.4057
準備	-9.40583
有名な	-9.40589
座	-9.40612
クローネ	-9.40691
化学	-9.40741
開催	-9.40887
キロ	-9.40927
たちは	-9.40966
歌	-9.40994
▁2018	-9.41025
付	-9.41028
際	-9.41044
at	-9.41088
の動画のダウンロード	-9.41162
セクション	-9.4123
テレビ	-9.41282
サー	-9.41286
タン	-9.41312
を受け	-9.41331
するように	-9.41331
御	-9.41358
ent	-9.41362
展示	-9.41388
CO	-9.41422
データを	-9.41456
私達は	-9.41464
となり	-9.41465
人々は	-9.41473
それぞれの	-9.41487
ぶ	-9.41527
急	-9.41586
45	-9.41595
レン	-9.4171
研究所	-9.41735
世	-9.41735
平和	-9.41749
ルーム	-9.41879
いない	-9.41897
原因	-9.41928
文書	-9.41978
加工	-9.42109
左	-9.42121
雪	-9.42137
実験	-9.42239
とも	-9.42261
注意	-9.42292
仕様	-9.42296
▁当サイトは	-9.42404
反応	-9.42561
たはずです	-9.42587
初めて	-9.42719
as	-9.42731
ロック	-9.42835
性的なマテリアルを	-9.42879
35	-9.42885
委員会	-9.42938
理	-9.43113
運動	-9.43152
多く	-9.43178
ロード	-9.43237
が必要です	-9.4325
▁2017	-9.43253
$	-9.4326
Google	-9.43275
▁満	-9.43321
ソン	-9.43397
金属	-9.43432
ならば	-9.43462
後ご入	-9.43598
歳の方	-9.43627
ルールに同意	-9.43628
のみクッキー	-9.43714
場ください	-9.43733
たり	-9.438
館	-9.43804
電力	-9.43828
角	-9.43856
役	-9.43899
団	-9.43956
利益	-9.4397
希望	-9.43976
軍	-9.44014
対象	-9.44096
テーマ	-9.44099
に沿って	-9.4414
ハイ	-9.44165
クラブ	-9.44294
300	-9.4431
税	-9.44322
▁各	-9.44388
食品	-9.44505
フィールド	-9.44599
アドレス	-9.44683
利用可能	-9.44746
エン	-9.44756
機械	-9.44759
リア	-9.44761
任意の	-9.44766
員	-9.44936
▁新しい	-9.44953
最高	-9.44984
コピー	-9.45016
ユーザ	-9.45053
地域の	-9.4507
io	-9.4507
男	-9.4512
一覧	-9.45148
真	-9.4515
ビュー	-9.45157
でき	-9.4529
たち	-9.45312
▁Pro	-9.45398
倍	-9.45495
▁それ	-9.45624
▁※	-9.45643
にあります	-9.4571
90	-9.45742
おり	-9.45768
タイム	-9.45819
規則	-9.45821
st	-9.45918
かった	-9.45947
ri	-9.45988
ほぼ	-9.46022
ナー	-9.46028
インストール	-9.46052
機構	-9.46126
対策	-9.46169
あらゆるファイル拡張子を	-9.46214
バン	-9.46268
近	-9.46278
ここで	-9.46308
大統領	-9.46322
一般	-9.46367
ワイン	-9.46517
の上に	-9.46566
02	-9.46622
フェ	-9.4663
横	-9.46672
▁12	-9.46709
ヨーロッパ	-9.46748
ウィンドウ	-9.46815
障害	-9.46828
アート	-9.4685
訪問	-9.46918
しか	-9.4695
台湾	-9.47121
自	-9.47127
計	-9.47204
の一部	-9.47282
向上	-9.47305
私達の	-9.4734
例えば	-9.47427
マーク	-9.47435
局	-9.47443
となっています	-9.47496
全体の	-9.47521
▁ただし	-9.47523
絵	-9.4753
ダウン	-9.47619
夢	-9.47668
茶	-9.47694
ケーブル	-9.4781
ライ	-9.4782
コレクション	-9.4786
像	-9.48068
両	-9.4809
患者	-9.48119
ジャ	-9.48154
国内	-9.48202
シン	-9.48259
意識	-9.48259
マーケティング	-9.48313
雲	-9.48485
ステップ	-9.48503
知識	-9.48563
することを	-9.48564
人気	-9.48579
指定	-9.4858
モジュール	-9.48654
▁8	-9.48802
▁3.	-9.4887
j	-9.48898
マスター	-9.48905
HD	-9.48932
選手	-9.4894
後の	-9.48985
雨	-9.4904
列	-9.49115
これを	-9.49122
なので	-9.49189
側	-9.49213
言う	-9.49288
深い	-9.49345
フォーム	-9.49426
最初に	-9.49604
制作	-9.49668
ディレクトリ	-9.49678
様	-9.49679
時の	-9.49691
毎日	-9.49723
パスワード	-9.49766
コメント	-9.49774
思い	-9.49843
種類の	-9.49858
日本語	-9.49895
人々の	-9.49941
▁File	-9.49961
バッグ	-9.50027
最新の	-9.50128
32	-9.50151
▁for	-9.50207
氏は	-9.50207
民	-9.50242
権	-9.50289
検査	-9.50395
少なくとも	-9.50454
戦争	-9.50463
拡大	-9.50505
ると	-9.50549
投稿	-9.50605
パターン	-9.5062
てきた	-9.50662
観測	-9.50774
一般的な	-9.50774
議論	-9.50933
込み	-9.50936
群	-9.51066
フランス	-9.51147
開	-9.51158
メンバー	-9.51161
翻訳	-9.51176
トリ	-9.5118
▁それでも	-9.51204
教	-9.51212
ボックス	-9.51244
魚	-9.51249
の下で	-9.51385
屋	-9.51388
金融	-9.51501
il	-9.51561
方向	-9.51634
億	-9.51645
鉄	-9.51649
教授	-9.5166
ませんでした	-9.51791
の歴史	-9.51847
重要	-9.51879
なさい	-9.52002
っています	-9.52003
宮	-9.52006
権利	-9.52013
人間の	-9.5204
そこに	-9.52119
知	-9.52137
まず	-9.52172
▁2016	-9.52366
第一	-9.52403
特	-9.52409
経	-9.52484
建物	-9.52495
07	-9.52533
の名前	-9.52569
フラン	-9.52618
監視	-9.52831
強	-9.52847
外部	-9.52897
入れ	-9.5303
サブ	-9.53082
堂	-9.53165
ニー	-9.53175
教会	-9.53259
06	-9.53266
自分	-9.5328
<	-9.53336
▁したがって	-9.5335
をクリックします	-9.5342
段階	-9.5347
に応じて	-9.53472
▁Nature	-9.5355
▁X	-9.5361
▁*	-9.53633
テンプレート	-9.53673
統合	-9.53687
信	-9.53774
しながら	-9.53788
収集	-9.53864
言葉	-9.53935
交流	-9.53937
距離	-9.53942
▁Q	-9.53962
生まれ	-9.54
なぜ	-9.54101
公式	-9.54138
会員	-9.54195
ベース	-9.54369
四	-9.54381
引き	-9.54539
に対し	-9.54558
規制	-9.54591
我々	-9.54611
▁私の	-9.54678
江	-9.54742
を持って	-9.54826
IN	-9.55049
チケット	-9.55075
までの	-9.55097
努力	-9.55131
サーバー	-9.55134
のうち	-9.55168
博物館	-9.55202
▁U	-9.55214
▁これで	-9.55265
ベル	-9.5538
とその	-9.55495
しません	-9.55516
04	-9.55707
ry	-9.55764
海洋	-9.55764
▁19	-9.55808
クッキー	-9.55859
ごとに	-9.55876
展開	-9.55897
09	-9.55905
なり	-9.56054
プレイ	-9.56119
ヌ	-9.56119
するため	-9.56216
もしくは	-9.56282
穴	-9.56317
条	-9.56319
顔	-9.56366
連絡先	-9.56447
▁Japan	-9.56459
生命	-9.56507
女	-9.56541
下さい	-9.56606
に行く	-9.56656
の両方	-9.56722
管	-9.5677
▁and	-9.56837
se	-9.56852
ちょうど	-9.56863
マシン	-9.56874
イエス	-9.56889
月の	-9.56893
▁in	-9.56909
ファッション	-9.56916
山の	-9.56923
おそらく	-9.56928
空気	-9.56991
参照	-9.57024
変	-9.57077
になっている	-9.57171
カン	-9.5721
経営	-9.57211
のない	-9.57254
尾	-9.57261
発生	-9.57264
▁これ	-9.57273
▁0	-9.5736
警告	-9.57424
年から	-9.57453
サーバ	-9.57483
とする	-9.57493
最後の	-9.57589
フリー	-9.576
最大の	-9.57632
最	-9.57633
▁Re	-9.57665
古	-9.57677
業	-9.57696
ボール	-9.57791
パフォーマンス	-9.57894
サンプル	-9.57991
若い	-9.58079
銅	-9.58101
それらを	-9.5824
ic	-9.58252
源	-9.58312
行為	-9.58313
連	-9.58349
MP	-9.58365
ai	-9.58394
実際の	-9.58396
36	-9.58417
アフリカ	-9.58434
パネル	-9.5846
ex	-9.58502
資料	-9.5852
プレート	-9.58523
類	-9.5857
資金	-9.58598
葉	-9.58612
主に	-9.58784
信号	-9.58795
を示す	-9.58854
ダー	-9.58921
答え	-9.5894
大きい	-9.59021
▁これにより	-9.59022
トーク	-9.59032
利	-9.59032
剤	-9.59109
を作る	-9.59111
▁特に	-9.59126
配信	-9.59137
os	-9.59151
自己	-9.59182
大会	-9.59186
活用	-9.59189
の中	-9.59367
谷	-9.59452
協会	-9.5956
IT	-9.59579
ation	-9.59586
エンジン	-9.59651
必ず	-9.59652
ここ	-9.59684
05	-9.5976
官	-9.59785
英国	-9.59846
何も	-9.59862
all	-9.59873
ソフト	-9.59905
ポート	-9.5997
輸送	-9.60114
れる	-9.60131
▁だから	-9.60146
よい	-9.6015
ブラウザ	-9.60191
の種類	-9.60205
ライト	-9.60215
全体	-9.60218
塩	-9.60221
けれども	-9.60335
予想	-9.60342
動物	-9.60397
声	-9.60406
渡	-9.60433
元の	-9.60539
ール	-9.60602
をお	-9.60623
だと	-9.60635
検出	-9.60651
アーティスト	-9.60692
IC	-9.60771
ユーザーが	-9.60838
受	-9.60892
の問題	-9.60892
近く	-9.60934
モバイル	-9.60991
仏	-9.60995
te	-9.61174
脳	-9.61188
どう	-9.61191
シート	-9.61205
ブル	-9.61225
全国	-9.61427
Booking	-9.61479
li	-9.61508
できません	-9.61526
平均	-9.61594
媒体	-9.61596
ルート	-9.61623
かなり	-9.61722
を見る	-9.61753
ビル	-9.61815
を取り	-9.61866
特性	-9.61889
従業員	-9.61915
可能です	-9.61938
千	-9.61957
交通	-9.61997
した場合	-9.62062
and	-9.6214
院	-9.62141
費用	-9.6215
論	-9.6216
既存の	-9.62227
正しい	-9.62319
額	-9.6236
学習	-9.62372
した後	-9.62393
mo	-9.6248
減	-9.6252
場合には	-9.62527
料	-9.6254
見て	-9.6259
大きく	-9.6259
トラ	-9.62594
ろ	-9.62698
反	-9.62717
拡張	-9.62802
解	-9.62805
する方法	-9.62911
五	-9.62999
であること	-9.63003
投票	-9.63094
を追加	-9.6311
ソース	-9.63203
することは	-9.63218
我々の	-9.63258
指	-9.63376
ゼ	-9.63393
2018	-9.63414
差	-9.6347
布	-9.63487
レンタカー	-9.63494
林	-9.63582
プロパティ	-9.63586
助け	-9.6359
者が	-9.63626
フィルター	-9.63644
温泉	-9.63646
と思う	-9.63717
調	-9.63726
AL	-9.6379
ウェブ	-9.63837
ガン	-9.63847
主要な	-9.63888
に加えて	-9.63897
ロン	-9.63947
でしょうか	-9.64045
ハン	-9.64101
魂	-9.64129
回復	-9.64138
ダイヤモンド	-9.64177
げ	-9.64205
ジュ	-9.64219
としても	-9.64264
強化	-9.64371
ありません	-9.64401
リーダー	-9.64411
2016	-9.64523
サウンド	-9.64545
の前に	-9.64551
タグ	-9.64566
関数	-9.64573
ドライブ	-9.64655
cm	-9.64738
単に	-9.64773
表面	-9.64812
制度	-9.64816
種類	-9.64825
端	-9.64845
64	-9.64847
席	-9.64853
こう	-9.64871
人に	-9.6488
骨	-9.64939
ルール	-9.64987
突然	-9.6499
板	-9.65017
EN	-9.65036
▁このサイトは	-9.65058
の後	-9.65071
出し	-9.65075
▁たとえば	-9.65103
スタッフ	-9.65156
シャ	-9.6519
▁パンドラ	-9.65231
ta	-9.65295
材	-9.65313
中国の	-9.65326
▁20	-9.65346
キャ	-9.65359
観	-9.65362
▁東京	-9.65374
すべき	-9.65377
える	-9.65383
集	-9.65392
過去	-9.65394
建築	-9.65429
人生	-9.65454
ネット	-9.65458
合わせ	-9.65524
起動	-9.6553
ビーチ	-9.65588
運営	-9.65652
既知の	-9.6568
ことがあります	-9.65688
いつでも	-9.6574
コミュニケーション	-9.65806
個人情報	-9.65868
レイ	-9.65906
ライブ	-9.65922
ショー	-9.65991
強く	-9.6602
ブログ	-9.66028
にもかかわらず	-9.66113
ガー	-9.66216
ブルー	-9.66216
午後	-9.66304
彼等の	-9.66382
取	-9.66386
▁このような	-9.66405
過	-9.66432
新規	-9.6646
のホテル	-9.6654
これが	-9.66579
me	-9.6664
客	-9.66855
▁by	-9.66914
流れ	-9.66934
週間	-9.66955
▁11	-9.66992
専門	-9.67023
製品の	-9.67067
真実	-9.67137
貿易	-9.67141
ra	-9.67143
ヘ	-9.67178
されており	-9.67221
増加	-9.67284
に従って	-9.67294
事実	-9.67314
エル	-9.67418
手順	-9.67448
聖	-9.67453
毛	-9.67457
店舗	-9.67484
ひ	-9.67484
初	-9.67564
全て	-9.67585
im	-9.67656
持ち	-9.67724
レス	-9.67768
症	-9.67853
オフ	-9.67864
現代	-9.67896
ることができます	-9.67924
伝統的な	-9.67967
ショップ	-9.68027
庭	-9.68028
).	-9.68039
を用いて	-9.68152
必要がある	-9.6817
朝	-9.68233
小さい	-9.68375
つく	-9.68396
お金	-9.68527
アイデア	-9.68613
の間の	-9.68683
簡単な	-9.68701
ということ	-9.68719
地方	-9.6872
滞在	-9.68849
ドア	-9.68867
監督	-9.68875
もし	-9.68892
師	-9.68965
心配	-9.68972
人口	-9.69008
メイン	-9.69059
はまだ	-9.69069
イタリア	-9.69099
のですか	-9.69102
ほとんどの	-9.69164
▁古い	-9.69269
OS	-9.69286
バックアップ	-9.69301
▁to	-9.69327
私に	-9.69396
ホット	-9.69457
関心	-9.69518
訓練	-9.69534
見つけることができます	-9.69586
マルチ	-9.69674
CD	-9.69763
インドネシア	-9.69771
▁x	-9.69786
SA	-9.69811
オブジェクト	-9.69812
の高い	-9.70092
主張	-9.70122
これまで	-9.70146
病気	-9.70179
テクノロジー	-9.70192
▁私達は	-9.70197
拠点	-9.70256
試み	-9.70269
ニュー	-9.70405
草	-9.70432
ていく	-9.70453
とした	-9.70496
のすべての	-9.7051
システムの	-9.70553
完全な	-9.70564
03	-9.70606
部屋	-9.70716
チャ	-9.70825
▁ロシア	-9.7085
!!	-9.70902
記	-9.70969
フォーラム	-9.71006
▁The	-9.71081
ES	-9.71093
断	-9.71097
完成	-9.71181
住宅	-9.71229
▁サーバ	-9.71235
ログイン	-9.71236
ックス	-9.71247
あなたに	-9.71258
さえ	-9.71278
分の	-9.71296
酸	-9.71297
以外の	-9.71299
起こる	-9.71303
▁«	-9.71316
注目	-9.71318
十	-9.71338
危険	-9.71373
ご注文	-9.71402
異	-9.71436
世紀	-9.71476
基	-9.71545
▁m	-9.71578
フォー	-9.71582
安定	-9.71624
るように	-9.71649
輪	-9.71655
オフィス	-9.71677
となりました	-9.71692
アウト	-9.71717
用途	-9.71766
ウイルス	-9.71793
実装	-9.71826
農業	-9.71866
MO	-9.7189
形式	-9.71919
ファイルを開く	-9.71925
圧力	-9.71952
フレンドリーな	-9.72015
はまた	-9.72096
手段	-9.72102
プラン	-9.72114
ディスク	-9.72133
100%	-9.72249
ワン	-9.72252
▁その他	-9.7239
満足	-9.72395
ヘルプ	-9.72458
しております	-9.72462
パワー	-9.72494
na	-9.72562
映像	-9.72614
lo	-9.72656
大規模な	-9.72693
ぼ	-9.7275
クリック	-9.72759
副	-9.72827
国連	-9.72854
を参照してください	-9.72954
切り	-9.73004
セル	-9.7303
▁つの	-9.73086
清	-9.73144
」「	-9.73182
日付	-9.73203
巨大な	-9.73239
に基づく	-9.73274
今後	-9.73341
ティー	-9.73405
土地	-9.73409
限り	-9.73426
um	-9.73454
▁現時点では	-9.73457
▁若い	-9.73488
個	-9.7355
完全	-9.73576
を与え	-9.7366
2015	-9.73676
を表示	-9.73778
ことができない	-9.73793
33	-9.73843
減少	-9.73898
AS	-9.73905
ポンド	-9.73911
▁もちろん	-9.7399
Mac	-9.74004
毎年	-9.74019
アクション	-9.74188
内部	-9.74232
米国の	-9.74256
十分な	-9.74271
コマンド	-9.74305
食事	-9.74365
花配達を提供	-9.74522
となっている	-9.7454
現象	-9.74544
▁ホテル	-9.74562
中で	-9.74565
界	-9.74587
承認	-9.74601
の間で	-9.74625
行う	-9.74689
op	-9.74725
店舗を見て	-9.74802
ジュエリー	-9.74823
▁In	-9.7486
先生	-9.74897
per	-9.74954
ol	-9.74981
祭	-9.75018
到着	-9.75063
電源	-9.75121
まさに	-9.75159
かけ	-9.7517
を使う	-9.75178
の数	-9.75181
プレイヤー	-9.75188
ヴィ	-9.75277
地区	-9.75314
合意	-9.75339
共同	-9.75351
スキャン	-9.75377
タブ	-9.75397
バンド	-9.75482
なし	-9.75548
行き	-9.75573
ヶ月	-9.75583
アイ	-9.75597
▁ここで	-9.75602
▁のダウンロード	-9.75687
遺伝子	-9.75693
ne	-9.75718
どうすればよいですか	-9.75758
中心	-9.75829
参加者	-9.75832
することが	-9.75899
▁...	-9.7597
ac	-9.7598
悪い	-9.75985
検討	-9.76014
そこ	-9.76021
シーズン	-9.76041
科	-9.76055
番	-9.76092
▁2015	-9.76097
代表	-9.76141
未来	-9.76176
支配	-9.76179
を提供	-9.76185
それぞれの所有者に帰属します	-9.76225
ほか	-9.76278
ダイ	-9.76397
がありました	-9.7641
幅	-9.76413
ポリシー	-9.76461
破壊	-9.7647
作り	-9.76488
マル	-9.76544
RE	-9.76557
地元の	-9.7657
発行	-9.76575
欧州	-9.7658
ということです	-9.76654
37	-9.76668
オーストラリア	-9.76725
ドイツ	-9.76734
傷	-9.76781
演奏	-9.76827
の詳細	-9.76849
バイ	-9.76858
費	-9.76908
コマーシャル	-9.76911
一度	-9.76978
と言う	-9.77001
固定	-9.77009
そのまま	-9.77079
▁人々	-9.77122
冷	-9.77138
何を	-9.77186
一つの	-9.77191
皮	-9.77193
進化	-9.77391
55	-9.77397
38	-9.77445
軸	-9.77473
不具合を修正しました	-9.77524
長期	-9.77548
会場	-9.77559
ダンス	-9.77642
ビール	-9.77674
ボード	-9.77701
井	-9.77734
▁HTTP	-9.77801
モン	-9.77815
▁私たちのサイトでは	-9.77846
プール	-9.77853
要因	-9.77912
▁Aurotek	-9.77999
鳥	-9.7802
▁オーストラリア	-9.78029
one	-9.78042
雰囲気	-9.78087
ただ	-9.78091
ベッド	-9.78108
性能	-9.78159
ようです	-9.78164
床	-9.78208
構築	-9.7822
華	-9.78315
使用する	-9.78351
週	-9.78414
同期	-9.78433
取り組み	-9.78455
現実	-9.78489
満	-9.78604
アー	-9.78636
変数	-9.78652
▁mod	-9.78657
常	-9.78658
香港	-9.78664
ショッピング	-9.78673
素	-9.78674
#	-9.78692
スタート	-9.78779
髪	-9.78785
プリント	-9.78816
コンポーネント	-9.78895
を作成する	-9.78921
色の	-9.78946
時には	-9.78962
ど	-9.78966
いつも	-9.78996
タブを開きます	-9.79
08	-9.7901
強力な	-9.79013
▁All	-9.79039
方法は	-9.79062
ファイルを取り扱うプログラム	-9.79063
ります	-9.79067
信頼	-9.79075
問題が解決しない場合は	-9.79078
時間の	-9.79089
ホーム	-9.79122
ard	-9.79211
フォーマット	-9.79212
支払い	-9.79225
記載	-9.79234
の下に	-9.7928
なければなりません	-9.79288
世界中の	-9.79324
組	-9.79341
ベトナム	-9.79356
しばしば	-9.79425
知っている	-9.79434
彼ら	-9.79488
玉	-9.79488
ME	-9.79495
住民	-9.79517
保	-9.79534
age	-9.79614
見る	-9.79628
引	-9.7963
フェスティバル	-9.79631
ファイル拡張子が	-9.79646
ir	-9.79683
79	-9.79705
マウス	-9.79751
スマート	-9.79788
サイ	-9.79813
風景	-9.79822
出す	-9.79883
統計	-9.79948
しましょう	-9.79981
密	-9.80007
事故	-9.80028
しい	-9.80076
時頃より	-9.80088
専門家	-9.80113
同時に	-9.80135
ここに	-9.80153
ファイルを開くには	-9.80216
you	-9.80274
服	-9.80276
を持つファイル	-9.80303
セッション	-9.80453
冬	-9.80485
ディスプレイ	-9.80512
込む	-9.80562
リゾート	-9.80573
AR	-9.80589
ファイル名の後に	-9.80591
以前	-9.80618
を見ることはできません	-9.80668
示	-9.80704
が必要	-9.80771
していました	-9.80804
著作権	-9.80859
者達	-9.80884
広く	-9.80896
脱	-9.80992
壁	-9.81111
お問い合わせください	-9.81164
掛けして申し訳ございません	-9.81169
▁ご迷惑をお	-9.8117
災害	-9.81193
各種	-9.81207
砂	-9.81213
ビー	-9.81233
クロ	-9.81235
AI	-9.81279
【	-9.81299
していく	-9.81316
▁ご迷惑をおかけしました	-9.81323
立ち	-9.81324
▁2016.11.2	-9.81331
エラーが生じてい	-9.81331
表示されるようになっ	-9.81355
2018.06.23	-9.81363
動画の変換に	-9.81379
2016.06.14	-9.81387
▁最終手段ダウンロードページ	-9.81395
一般的に	-9.81452
限定	-9.81508
連携	-9.81541
発売	-9.81545
銀	-9.81568
意見	-9.81583
」(	-9.81592
連絡	-9.81598
カテゴリー	-9.81643
▁スケジュール	-9.81656
命	-9.81693
ドライバ	-9.81754
日から	-9.81761
定してください	-9.81782
PS	-9.81788
▁Extension	-9.81801
義	-9.81815
ミニ	-9.8182
▁2019	-9.81826
フォルダオプション	-9.81851
コンピュータのユーザー	-9.81873
標準設定では	-9.81898
保険	-9.81906
のオプションを見つけ	-9.81957
拡張子が表示され	-9.81959
▁De	-9.81965
ファイルを含むすべての	-9.81996
職	-9.8202
問題が解決しないこと	-9.82037
キーでそれを確	-9.82037
具体的な原因を	-9.82037
診断すべ	-9.82039
それは簡単に変更することができ	-9.82044
そのチェックを外し	-9.82045
ファイルの取り扱いに関する	-9.82045
拡張子を隠	-9.82045
がインストールされていても	-9.82045
サービスを要請し	-9.82045
く専門家に	-9.82046
▁コンピュータにファイル	-9.82046
▁時にはコンピュータに	-9.82053
記憶	-9.8217
▁ここでは	-9.82181
瞬間	-9.8219
事件	-9.82219
ライブラリ	-9.82227
るために	-9.82236
スーパー	-9.82252
地図	-9.8228
シーン	-9.82308
▁4.	-9.82348
乳	-9.82351
上昇	-9.82353
球	-9.82375
連続	-9.82405
背景	-9.82524
ER	-9.8257
▁ご利用ください	-9.82584
書き	-9.82584
要	-9.82595
箱	-9.82597
400	-9.82649
は存在しません	-9.82661
SP	-9.82662
携帯電話	-9.82797
をする	-9.82803
同意	-9.82823
将来	-9.8283
ine	-9.82832
AC	-9.82881
▁#	-9.82894
下の	-9.82894
電子メール	-9.83049
太陽の	-9.83063
することはできません	-9.83105
防止	-9.83124
タイトル	-9.8313
▁面白い	-9.83159
能	-9.83178
ge	-9.8318
年齢	-9.83188
起	-9.83235
の公開を	-9.83275
の結果	-9.83312
されていた	-9.83352
適用	-9.83354
頃	-9.83421
ていません	-9.83429
閲覧	-9.83438
達成	-9.83479
使う	-9.83481
水の	-9.83484
マイ	-9.83549
ers	-9.8355
▁少女	-9.83564
車の	-9.83564
に向けて	-9.83571
運転	-9.83645
低い	-9.83694
を得る	-9.83741
衛星	-9.83828
感情	-9.83867
ログ	-9.83885
応答	-9.8393
既に	-9.8393
多数の	-9.83951
▁Javynow	-9.83991
抵抗	-9.84018
神の	-9.84025
研究者	-9.84028
完了です	-9.84039
分子	-9.84114
逆	-9.84127
インチ	-9.84166
▁女性たち	-9.84171
温	-9.84179
言	-9.84181
できるように	-9.84223
入り	-9.84292
ベスト	-9.84305
ブッシュ	-9.84329
▁ファイル	-9.84338
午前	-9.84338
太	-9.84341
シャツ	-9.84365
テン	-9.84371
▁JKT	-9.84375
と助言	-9.844
▁サイトには	-9.8445
を行います	-9.84456
事項	-9.84469
メディアコンテンツ	-9.84481
現	-9.84506
非常に人気がある	-9.84509
タクシー	-9.84516
▁少年たち	-9.84517
▁¥2	-9.84554
を介して	-9.84555
▁彼女は	-9.84556
ian	-9.84633
▁笑う	-9.84637
を持つことである	-9.84675
注	-9.8469
困難	-9.84711
▁'	-9.84734
%	-9.84744
コー	-9.84752
手法	-9.84802
転	-9.84807
ニーズ	-9.8486
可能性がある	-9.84867
▁皆のために	-9.84878
運用	-9.84879
弱	-9.8488
▁スイス	-9.84885
▁ミーム	-9.84894
深く	-9.84912
べき	-9.84922
▁最初の目標は	-9.8497
600	-9.84983
流し釣り	-9.84986
女の子	-9.84991
試	-9.84998
録音	-9.85001
▁このサイト上のすべての	-9.85011
▁錯視	-9.85011
▁内容物を	-9.85011
▁風刺画	-9.85028
するように選択される	-9.85028
▁または任意の他の	-9.85036
を通して楽しみ	-9.85044
▁おもしろビデオ	-9.85053
のグループにリンクされている	-9.85053
場所となることを目指してい	-9.85053
誰もが共有できる	-9.85053
注意深く品質	-9.85055
消費	-9.85063
ことによって	-9.85069
▁料金	-9.85074
を持ち	-9.85104
神社	-9.85147
党	-9.85156
八	-9.85178
配布	-9.85236
グリーン	-9.85346
▁ページ	-9.85366
▁MIDI	-9.85371
推進	-9.85408
効率	-9.8542
通常の	-9.85424
44	-9.85427
▁失敗する	-9.85439
要件	-9.85465
すぐ	-9.85465
▁p	-9.85471
であると	-9.85487
▁苦しむ	-9.85491
父	-9.85524
正確な	-9.85524
意	-9.85544
企業の	-9.85574
つけ	-9.85613
34	-9.85669
スタ	-9.85685
▁シンガポール	-9.85704
アップデート	-9.85717
良く	-9.85746
違い	-9.85803
コーヒー	-9.8581
プラ	-9.85813
精	-9.85823
集団	-9.85829
出荷	-9.85876
指示	-9.85911
▁TRY	-9.85918
のいずれか	-9.85935
を見つける	-9.85974
身体	-9.85983
基本	-9.86018
外国人	-9.86019
武	-9.86029
緑	-9.86038
っていた	-9.86042
それに	-9.86102
ざ	-9.86129
AN	-9.86135
ファイルを含め	-9.86155
▁他の	-9.86233
導入	-9.86234
▁+	-9.86331
徳	-9.86335
だまされてはいけません	-9.86387
保管	-9.86403
配	-9.86406
選挙	-9.86413
sh	-9.8642
派	-9.86438
通貨	-9.86448
受け	-9.86488
サポートする単一の	-9.86498
数字	-9.86508
られている	-9.86526
時代の	-9.86591
MS	-9.86618
▁当社は	-9.8664
展	-9.86669
▁プロフェッショナル	-9.86715
周辺	-9.86733
させて	-9.86747
の花	-9.86776
go	-9.86889
達は	-9.87026
塔	-9.87052
してきた	-9.87062
丸	-9.8707
カバー	-9.87072
up	-9.87097
られます	-9.87098
▁保持すること	-9.87175
理論	-9.87181
であります	-9.87253
されません	-9.8727
時間を	-9.87279
km	-9.87311
フォルダ	-9.87315
ング	-9.87332
がん	-9.87341
これら	-9.87368
最近の	-9.87385
ul	-9.87407
受信	-9.8741
龍	-9.87472
2019	-9.87608
たら	-9.87617
TE	-9.87672
政治	-9.87687
マイル	-9.8772
ゆ	-9.87721
ローカル	-9.87721
結合	-9.87749
圧	-9.87764
日間	-9.8777
▁•	-9.87771
IS	-9.87855
ビット	-9.87857
を取る	-9.87892
▁だけでなく	-9.87932
判断	-9.87942
周波数	-9.8798
ゲ	-9.88024
を提供し	-9.88037
言った	-9.88067
レー	-9.88103
形成	-9.88105
の制作元	-9.88121
かな	-9.88176
ate	-9.88212
たくさんの	-9.88251
美術館	-9.88284
自動的に	-9.88296
ill	-9.88318
読み	-9.88424
権限	-9.88475
のですが	-9.88481
陽	-9.88521
安全な	-9.88544
皮膚	-9.88579
イメージを保存	-9.88586
重量	-9.88598
アプリを起動します	-9.88598
ma	-9.88608
証拠	-9.88648
2014	-9.88715
の作成	-9.8872
一部	-9.88749
女性の	-9.88822
-1	-9.88845
▁=	-9.88854
ものである	-9.88867
を有する	-9.88876
申請	-9.88899
生物	-9.88904
壁紙に設定	-9.88911
好きな	-9.88938
豊かな	-9.8894
ことができ	-9.88951
画像の赤枠	-9.88971
▁ホーム画面に戻り	-9.88979
設定したい箇所を選択し	-9.8898
画像を長押しして	-9.88988
▁赤枠部分	-9.88988
の保存と変更	-9.88988
▁ダウンロードした画像	-9.88989
する前に	-9.89026
維持	-9.89149
レプリカが	-9.89196
▁2014	-9.892
Pandora	-9.89207
ST	-9.89214
望	-9.89215
ゾ	-9.89235
の一つ	-9.89244
削減	-9.89282
レース	-9.89304
比	-9.89347
傾向	-9.8935
したこと	-9.89351
工	-9.89353
ユニークな	-9.89403
相手	-9.89415
をクリックして	-9.89429
セミナー	-9.89435
ie	-9.89445
ファイルの	-9.89461
46	-9.8949
夫	-9.895
多分	-9.89501
パラメータ	-9.8952
霊	-9.89545
洪水	-9.89562
伝統	-9.89569
観光客	-9.89581
75	-9.89625
RO	-9.89634
だが	-9.89648
第三者	-9.89722
ハウス	-9.89816
をもたらす	-9.89832
▁一方	-9.89931
私達が	-9.89943
隠	-9.89948
do	-9.89949
キャンペーン	-9.89995
を設定します	-9.90019
見え	-9.90036
ハード	-9.90046
の存在	-9.90047
成分	-9.90061
校	-9.90093
場所に	-9.90104
きました	-9.90146
スマートフォン	-9.90172
深	-9.90172
装飾	-9.90196
枚	-9.9021
▁そのため	-9.90248
感覚	-9.90267
実現	-9.90273
彼女	-9.90318
▁de	-9.9036
諸国	-9.90403
記述	-9.90418
2012	-9.90442
トレーニング	-9.90475
結	-9.90502
管理者	-9.90515
クラ	-9.9052
制	-9.90522
程度	-9.90526
体制	-9.90529
▁MDR	-9.90637
▁15	-9.90683
日本人	-9.90767
状	-9.90778
オー	-9.90785
違う	-9.90846
▁iPhone	-9.90851
を使用しています	-9.90853
プラグイン	-9.9096
送迎	-9.90967
レンズ	-9.91008
されない	-9.91049
強制	-9.91052
データの	-9.91137
長く	-9.91144
ッシュ	-9.91178
宿泊	-9.91229
ものを	-9.9125
▁なお	-9.91274
レイアウト	-9.91298
ON	-9.91299
ay	-9.91395
場所で	-9.91418
EU	-9.9153
の位置	-9.91546
スポット	-9.9158
ローマ空港	-9.91611
接	-9.91613
好み	-9.91619
焼	-9.91622
基盤	-9.91654
ミリメートル	-9.91677
める	-9.91689
LE	-9.91695
労働	-9.9171
と同様に	-9.91745
の変化	-9.91758
季節	-9.91794
精神	-9.91822
ロンドン	-9.91825
▁光州観光	-9.91875
池	-9.91934
▁ファイル拡張子	-9.92019
ずっと	-9.9203
2013	-9.92062
を超える	-9.92072
士	-9.92109
SE	-9.92179
工業	-9.92179
わずか	-9.92197
専用	-9.9224
ユニット	-9.92248
返	-9.92296
▁e	-9.92347
感染	-9.92356
ロール	-9.92375
の変更	-9.92402
はそれだけではありません	-9.92415
ブラ	-9.92417
タスク	-9.92472
やすい	-9.92513
車両	-9.92541
太平洋	-9.926
つき	-9.9266
港	-9.92708
の影響	-9.92721
最後に	-9.9279
記念	-9.92847
ことも	-9.92866
を中心に	-9.9287
間に	-9.92881
のに役立ちます	-9.92906
に関する問題の原因	-9.92935
年以上	-9.92946
誰	-9.92947
認定	-9.92962
音声	-9.93019
AP	-9.93036
お問い合わせ	-9.93085
ポール	-9.93093
アプローチ	-9.93094
巻	-9.93123
爆発	-9.93126
成都	-9.93129
ホスト	-9.93145
に加え	-9.93264
2000	-9.93315
遠く	-9.93331
の世界	-9.93349
加	-9.93349
越	-9.93371
ag	-9.93445
旧	-9.93469
▁ユーロ	-9.93481
一つ	-9.93506
卵	-9.93575
▁ゼータトーク	-9.93581
▁Part	-9.93612
カスタム	-9.9364
ブラック	-9.93662
▁そこで	-9.93666
造	-9.93694
通過	-9.93752
何が	-9.93828
カテゴリ	-9.93836
ときは	-9.93848
病院	-9.9389
キング	-9.93894
いく	-9.93897
殺	-9.93917
楽しい	-9.93921
あと	-9.94066
貢献	-9.94099
酒	-9.94104
ウォッチ	-9.94105
総合	-9.94186
最終	-9.94187
いくつか	-9.94197
キャンセル	-9.94254
画	-9.94284
次元	-9.94303
ピン	-9.94356
請求	-9.94435
てきました	-9.9444
宗教	-9.94447
勝	-9.94448
39	-9.9446
最初	-9.94462
給	-9.94474
ルー	-9.94508
株	-9.94541
リソース	-9.9463
LO	-9.94632
ユーザーの	-9.94726
キリスト	-9.94738
大臣	-9.94751
URL	-9.94756
としての	-9.94761
京都	-9.94762
を使用	-9.94764
しく	-9.94916
進	-9.94921
ゲスト	-9.94942
具	-9.94971
押し	-9.9501
99	-9.9504
歯	-9.95051
42	-9.95123
ることができる	-9.95178
表示されます	-9.95186
ap	-9.95233
▁Y	-9.9526
インポート	-9.9532
完了	-9.95328
EX	-9.95369
れた	-9.95382
切	-9.95441
罪	-9.95463
主義	-9.95471
スピード	-9.95524
▁大	-9.95555
送	-9.95559
試合	-9.95639
引き続き	-9.95657
来る	-9.95659
ぬ	-9.9569
年には	-9.95707
▁または	-9.95729
あまり	-9.95744
150	-9.95756
SC	-9.95789
▁USD	-9.9579
庭園	-9.95792
の中心	-9.95817
47	-9.95848
DC	-9.95867
ユーロ	-9.95902
言い	-9.95953
なります	-9.95972
好	-9.95981
家庭	-9.95989
国民	-9.95998
チャット	-9.96012
便	-9.9602
などを	-9.96127
ヘッド	-9.96155
時期	-9.9618
になっています	-9.96231
US	-9.96234
ジョ	-9.96238
航空	-9.9627
末	-9.96306
に必要な	-9.96316
SI	-9.9634
ちょっと	-9.96351
クレジットカード	-9.96357
裏	-9.96368
メモリ	-9.9642
弁	-9.96425
禁止	-9.9643
採用	-9.96486
ha	-9.96519
する場合	-9.96519
企画	-9.96535
進行	-9.96546
乗	-9.96553
幅広い	-9.96637
コンセプト	-9.96638
竹	-9.96666
TM	-9.96678
べ	-9.96679
▁ディレクティブ	-9.96691
署名	-9.96695
年代	-9.96697
首	-9.96709
継続	-9.96789
帯	-9.96801
を使用します	-9.96821
の最初の	-9.96823
推奨	-9.96837
・・・	-9.96856
売	-9.96922
事務所	-9.96966
た場合	-9.97026
▁私が	-9.97073
シフト	-9.97098
広	-9.97099
袋	-9.971
レベルの	-9.97177
財布	-9.9718
ないように	-9.97225
肌	-9.97262
マーケット	-9.97308
AT	-9.97322
十分	-9.97333
今まで	-9.97363
初期	-9.9737
側面	-9.97371
論文	-9.97377
応用	-9.97395
ジョン	-9.97454
割引	-9.97454
コア	-9.97468
88	-9.97508
されていません	-9.97551
恐れ	-9.97649
規定	-9.97685
もので	-9.97713
使い	-9.97722
カット	-9.97728
輸出	-9.97751
シェア	-9.97809
森	-9.97824
基本的な	-9.97839
ボディ	-9.97851
役割	-9.97869
良	-9.97883
細	-9.97899
早く	-9.97913
白い	-9.97948
ホワイト	-9.97957
であれば	-9.97962
気候	-9.97963
今年	-9.98003
疾患	-9.98014
興味	-9.9802
SD	-9.98029
河	-9.98055
レビュー	-9.98067
カスタマイズ	-9.98078
することもできます	-9.98099
振	-9.98107
コンピューター	-9.98186
はない	-9.98211
妻	-9.98282
級	-9.98289
グル	-9.98303
氷	-9.98318
もある	-9.98323
されること	-9.98344
▁Cookie	-9.98351
アイコン	-9.98353
かれ	-9.98382
MI	-9.98433
ong	-9.98447
son	-9.98482
過程	-9.98486
ru	-9.98489
生成	-9.98513
適	-9.98518
いっそう	-9.98588
秋	-9.98592
もちろん	-9.98646
の上	-9.9865
圧縮	-9.98671
人たち	-9.98733
▁そう	-9.98752
に対応	-9.98777
1000	-9.98793
電圧	-9.98859
暗号化	-9.98898
▁Ma	-9.98927
余	-9.98937
wigs	-9.98945
デン	-9.99078
勝利	-9.99102
ニューヨーク	-9.99105
スペイン	-9.99107
▁スウェーデン	-9.99202
ご使用	-9.99208
ドキュメント	-9.99226
ますます	-9.99232
資産	-9.99238
窓	-9.99241
方法を	-9.99252
の中の	-9.99265
指導	-9.99304
営業	-9.99319
ポリ	-9.99343
自身	-9.99365
あまりにも	-9.99366
野菜	-9.99389
▁Z	-9.99449
49	-9.99455
ものは	-9.99458
▁ニュージーランド	-9.99524
▁ゲーム	-9.99548
全く	-9.99564
▁バージョン	-9.99638
無料で	-9.99643
▁St	-9.99649
裁判所	-9.99687
英	-9.99705
決して	-9.99762
速	-9.99805
家の	-9.99835
自分自身	-9.99899
収	-9.99901
合う	-9.99971
カフェ	-9.99977
一日	-10.0003
NO	-10.0003
▁詳細経路情報	-10.0005
感謝	-10.0006
最新	-10.001
少ない	-10.0013
赤い	-10.002
つか	-10.002
へのアクセス	-10.0021
失	-10.0024
fe	-10.0026
失敗	-10.0026
ab	-10.0026
選択した	-10.0027
自身の	-10.0037
フィリピン	-10.0038
複雑な	-10.0041
▁°	-10.0047
クリ	-10.0049
個々の	-10.0051
設置	-10.0051
除	-10.0053
長さ	-10.0054
選	-10.0055
vi	-10.0059
▁つまり	-10.0064
履歴	-10.0065
結婚	-10.0075
を行った	-10.0077
レコード	-10.0082
終	-10.0084
ow	-10.0084
▁Web	-10.0087
従来の	-10.0088
もない	-10.0091
ニング	-10.0092
郡	-10.0092
競争	-10.0093
▁a	-10.0095
ーン	-10.0097
炎	-10.0102
AV	-10.0109
を取得	-10.0113
......	-10.012
追跡	-10.0121
に関連する	-10.0124
退	-10.0126
オリジナル	-10.0126
プロジェクトの	-10.0128
ba	-10.0129
を受けた	-10.0133
分離	-10.0133
65	-10.0136
バイオ	-10.0137
形状	-10.0139
だから	-10.014
靴	-10.0145
鉄道	-10.0146
ti	-10.0148
義務	-10.0149
ザー	-10.0154
乾燥	-10.0161
ジン	-10.0163
際に	-10.0168
国立	-10.017
任	-10.0172
守	-10.0175
man	-10.0176
できた	-10.0179
修復	-10.0184
の長さ	-10.0184
ルーブル	-10.0187
公式サイト	-10.0203
十分に	-10.0204
CC	-10.0207
▁County	-10.0209
短い	-10.0211
客室	-10.0215
にあり	-10.0217
していること	-10.0223
複製	-10.0226
▁お問い合わせ	-10.0229
措置	-10.0229
BA	-10.0231
喜び	-10.0237
フレーム	-10.0238
リアルタイム	-10.0239
についても	-10.0249
▁それが	-10.0251
ワークショップ	-10.0259
ho	-10.0259
da	-10.0262
スキル	-10.0263
AD	-10.0264
CA	-10.0265
DA	-10.0266
物語	-10.027
番目の	-10.0271
銀河	-10.0273
きた	-10.0275
観察	-10.0277
68	-10.0284
▁彼の	-10.0284
までに	-10.0285
することができ	-10.0286
軌道	-10.0289
Re	-10.0289
私たちが	-10.0292
会社の	-10.0296
過去の	-10.0299
古代	-10.0301
カップ	-10.0305
あった	-10.0305
からのタクシー	-10.0308
hi	-10.0308
59	-10.0316
プル	-10.0318
そうです	-10.0324
が含まれています	-10.0332
精度	-10.0336
弾	-10.0336
黄	-10.0337
雇用	-10.0341
しなければならない	-10.0343
モノ	-10.035
クト	-10.0351
▁ウクライナ	-10.0351
方針	-10.0353
落	-10.0355
させた	-10.0355
クリップ	-10.0357
商業	-10.0357
フィードバック	-10.0357
敵	-10.0359
飛行	-10.036
損失	-10.036
be	-10.0361
メールアドレス	-10.0361
▁Android	-10.0362
を実行	-10.0363
高級	-10.0364
金額	-10.0367
時間が	-10.0368
難しい	-10.0369
フロー	-10.0369
▁Tokyo	-10.0372
両方の	-10.0372
▁IP	-10.0374
みんな	-10.0375
ブロックチェーン	-10.0376
が可能	-10.0378
信頼性	-10.0383
人と	-10.0388
が可能です	-10.0391
当該	-10.0391
に戻る	-10.0393
プロフィール	-10.0395
ベースの	-10.0398
▁今回の	-10.0398
ページの	-10.04
担当	-10.0403
快適さ	-10.0406
グラス	-10.0406
することにより	-10.041
▁EUR	-10.0413
からです	-10.0414
笑	-10.0417
クローナ	-10.0423
牛	-10.0423
ity	-10.0427
▁CAD	-10.0428
▁南アフリカ	-10.0428
燃料	-10.0437
最終的に	-10.0439
秘密	-10.0444
AM	-10.0446
以降	-10.0449
ell	-10.045
TO	-10.0452
広場	-10.0452
86	-10.0454
▁サウジアラビア	-10.0458
の利用	-10.0459
▁5.	-10.0461
件	-10.0463
彫刻	-10.0464
検証	-10.0474
q	-10.0476
ニア	-10.0479
大型	-10.0481
ギャラリー	-10.0483
トークン	-10.049
案	-10.0496
特許	-10.0496
▁今回	-10.0496
レンタル	-10.0499
神経	-10.0501
をはじめ	-10.0502
比較	-10.0503
▁Ch	-10.0503
順	-10.0504
一方	-10.0511
DE	-10.0511
問題は	-10.0519
舞台	-10.0521
チュ	-10.0524
犬	-10.0526
留	-10.0528
ゴールド	-10.0529
43	-10.0529
ツリー	-10.053
シンガポール	-10.0532
▁2013	-10.0533
高度な	-10.0536
▁ノルウェー	-10.0539
ジー	-10.0543
防	-10.0543
ていること	-10.0543
プリ	-10.0544
単位	-10.0545
桜	-10.0547
end	-10.0553
の場合は	-10.0554
▁チェコ	-10.0555
段	-10.0568
を使った	-10.0576
火山	-10.0587
ああ	-10.0589
大人	-10.0593
容量	-10.0594
抗	-10.0595
二つの	-10.0595
▁Le	-10.0599
合成	-10.0604
センサー	-10.0607
の内容	-10.0613
センチ	-10.0616
バランス	-10.0617
博士	-10.0619
偉大な	-10.0626
を設定する	-10.0626
トロ	-10.0627
」、「	-10.0628
サイド	-10.0633
コイン	-10.0639
の下	-10.0641
液	-10.0641
58	-10.0647
▁デンマーク	-10.065
練習	-10.0654
交	-10.0655
友達	-10.0656
進む	-10.0661
を作り	-10.0669
を見た	-10.067
チェ	-10.0674
考慮	-10.0674
億円	-10.0674
を開催	-10.0676
やって	-10.0685
きます	-10.0686
マイクロ	-10.0689
社の	-10.0689
粉	-10.069
▁との	-10.0692
投資家	-10.0695
フィート	-10.0699
ダン	-10.0701
▁お	-10.0703
落ち	-10.0707
ピーク	-10.0707
2008	-10.0711
庁	-10.0711
テロ	-10.0721
の写真	-10.0723
▁Co	-10.0724
石油	-10.0726
下げ	-10.0726
▁日本円	-10.0728
ております	-10.0728
メキシコ	-10.0729
の原因	-10.0731
カナダ	-10.0733
促進	-10.0746
創造	-10.0749
ユ	-10.0752
の増加	-10.0754
子供たち	-10.0754
ペン	-10.0755
を利用して	-10.0755
を作成	-10.0759
来た	-10.0759
パート	-10.0762
はその	-10.0766
ロボット	-10.0766
▁AUD	-10.077
▁ID	-10.077
国際的な	-10.077
に向けた	-10.0774
▁お客様は	-10.0779
離	-10.078
ノー	-10.0782
張	-10.0782
▁米ドル	-10.0791
生き	-10.0793
Fi	-10.0793
▁カナダドル	-10.0795
▁La	-10.0799
皆様	-10.0799
実際には	-10.0801
ステージ	-10.0802
形で	-10.0803
ケア	-10.0806
▁中国人民元	-10.0808
医師	-10.081
ダイヤル	-10.081
需要	-10.0812
マドリード	-10.0813
大変	-10.0813
デザイナー	-10.0813
の流れ	-10.0818
タイプの	-10.0821
ターゲット	-10.0821
かかる	-10.0827
見た	-10.0828
うまく	-10.083
グループの	-10.0833
milfs	-10.0835
行った	-10.0837
被	-10.0839
の値	-10.0843
大阪	-10.0847
ピクセル	-10.0848
点で	-10.0849
56	-10.0849
▁GBP	-10.0852
広い	-10.0856
こともできます	-10.0858
▁JPY	-10.0859
の範囲	-10.0862
スレッド	-10.0865
ph	-10.0874
-2	-10.0874
▁多くの	-10.0876
の選択	-10.0877
ET	-10.0879
地域で	-10.088
パリ	-10.0883
バル	-10.0886
▁SAR	-10.0888
留学生	-10.0895
est	-10.0895
を実行する	-10.0897
利用者	-10.0898
仲間	-10.0899
▁16	-10.09
確かに	-10.09
製作	-10.0906
提出	-10.0908
▁OS	-10.0911
85	-10.0912
商標	-10.0912
参	-10.0913
▁SEK	-10.0914
ボー	-10.0916
高く	-10.0917
セン	-10.0919
片	-10.092
一人	-10.0921
上記の	-10.0921
▁100	-10.0923
ける	-10.0924
鋼	-10.0925
都	-10.0926
暗号	-10.0927
コルナ	-10.0931
混乱	-10.0933
福	-10.0933
同様に	-10.0935
sa	-10.0935
力を	-10.0937
フロント	-10.094
プレーヤー	-10.0941
ヨ	-10.0942
▁CHF	-10.0944
▁CZK	-10.0946
研修	-10.0948
▁CNY	-10.0948
必要性	-10.0948
言及	-10.0949
公演	-10.0955
気持ち	-10.0958
方式	-10.0958
▁スターリング	-10.0964
向	-10.0966
祭り	-10.0966
メン	-10.0967
天然	-10.0967
イラン	-10.0968
▁RUB	-10.0968
おいしい	-10.0968
どこ	-10.0969
依存	-10.0969
労働者	-10.0972
不動産	-10.098
スキー	-10.098
スクリプト	-10.0982
なのです	-10.0984
らない	-10.0986
▁なぜ	-10.0986
チップ	-10.0987
海の	-10.0989
しても	-10.0993
万人	-10.0995
せる	-10.0998
はこの	-10.0998
のお	-10.0999
栽培	-10.1001
宿泊施設	-10.1009
合い	-10.1014
TV	-10.1015
称	-10.1016
▁NOK	-10.1016
消費者	-10.1017
オーバー	-10.102
ラベル	-10.1021
人類	-10.1021
好き	-10.1023
スクリーン	-10.1025
文字列	-10.1026
54	-10.1027
リヤル	-10.1029
マクロ	-10.103
▁ZAR	-10.1037
ベン	-10.1038
んです	-10.1041
方は	-10.1043
▁$	-10.1045
魅力	-10.1045
PANDORA	-10.1046
ニビル	-10.1055
キャリア	-10.1056
緊急	-10.1056
▁SGD	-10.1061
比較的	-10.1065
mi	-10.1066
▁HKD	-10.1066
湯	-10.1067
お客様に	-10.1068
登場	-10.1069
▁香港ドル	-10.1071
▁KRW	-10.1074
▁BRL	-10.1078
▁UAH	-10.1079
▁DKK	-10.1083
すべてが	-10.1085
トルコリラ	-10.1086
ブラジルレアル	-10.1087
▁NZD	-10.1088
TA	-10.1089
個の	-10.1092
フリヴニャ	-10.1094
大韓民国ウォン	-10.1096
ことにより	-10.1098
務	-10.1099
出発	-10.1102
ピー	-10.1107
53	-10.1107
お使いの	-10.1112
ノード	-10.1117
▁概要	-10.1117
▁ローマテルミニ	-10.1117
いかなる	-10.1118
意図	-10.1124
得る	-10.1126
焼き	-10.1126
一部の	-10.1131
伝説	-10.1132
▁更に	-10.1138
回路	-10.1145
バラ	-10.1146
法人	-10.115
エフェクト	-10.1154
保持	-10.1155
ことはできません	-10.1156
割	-10.1158
▁Mo	-10.1161
積	-10.1161
診断	-10.1163
の研究	-10.1171
けど	-10.1173
port	-10.1178
いただく	-10.1183
ボート	-10.1185
達が	-10.1191
PA	-10.1191
代わりに	-10.1192
いただけます	-10.1192
di	-10.1193
ダイアログ	-10.1193
に追加	-10.1194
としては	-10.1196
無料の	-10.1198
世代	-10.12
仲裁	-10.1202
州の	-10.1203
里	-10.1207
上海	-10.1209
新たに	-10.121
症状	-10.1212
兵	-10.1212
ng	-10.1212
名の	-10.1214
浮	-10.1218
支払	-10.1219
クラウド	-10.122
▁米国	-10.1223
▁ブレスレット	-10.1226
膜	-10.1228
する必要がある	-10.1229
調理	-10.1238
の状態	-10.1239
アルバム	-10.1243
の高さ	-10.1243
殿	-10.1245
最適化	-10.1246
洋	-10.1246
それから	-10.1247
法的	-10.1248
トランプ	-10.1249
なくて	-10.1254
紛争	-10.1258
貴重な	-10.1258
まる	-10.126
難	-10.126
豊富な	-10.1261
充電	-10.1262
型の	-10.1264
宣言	-10.1264
小型	-10.1268
nd	-10.1269
66	-10.1272
オバマ	-10.1272
コール	-10.1273
性の	-10.1276
ment	-10.1277
ディング	-10.1277
ゴルフ	-10.1279
暗号通貨	-10.1281
jp	-10.1283
られました	-10.1283
ou	-10.1286
彼女が	-10.1289
人々に	-10.1289
開発者	-10.129
遠	-10.1297
アップロード	-10.1298
The	-10.1301
昨年	-10.1303
半分	-10.1303
起こ	-10.1303
オイル	-10.1304
ぜひ	-10.1304
見られる	-10.1306
開示	-10.131
UN	-10.1314
ですね	-10.1316
2007	-10.1321
医学	-10.1322
Android	-10.1324
▁14	-10.1325
危機	-10.1329
支持	-10.1329
定期的に	-10.1335
さんの	-10.1335
52	-10.1336
少年	-10.1338
招待	-10.1338
に参加	-10.134
状態で	-10.134
▁24	-10.1348
会話	-10.1349
課	-10.1361
警察	-10.1361
美術	-10.1362
損傷	-10.1362
\	-10.1365
上げ	-10.1366
▁『	-10.1367
クロノグラフ	-10.1369
独立	-10.1371
リス	-10.1377
原料	-10.1378
束	-10.1383
ギリシャ	-10.1384
ut	-10.1384
選択肢	-10.1385
を選択する	-10.1387
のデータ	-10.139
アメリカの	-10.1396
ter	-10.1397
域	-10.1399
反対	-10.14
-5	-10.1401
LED	-10.1403
彼に	-10.1404
ゼータ	-10.1405
アップグレード	-10.1406
留学	-10.1406
でない	-10.1408
弊社は	-10.1413
復元	-10.1413
西暦	-10.1416
降	-10.1418
RI	-10.1419
損害	-10.1421
プロファイル	-10.1425
耳	-10.1427
苦	-10.1427
集中	-10.1431
工学	-10.1439
補助	-10.1439
ビジョン	-10.144
いません	-10.144
育	-10.1443
訪問者	-10.1446
手続き	-10.1447
証明	-10.1447
走	-10.1448
▁新	-10.1449
SO	-10.145
▁これが	-10.1454
ステ	-10.1458
世界で	-10.1461
自転車	-10.1464
ゾーン	-10.1479
ee	-10.148
ップ	-10.148
ウィ	-10.1481
ジャー	-10.1497
始まり	-10.1499
▁このように	-10.1505
多様な	-10.1515
娘	-10.1517
更に	-10.1519
劇場	-10.152
2010	-10.1523
約束	-10.1524
作用	-10.1529
そこで	-10.1531
治	-10.1532
蔵	-10.1532
▁f	-10.1533
ロレックス	-10.1534
加速	-10.1537
一致	-10.1539
オリンピック	-10.1542
工程	-10.1543
Bitcoin	-10.1543
クロス	-10.1543
子ども	-10.1547
解釈	-10.1556
関係者	-10.1564
は何	-10.1565
振動	-10.1565
諸	-10.1567
×	-10.1569
をもって	-10.157
マーカー	-10.157
軍事	-10.1577
面積	-10.1577
グラ	-10.1578
を開く	-10.1581
創	-10.1581
新鮮な	-10.1582
の動画	-10.1586
...€	-10.1587
森林	-10.159
62	-10.1591
下記の	-10.1592
単語	-10.1595
ホイヤー	-10.1597
寺院	-10.1598
が多い	-10.1598
絶	-10.16
史	-10.16
圏	-10.1602
▁詳細	-10.1604
大陸	-10.1604
場合に	-10.1614
宝	-10.1615
を受ける	-10.1616
▁ヘルプ	-10.1616
5%	-10.1618
リード	-10.1621
▁2012	-10.1623
ようになった	-10.1626
コンサート	-10.1626
放送	-10.1627
早	-10.1631
飛行機	-10.1631
予算	-10.1634
ヴァ	-10.1647
▁無料	-10.1657
楽しみ	-10.1662
▁ステップ	-10.1663
を使用すると	-10.1663
を用いた	-10.1665
合計	-10.1668
si	-10.1668
ものではありません	-10.1668
無線	-10.1669
やすく	-10.1674
字	-10.1674
香	-10.1676
高さ	-10.1677
の場所	-10.1677
の人々	-10.1678
静	-10.1683
報	-10.1685
ポスト	-10.1688
まり	-10.1689
もまた	-10.1691
シティ	-10.1692
単	-10.1695
安全保障	-10.1695
始め	-10.1696
統一	-10.1698
衝突	-10.1699
の向上	-10.17
乱	-10.1701
にアクセス	-10.171
思い出	-10.1711
規模	-10.1714
していません	-10.1721
を変更	-10.1723
pe	-10.1724
ハードウェア	-10.1727
明るい	-10.1731
インフラ	-10.1732
近くの	-10.1733
bi	-10.1738
日まで	-10.174
本サイト	-10.1741
民間	-10.1741
ことになります	-10.1743
LIMU	-10.1746
のだ	-10.1747
一方で	-10.1748
に入る	-10.1748
我々が	-10.1749
頻繁に	-10.1749
と述べた	-10.175
破損	-10.175
EL	-10.1752
証	-10.1752
私達	-10.1753
ina	-10.1758
伝	-10.1766
居	-10.177
屋根	-10.1771
他に	-10.1774
ミックス	-10.1775
樹	-10.1775
ヒト	-10.1778
に合わせて	-10.1783
エディター	-10.1789
より良い	-10.179
洗浄	-10.1796
変動	-10.1798
ton	-10.1799
目に	-10.1805
をご	-10.1807
95	-10.1809
複数	-10.1812
族	-10.1813
可	-10.1813
端末	-10.1815
トルコ	-10.1822
手紙	-10.1822
シミュレーション	-10.1824
働き	-10.1825
軽	-10.1827
手に	-10.1828
援助	-10.1828
訳	-10.183
ッド	-10.1831
の特徴	-10.1834
RA	-10.1838
柱	-10.1839
使用される	-10.184
地下	-10.1843
2003	-10.1843
チャンス	-10.1843
将来の	-10.1844
天気	-10.1844
を引き	-10.1846
NA	-10.1848
財団	-10.1853
寝	-10.1858
搭載	-10.1859
皆	-10.1866
グラフ	-10.187
個人情報を	-10.1873
In	-10.1874
▁ゼータ	-10.1879
かつて	-10.1883
済み	-10.1884
メソッド	-10.1885
込まれ	-10.1888
はすべて	-10.1889
ak	-10.189
耐	-10.189
ソー	-10.1892
ワーク	-10.1892
ほ	-10.1894
今回の	-10.1897
set	-10.1897
の生活	-10.1898
百	-10.1899
挿入	-10.1905
まれ	-10.1908
得	-10.1909
bo	-10.191
利用可能な	-10.1911
収益	-10.1912
仕上げ	-10.1912
なければ	-10.1916
クリーム	-10.1916
お店	-10.192
パラ	-10.1924
われ	-10.1925
▁2011	-10.1925
主要	-10.1926
事前	-10.1928
ワー	-10.1928
信仰	-10.1928
北極	-10.1928
▁製品	-10.1931
生地	-10.1931
演	-10.1936
老	-10.1939
厳しい	-10.1945
快適な	-10.1945
話を	-10.195
ストラップ	-10.1951
を感じ	-10.1957
編	-10.196
レート	-10.1963
息子	-10.1967
湾	-10.1967
られています	-10.1971
視	-10.1972
することによって	-10.1974
プロモーション	-10.1975
の活動	-10.1976
持	-10.1984
事前に	-10.1985
形態	-10.1988
シンボル	-10.1993
EC	-10.1993
特定	-10.1993
粒子	-10.1994
プライバシー	-10.1997
実践	-10.1998
▁13	-10.1999
▁Wiki	-10.2
po	-10.2003
をインストール	-10.2005
歩	-10.2011
スタンプ	-10.2012
アリ	-10.2012
誰も	-10.2015
プラスチック	-10.2016
スコア	-10.2021
LINE	-10.2022
富	-10.2023
he	-10.2023
気圧	-10.2024
手数料	-10.2026
泊	-10.203
気が	-10.2032
が多く	-10.2032
画像は	-10.2035
LA	-10.2039
St	-10.2039
オペレーティングシステム	-10.2039
正確に	-10.2046
67	-10.2048
に基づき	-10.2051
キャンプ	-10.2052
北京	-10.2053
するのは	-10.2053
を行って	-10.2056
姿	-10.2063
の可能性	-10.2066
羽	-10.2066
当時	-10.2071
打ち	-10.2071
▁ご注文	-10.2078
現場	-10.208
▁30	-10.208
興味深い	-10.2082
自分が	-10.2084
▁中国	-10.2085
ve	-10.2086
▁私達	-10.2087
からの送迎	-10.209
ーション	-10.2091
ビン	-10.2091
▁次の	-10.2094
数は	-10.2095
ション	-10.2095
固	-10.21
市の	-10.21
相談	-10.21
当サイト	-10.2102
適切に	-10.2103
を選択	-10.2106
2011	-10.2107
が含まれます	-10.2108
遊	-10.2108
仕事を	-10.2109
皆さん	-10.2111
本社	-10.2112
にして	-10.2112
tube	-10.2114
マレーシア	-10.2115
活躍	-10.2117
印象	-10.2117
チベット	-10.2123
ていて	-10.2127
整備	-10.2127
シングル	-10.2127
徐々に	-10.2128
ロス	-10.2129
日本で	-10.213
掛け	-10.2136
ファー	-10.2138
スイス	-10.2138
▁Al	-10.2144
ラム	-10.2146
反射	-10.2146
オブ	-10.2149
何らかの	-10.2149
mon	-10.2155
ip	-10.2155
DI	-10.2157
で最も	-10.2158
1)	-10.2158
主な	-10.2163
当たり	-10.2163
オランダ	-10.2164
分割	-10.2164
協定	-10.2165
しよう	-10.2166
有機	-10.2168
ものの	-10.2168
を高める	-10.217
普通	-10.2171
極めて	-10.2175
伝え	-10.2177
▁Wikia	-10.2179
恐怖	-10.2181
▁エ	-10.2184
kg	-10.2185
政	-10.2191
隊	-10.2191
政府の	-10.2194
78	-10.2196
ミス	-10.2199
log	-10.221
筋	-10.2211
41	-10.2212
なって	-10.2212
相互	-10.2213
は常に	-10.2213
利用できる	-10.2214
初の	-10.222
ポンプ	-10.222
ec	-10.222
パック	-10.2221
業者	-10.2223
ドライバー	-10.2223
ご利用	-10.2225
すぎる	-10.2226
スイッチ	-10.2228
に位置し	-10.223
Adobe	-10.2233
条約	-10.2234
Wi	-10.2236
の色	-10.2237
なしで	-10.2244
運	-10.2247
づくり	-10.2248
ci	-10.2249
社長	-10.2252
に関する情報	-10.2253
価	-10.2255
チン	-10.2255
へのリンク	-10.2258
を利用する	-10.2261
者に	-10.2263
底	-10.2264
電流	-10.2269
ラウンド	-10.227
機能を	-10.2271
▁まず	-10.2272
ka	-10.2272
om	-10.2273
授業	-10.2273
組み合わせ	-10.2275
体の	-10.228
▁Av	-10.2281
照明	-10.2284
磁	-10.2286
数値	-10.2286
ファイ	-10.2288
フィルム	-10.2289
せず	-10.229
ロゴ	-10.2292
現地	-10.2292
▁従って	-10.2292
破	-10.2293
共	-10.2296
ess	-10.2302
部分をタップし	-10.2305
合金	-10.2305
NASA	-10.2307
印	-10.2307
Wallpapers	-10.2311
▁—	-10.2315
▁CGI	-10.2317
規格	-10.2319
▁Di	-10.232
グリ	-10.232
ヒント	-10.2321
犯罪	-10.2323
だけです	-10.2332
胸	-10.2333
海岸	-10.2336
見える	-10.234
▁コマンド	-10.2341
高度	-10.2346
発電	-10.2348
休	-10.2348
nt	-10.2351
事を	-10.2354
ウェイ	-10.2358
経路	-10.2361
スケール	-10.2362
pro	-10.2363
69	-10.2363
改革	-10.2363
出て	-10.2364
エア	-10.237
を楽しむ	-10.237
むしろ	-10.237
にわたって	-10.237
対話	-10.2372
を表示します	-10.2373
間で	-10.2374
汚染	-10.2377
フォ	-10.238
話す	-10.238
ミン	-10.2384
が始まった	-10.2385
に近い	-10.2395
放	-10.2398
つまり	-10.2399
項	-10.24
回答	-10.2402
縁	-10.2404
若	-10.241
▁本日	-10.2418
ni	-10.2419
インタビュー	-10.242
順序	-10.242
ast	-10.2421
アフガニスタン	-10.2426
ポールシフト	-10.2427
サイクロン	-10.243
Wiki	-10.243
スパ	-10.2431
の一	-10.2431
▁»	-10.2439
講演	-10.244
エクスポート	-10.2446
になると	-10.2449
京	-10.2452
六	-10.2455
お客様が	-10.2456
PDF	-10.2456
衝撃	-10.2457
▁17	-10.2461
盛	-10.2463
分散	-10.2473
ないこと	-10.2475
資格	-10.2479
科学技術	-10.248
魅力的な	-10.2482
すなわち	-10.2486
人達	-10.2486
品種	-10.2489
に接続	-10.2497
最小	-10.2498
のひとつ	-10.2501
ダム	-10.2504
ストア	-10.2505
こそ	-10.2505
交渉	-10.2506
ぐらつき	-10.2506
▁Research	-10.2508
チャー	-10.2513
成果	-10.2513
を知る	-10.2515
許	-10.2516
もはや	-10.2517
分野で	-10.2518
リモート	-10.2522
活動を	-10.2523
共通	-10.2531
通販	-10.2544
イノベーション	-10.2545
懸念	-10.2546
が高い	-10.2547
向き	-10.2549
場合によっては	-10.255
優先	-10.2551
民族	-10.2552
ce	-10.2554
オメガ	-10.2561
イラク	-10.2562
スタジオ	-10.2566
2006	-10.2567
的で	-10.2568
李	-10.2573
の各	-10.2574
回収	-10.2574
結び	-10.2575
きて	-10.258
に関しては	-10.258
営	-10.2584
弊社	-10.2585
投げ	-10.2585
120	-10.2588
祈り	-10.2589
新聞	-10.259
チェーン	-10.2591
▁そのような	-10.2592
に向かって	-10.2592
さんは	-10.2595
たちの	-10.2606
時刻	-10.2606
▁でも	-10.2608
の木	-10.2611
商	-10.2612
ty	-10.2615
予防	-10.2619
大学の	-10.2621
建	-10.2625
システムは	-10.2625
作家	-10.2627
会長	-10.2627
終わり	-10.2627
国境	-10.2627
概要	-10.2629
を購入する	-10.2629
2005	-10.263
防水	-10.2637
基礎	-10.2637
tion	-10.2638
出版	-10.2638
もう一つの	-10.2641
したら	-10.2641
トル	-10.2642
完璧な	-10.2644
リム	-10.2644
ても	-10.2645
ix	-10.2648
致しました	-10.2649
盤	-10.265
▁プロジェクト	-10.2657
するよう	-10.2659
日本時間	-10.2659
▁通常の	-10.2664
フィルタ	-10.2665
▁最後に	-10.2666
の新しい	-10.2668
イギリス	-10.2671
違反	-10.2672
関	-10.2673
IR	-10.2677
の管理	-10.2677
▁それから	-10.2683
網	-10.2684
▁PDF	-10.2685
ドン	-10.269
HA	-10.2691
96	-10.2691
理由は	-10.2697
にする	-10.2698
眠	-10.2699
影	-10.2704
自分で	-10.2704
プライベート	-10.2709
コック	-10.2715
次に	-10.272
ようになりました	-10.2721
プラス	-10.2721
いつ	-10.2723
MB	-10.2726
詩	-10.2732
-4	-10.2732
▁日本の	-10.274
ive	-10.2742
丘	-10.2744
しようと	-10.2745
たちが	-10.2747
CM	-10.2747
セックス	-10.275
▁2010	-10.2754
ストレス	-10.2755
▁~	-10.2756
ことから	-10.2756
社会的	-10.2757
にいる	-10.2758
考える	-10.2761
着用	-10.2762
七	-10.2763
▁詳しくは	-10.2772
本当の	-10.2773
度の	-10.2783
などが	-10.2786
世界遺産	-10.279
してきました	-10.2792
方が	-10.2792
ルド	-10.2795
,5	-10.2795
の説明	-10.2797
刺激	-10.2798
の発展	-10.2799
を参照	-10.28
割り当て	-10.28
徒歩	-10.2802
powered	-10.2803
議会	-10.2804
able	-10.2806
に参加する	-10.2811
のウェブサイト	-10.2813
有効	-10.2813
どこに	-10.2814
分類	-10.2815
がある場合	-10.2815
侵害	-10.2817
であることを	-10.2825
出来事	-10.2826
▁FANDOM	-10.2827
ミッション	-10.2828
72	-10.2829
当局	-10.283
ベルト	-10.2832
プリセット	-10.2836
不足	-10.2839
除去	-10.284
に保存	-10.2842
900	-10.2843
画面上	-10.2848
プレ	-10.2848
▁データ	-10.2848
と同時に	-10.2849
土壌	-10.2849
今後の	-10.2855
掲載	-10.2855
日常	-10.2855
歩いて	-10.2856
島の	-10.2862
鍋	-10.2862
を再	-10.2864
っと	-10.2866
天候	-10.2867
サイクル	-10.2867
口座	-10.2868
ラジオ	-10.2869
-8	-10.2869
を実現	-10.2869
押	-10.2871
獲得	-10.2874
ケーキ	-10.2876
を行いました	-10.2879
続く	-10.288
が必要な	-10.2881
夏の	-10.2883
▁同	-10.2884
藤	-10.2886
DB	-10.2889
無効	-10.2889
輸入	-10.289
Com	-10.2897
ものと	-10.2898
▁チャーム	-10.2903
ga	-10.2903
解説	-10.2907
を指定します	-10.2908
置	-10.2909
利点	-10.2914
ドメイン	-10.2916
に特化し	-10.2917
に含まれる	-10.2918
頼	-10.292
ハー	-10.2924
if	-10.2926
▁This	-10.2933
聖書	-10.2936
▁Se	-10.2936
誌	-10.2936
の違い	-10.2936
説	-10.2938
ドレス	-10.2939
ノイズ	-10.2939
腕	-10.2941
用意	-10.2942
2020	-10.2943
政府は	-10.2943
を入力します	-10.2948
株式	-10.2949
行って	-10.2953
戻	-10.2955
サービスを	-10.2955
環境変数	-10.296
▁日付	-10.296
害	-10.296
メンズ	-10.2963
人材	-10.2964
花屋	-10.2964
便利な	-10.2966
社は	-10.2968
るか	-10.297
製品は	-10.2971
情報は	-10.2975
CH	-10.2977
切れ	-10.2978
車種	-10.2984
なっている	-10.2986
トピック	-10.2987
歳の	-10.2988
の情報	-10.299
シャワー	-10.2991
IE	-10.2992
クス	-10.2992
lu	-10.2992
時代に	-10.2993
タンパク質	-10.2998
住所	-10.3
まったく	-10.3002
決済	-10.3002
94	-10.3002
実績	-10.3002
ヤン	-10.3003
向けの	-10.3003
GA	-10.3003
るべき	-10.3004
iz	-10.3004
ボディー	-10.3008
ドラム	-10.3012
不安	-10.3015
羊	-10.3021
パーティー	-10.3022
MIDI	-10.3024
が有名	-10.3026
社員	-10.3026
とか	-10.3029
ED	-10.3032
在庫	-10.3038
のページをご覧ください	-10.3039
レッド	-10.3043
▁当	-10.3044
誰か	-10.3044
▁6.	-10.3045
栄養	-10.3045
od	-10.3048
を選択して	-10.3049
DS	-10.3053
レッスン	-10.3059
イスラエル	-10.3061
ばかり	-10.3063
川の	-10.3064
sp	-10.3065
著者	-10.3066
▁Onlinesaleus	-10.3066
感じる	-10.3068
ホームページ	-10.307
彩	-10.3071
するのに	-10.3073
ほう	-10.3073
発信	-10.3073
食べ	-10.3076
ヘッダ	-10.308
クリア	-10.3083
製品を	-10.3083
乗り	-10.3084
der	-10.3085
フォト	-10.3095
は本当に	-10.3098
97	-10.3098
地上	-10.3099
などで	-10.31
柄	-10.3101
つつ	-10.3102
地元	-10.3102
酸化	-10.3104
ート	-10.3106
毎	-10.3106
ner	-10.3111
ところで	-10.3114
ご予約	-10.3115
ランキング	-10.3117
確信	-10.3119
シナリオ	-10.3129
実証	-10.3132
ハワイ	-10.3135
▁Li	-10.3138
端子	-10.3138
免疫	-10.3141
°	-10.3143
と呼ばれ	-10.3144
あたり	-10.3144
菌	-10.3151
差し	-10.3152
COM	-10.3156
さない	-10.3158
以前の	-10.3162
公共	-10.3165
No	-10.3166
接触	-10.3167
クル	-10.3173
con	-10.3174
アドバイス	-10.3176
があれば	-10.3177
審査	-10.3178
古代の	-10.3178
あなたがた	-10.318
勉強	-10.3181
下に	-10.3182
のおかげで	-10.3186
を使用した	-10.3187
メンテナンス	-10.3191
およそ	-10.3191
DO	-10.3193
を支援する	-10.3193
ていきます	-10.3196
離れて	-10.32
▁c	-10.3202
カラ	-10.3202
焦点	-10.3203
を食べる	-10.3204
報告書	-10.3206
De	-10.3207
so	-10.3209
だけが	-10.3209
ムーブメント	-10.3211
普及	-10.3212
岡	-10.3215
製の	-10.3221
糖	-10.3221
角度	-10.3224
概念	-10.3224
荷物	-10.3224
を必要とする	-10.3225
朝食	-10.3227
しなかった	-10.3233
ユーザーは	-10.3234
ためには	-10.3234
57	-10.3237
想像	-10.3238
700	-10.3241
資本	-10.3246
メント	-10.3248
ゼロ	-10.3248
▁2.4	-10.3251
クリスマス	-10.3254
負担	-10.3255
個人的な	-10.3257
Su	-10.3259
原則	-10.326
連邦	-10.3261
お勧め	-10.3268
ストレージ	-10.327
歓迎	-10.3273
彼等は	-10.3279
政権	-10.328
遊び	-10.3282
時間は	-10.3282
ものに	-10.3288
一覧表	-10.3288
個人情報を使用します	-10.329
研究開発	-10.3292
忘れ	-10.3292
撮	-10.3293
溝	-10.3294
ポー	-10.3295
をより	-10.3297
を促進する	-10.3299
それらは	-10.3299
を削除	-10.33
繰り返し	-10.3301
LI	-10.3302
猫	-10.3307
の重要性	-10.3309
無視	-10.3311
ミー	-10.3313
に表示されます	-10.3314
主催	-10.3316
のメンバー	-10.3326
▁これらは	-10.333
名様	-10.3334
モー	-10.3335
BR	-10.3337
られない	-10.3341
もなく	-10.3342
偽	-10.3342
が装備されています	-10.3342
挑戦	-10.3343
報酬	-10.3347
を進め	-10.335
値を	-10.3351
強制的に	-10.3354
香り	-10.3354
なくても	-10.3356
られて	-10.3357
ドゥ	-10.3363
ティング	-10.337
大学院	-10.337
たくさん	-10.3373
疲れ	-10.3377
このように	-10.3377
方向に	-10.338
以内	-10.3381
ゲームの	-10.3388
計測	-10.3391
−	-10.3391
の後に	-10.3393
眼	-10.3394
該当する	-10.3395
ue	-10.3397
人を	-10.3399
後で	-10.3401
ブラジル	-10.3402
▁b	-10.3402
に位置する	-10.3402
防衛	-10.3403
水を	-10.3404
航空機	-10.3405
はるかに	-10.3408
暗い	-10.341
NE	-10.3412
周	-10.3416
彼を	-10.3416
らしい	-10.3417
を獲得	-10.3418
51	-10.3419
まま	-10.3419
過去に	-10.342
久	-10.3422
くらい	-10.3426
パラメーター	-10.3426
-7	-10.3426
長い間	-10.3428
ide	-10.3428
至	-10.343
タル	-10.3432
目の	-10.3438
吹き	-10.3438
仕組み	-10.3439
にあった	-10.3441
近い	-10.3443
の表示	-10.3446
推定	-10.3448
生まれた	-10.3449
志	-10.3453
券	-10.3453
使用できます	-10.3455
ようだ	-10.3455
陰	-10.3455
はず	-10.3456
の経験	-10.3459
においては	-10.3459
人物	-10.3461
含まれ	-10.3464
レーション	-10.3465
Realm	-10.3467
関連する	-10.3467
の提供	-10.3467
短	-10.3469
幸せ	-10.3469
第二	-10.347
直径	-10.3471
ケー	-10.3472
強度	-10.3474
兄弟	-10.3474
▁株式会社	-10.3475
再度	-10.3486
Hoimi	-10.3498
を求める	-10.3499
まとめ	-10.3499
ようと	-10.3503
沈	-10.3503
を感じる	-10.3505
打	-10.3506
ナビゲーション	-10.3508
地帯	-10.351
▁図	-10.3511
独	-10.3514
-0	-10.3516
2.	-10.3525
国々	-10.353
▁To	-10.3532
77	-10.3534
NI	-10.3534
ver	-10.3537
98	-10.3542
市場の	-10.3545
を設定	-10.3546
FA	-10.3548
▁Twitter	-10.355
▁京都	-10.3552
一連の	-10.3555
類似	-10.3555
津	-10.3556
ずに	-10.3562
pa	-10.3565
をして	-10.3565
君	-10.3569
始めた	-10.357
位置に	-10.3572
所有	-10.3574
識別	-10.3575
を保護します	-10.3576
側の	-10.3578
eng	-10.3581
様式	-10.3584
最適な	-10.3589
▁この場合	-10.3593
技術の	-10.3593
ストリート	-10.3594
♡	-10.3594
当事者	-10.3597
貴	-10.3598
PR	-10.3599
エジプト	-10.36
関連しています	-10.36
となって	-10.3602
アクセサリー	-10.3603
覚	-10.3604
のリスト	-10.3604
ぞ	-10.3605
くる	-10.3611
▁当施設は	-10.3612
ヒラリー	-10.3613
解決策	-10.3615
ブリ	-10.3615
>	-10.3615
遅れ	-10.3616
立て	-10.3619
現れ	-10.362
鍵	-10.3621
分け	-10.3628
連合	-10.3632
▁API	-10.3633
ブック	-10.3633
脅威	-10.3634
痛	-10.3634
負	-10.3635
全部	-10.3635
▁支払い	-10.3637
させます	-10.3646
お客様は	-10.3653
考えて	-10.3655
はとても	-10.3657
ナノ	-10.3657
top	-10.366
ピンク	-10.366
受賞	-10.3662
設立	-10.3663
記号	-10.3664
重力	-10.3667
Fandom	-10.3671
▁イベント	-10.3671
ご自身で	-10.3672
もあり	-10.3675
ものが	-10.3676
▁サイトマップ	-10.3676
簡単	-10.3678
▁Maps	-10.368
用語	-10.3682
our	-10.3682
お茶	-10.3683
息	-10.3685
カ国	-10.3688
les	-10.3689
▁詳しくはこちら	-10.3689
予定です	-10.3689
水準	-10.3692
をダウンロード	-10.3693
振り	-10.3693
気分	-10.3696
寄	-10.3697
消	-10.3701
求め	-10.3703
会合	-10.3704
プレビュー	-10.3705
念	-10.3705
レベルで	-10.3706
を食べ	-10.3707
ot	-10.3709
時頃	-10.3709
一定料金	-10.3714
働く	-10.3714
ロシアの	-10.3717
利用規約	-10.3723
JP	-10.3725
返金	-10.3726
んでいる	-10.3727
条項	-10.3727
光の	-10.373
出した	-10.373
込んで	-10.3732
閉じ	-10.3733
有効な	-10.3734
新しく	-10.3734
私たちに	-10.3735
jav	-10.3736
セグメント	-10.3736
ギフト	-10.3738
一般の人々	-10.3738
ループ	-10.3738
格	-10.3739
に達する	-10.3743
は約	-10.3743
異常	-10.3745
財務	-10.3746
棒	-10.3747
ana	-10.3748
解像度	-10.375
空の	-10.375
旨	-10.3752
異なる場合があります	-10.3752
キーワード	-10.3754
であるか	-10.3756
宿	-10.3759
フォント	-10.3759
繊維	-10.376
付属	-10.3761
使用することができます	-10.3763
循環	-10.3769
Videos	-10.3769
アーカイブ	-10.377
▁ただ	-10.377
込んだ	-10.3777
策	-10.3778
グループは	-10.3779
学び	-10.3781
人気の	-10.3784
お支払い	-10.3786
列車	-10.3787
散	-10.3789
配送	-10.3798
ust	-10.3799
程	-10.38
ant	-10.3805
修	-10.3808
▁安全性	-10.3809
指摘	-10.381
移住	-10.3819
の一つです	-10.382
che	-10.382
引数	-10.3822
の機能	-10.3832
駆動	-10.3833
降り	-10.3834
トー	-10.3836
ホテルの	-10.3836
ボリューム	-10.3841
代替	-10.3842
においても	-10.3848
仕	-10.3852
に従い	-10.3853
61	-10.3855
キャッシュ	-10.3855
ジャンル	-10.3856
メリット	-10.3856
▁新着	-10.3857
を取得する	-10.3859
スク	-10.3862
過ぎ	-10.3871
TS	-10.3873
写真を	-10.3873
洗	-10.3874
を開始	-10.3879
ベイ	-10.3885
使	-10.3886
76	-10.3889
駐車場	-10.3889
したもの	-10.389
くなる	-10.3892
誰もが	-10.3894
out	-10.3896
チーズ	-10.3896
払	-10.3896
▁しかしながら	-10.3899
2009	-10.3899
▁今日	-10.39
若者	-10.3904
こうした	-10.3904
整理	-10.3905
分解	-10.391
があって	-10.3919
貸	-10.3919
権力	-10.3922
提供することです	-10.3922
切り替え	-10.3924
レーザー	-10.3925
せずに	-10.3928
案内	-10.3928
行政	-10.3929
例外	-10.3932
要請	-10.3932
聴	-10.3933
安全システム	-10.3936
物体	-10.3937
を学ぶ	-10.3939
先に	-10.3941
持っている	-10.3942
自然の	-10.3943
ができる	-10.3944
残りの	-10.3946
と言って	-10.3949
を使用し	-10.3949
属性	-10.395
情	-10.395
離れた	-10.3951
厚	-10.3953
はずです	-10.3955
情報の	-10.3956
org	-10.3961
シア	-10.3964
に達し	-10.3965
シリア	-10.3965
提携	-10.3966
時点で	-10.397
霧	-10.3972
食べる	-10.3974
生徒	-10.3975
大気	-10.3976
▁記事	-10.3978
洞窟	-10.3978
続ける	-10.398
の大	-10.398
▁on	-10.3985
の概要	-10.3986
積極的に	-10.3989
結論	-10.3991
備え	-10.3994
と思った	-10.3994
800	-10.3994
▁SE	-10.3995
消え	-10.3996
収入	-10.3998
写	-10.4005
ページに	-10.4006
観客	-10.4006
以前に	-10.4007
を提示します	-10.4008
ub	-10.4009
オリ	-10.401
面白い	-10.4012
彼らに	-10.4012
撃	-10.4016
データは	-10.4019
効果的な	-10.402
ッチ	-10.4021
の製造	-10.4022
サステナビリティ	-10.4023
(1	-10.4023
飛び	-10.4026
以外	-10.4026
原子	-10.4027
確実に	-10.403
ist	-10.4031
プレートの	-10.4033
世界に	-10.4034
強調	-10.4034
磁気	-10.4036
パートナーシップ	-10.4037
ゲート	-10.4041
89	-10.4043
を確保します	-10.4046
多い	-10.4048
だけの	-10.4048
につながる	-10.4049
を助ける	-10.4051
小さく	-10.4052
を体験	-10.4054
腕時計	-10.4056
カレンダー	-10.4059
依頼	-10.406
突	-10.406
▁以下の	-10.406
の動き	-10.4063
させること	-10.4065
ステータス	-10.4075
いただき	-10.408
純	-10.408
公表	-10.4081
眺め	-10.4081
▁ジャパン	-10.4081
デバイスの	-10.4081
を選ぶ	-10.4084
及び携帯電話	-10.4087
リオ	-10.4089
多くの場合	-10.409
ダブル	-10.4092
▁彼等は	-10.4096
sc	-10.4098
参考	-10.4103
ものとします	-10.4106
トランス	-10.4106
暖かい	-10.4107
ヨーロッパの	-10.4109
気候変動	-10.4109
▁レンタル料金	-10.4113
そんな	-10.4114
報道	-10.4114
▁最初の	-10.4118
マネージャー	-10.4119
▁弊社が提供する	-10.4123
人民	-10.4123
za	-10.4124
必須	-10.4124
チャン	-10.4124
を追加する	-10.4126
▁France	-10.4127
チームは	-10.4129
当初	-10.413
雑誌	-10.4136
ベー	-10.4137
の生産	-10.4141
知られている	-10.4144
キャプチャ	-10.4145
USB	-10.4148
モーター	-10.4151
もっとも	-10.4152
▁全ての車に	-10.4152
最も重要な	-10.4153
宣伝	-10.4153
墓	-10.4155
活性化	-10.4155
マニュアル	-10.4157
フォルダー	-10.4158
エンド	-10.4158
フラッシュ	-10.4159
時々	-10.4163
TI	-10.4164
ite	-10.4167
ゆっくりと	-10.4168
OP	-10.417
を行っています	-10.4171
武器	-10.4174
始める	-10.4183
▁Share	-10.4184
が高く	-10.4185
mp	-10.4189
衛生	-10.4189
考え方	-10.4189
それらが	-10.419
宗	-10.4191
、30	-10.4192
カリ	-10.4192
タイミング	-10.4193
抱	-10.4196
植物および	-10.4196
に属しています	-10.4197
修理	-10.4202
昨日	-10.4203
II	-10.421
津波	-10.4211
屋外	-10.4213
するという	-10.4215
私達のチームは	-10.4216
ギフトのバスケット	-10.4218
募集	-10.4219
スケジュール	-10.422
もう一度	-10.4222
汚れ	-10.4225
取る	-10.4226
をご覧いただけます	-10.4226
watches	-10.4228
tal	-10.423
黄色	-10.423
朝鮮	-10.4232
願	-10.4233
HO	-10.4235
ki	-10.4236
不可能	-10.4237
間違い	-10.4237
早期	-10.4237
共和国	-10.424
▁カ国以上の	-10.4241
▁プロの花屋の	-10.4247
の素晴らしい顧客サービス	-10.4248
このファイルは	-10.4248
のレベル	-10.4249
する主要な国際	-10.4251
品質の花	-10.4252
レシピ	-10.4253
なか	-10.4254
に設定	-10.4255
特殊	-10.4258
タッチ	-10.4259
をした	-10.426
OR	-10.4261
ここでは	-10.4262
SM	-10.4263
真の	-10.4264
を備えた	-10.4266
Pro	-10.4266
ack	-10.4266
為	-10.4268
に直接	-10.4272
混合	-10.4273
投	-10.4274
?」	-10.4277
できること	-10.4277
▁いくつかの	-10.428
アス	-10.4281
を使い	-10.4281
泥	-10.4282
テル	-10.4283
てくれる	-10.4284
拡張子を持つファイルを	-10.4285
やかな	-10.4286
帰	-10.4288
すぎ	-10.4289
min	-10.429
▁システム	-10.429
をクリックすると	-10.4292
フィレンツェ	-10.4292
を用意しました	-10.4294
心臓	-10.4295
吸収	-10.4297
助	-10.4297
かす	-10.43
ストーリー	-10.4301
続き	-10.4301
戸	-10.4302
脂肪	-10.4303
▁は世界中の	-10.4303
ライフ	-10.4305
デフォルト	-10.4307
学部	-10.4308
em	-10.4308
というのは	-10.4308
3/	-10.4309
観光情報	-10.431
スープ	-10.4311
su	-10.4311
把握	-10.4314
を求め	-10.4314
いわゆる	-10.4315
開く	-10.4318
中間	-10.4319
起こった	-10.4322
下で	-10.4322
ca	-10.4326
Fiumicino	-10.4327
奥	-10.4329
を達成	-10.4332
ておりました	-10.4332
プライバシーに関するお知らせ	-10.4333
競技	-10.4336
アニメーション	-10.4336
欲しいものリストを	-10.4337
JFS	-10.4339
だけではなく	-10.4339
来て	-10.4339
サル	-10.4342
荷物を運ぶ	-10.4342
ポケット	-10.4348
物の	-10.435
確立	-10.435
安い	-10.4352
ストリーム	-10.4352
絵画	-10.4352
ts	-10.4353
今後も	-10.4354
済	-10.4356
ドー	-10.4357
甘い	-10.4357
に変更	-10.4358
してから	-10.4359
派生的	-10.4362
化された	-10.4366
閉鎖	-10.4367
クラシック	-10.4372
にとり	-10.4375
ナン	-10.4376
今回	-10.4376
これから	-10.4377
外交	-10.4379
エコ	-10.4379
をクリック	-10.438
革	-10.4381
の距離	-10.4383
結果として	-10.4384
市場で	-10.4385
残り	-10.4387
を示します	-10.4388
液体	-10.4389
ミング	-10.439
dy	-10.439
築	-10.4391
プッシー	-10.4391
辺	-10.4392
CL	-10.4394
崩壊	-10.4394
gi	-10.4395
指標	-10.4398
属	-10.4399
車で	-10.4399
プログラムは	-10.44
リアル	-10.44
てしまう	-10.4403
数の	-10.4404
革新的な	-10.4404
パーク	-10.4406
具体的な	-10.4407
シェル	-10.4408
We	-10.4409
大使	-10.441
沖縄	-10.4412
寸法	-10.4412
行われ	-10.4412
デー	-10.4413
持続可能な	-10.4413
装	-10.4414
チャネル	-10.4416
63	-10.4417
キーボード	-10.4417
女優	-10.4419
調達	-10.4422
あなたを	-10.4422
アンド	-10.4423
現状	-10.4425
司	-10.4425
水素	-10.4428
大手	-10.4433
沿岸	-10.4441
ステーション	-10.4444
HTML	-10.4446
サプライヤー	-10.4452
リンチェンドルジェ	-10.4453
▁いいえ	-10.4456
基金	-10.4459
ep	-10.4459
ボランティア	-10.446
さらなる	-10.446
自由に	-10.446
ないので	-10.4461
82	-10.4461
のサポート	-10.4463
電池	-10.4463
250	-10.4464
"(	-10.4465
算	-10.4468
週末	-10.4469
研究室	-10.447
所で	-10.447
炭素	-10.4472
グラム	-10.4473
平成	-10.4475
スタン	-10.4475
インターフェース	-10.4481
を得	-10.4483
を残し	-10.4484
が表示され	-10.4485
の方	-10.4485
彼等が	-10.4485
▁我々について	-10.4486
84	-10.4487
以内に	-10.4487
を含め	-10.4488
詳細な	-10.449
豆	-10.4491
厳密には	-10.4495
回数を	-10.4496
荒	-10.4496
吉	-10.4502
▁Gmail	-10.4502
使用できる	-10.4505
ワールド	-10.4507
していて	-10.451
雄	-10.4513
を引き起こす	-10.4513
を置く	-10.4519
楽器	-10.452
▁Xhamster	-10.4521
盛り	-10.4524
負荷	-10.4524
発生する	-10.4525
の時間	-10.4527
命令	-10.4535
互いに	-10.4537
果	-10.4538
▁一時間	-10.454
指導者	-10.4543
習慣	-10.4547
術	-10.4552
巻き	-10.4552
くまなく	-10.4553
取引所	-10.4556
ier	-10.4559
まるで	-10.4559
pi	-10.456
を入れ	-10.4561
固定価格で	-10.4561
ランク	-10.4561
エイ	-10.4563
することです	-10.4563
山々	-10.4563
微	-10.4564
ドラッグ	-10.4564
に関連していること	-10.4566
ud	-10.4567
緑の	-10.4567
臨	-10.4567
問	-10.4568
自分の名前で	-10.4571
Javynow	-10.4572
安心	-10.4575
増え	-10.4578
RC	-10.4579
public	-10.4579
荷	-10.4581
ミラノやその	-10.4583
周辺において	-10.4584
腹	-10.4584
不正	-10.4585
しなければなりません	-10.4587
に乗って	-10.4587
▁現在の	-10.4588
CK	-10.4589
一時間単位	-10.4589
養	-10.4595
▁我々のドライバーは	-10.4596
中東	-10.4596
佐	-10.4597
メカニズム	-10.4599
プレミアム	-10.4602
者達は	-10.4603
送迎を予約することができます	-10.4604
ルーティング	-10.4605
でもレンタルできます	-10.4605
弊社が提供する車	-10.4605
電話番号	-10.4606
提示	-10.4606
でお会いします	-10.4607
プレートを固定して	-10.4607
▁オンライン	-10.4607
の水	-10.4607
ゾーンから出	-10.4608
空港とチャンピーノ空港から	-10.4608
ワイヤ	-10.4609
やり	-10.4609
姿勢	-10.4612
初め	-10.4613
分布	-10.4616
変わり	-10.4617
宮殿	-10.4619
収穫	-10.4619
のサイズ	-10.4619
明確な	-10.462
単位のレンタル	-10.4623
量の	-10.4623
お知らせ	-10.4627
ピッチ	-10.4628
それで	-10.4632
炭	-10.4633
▁私のアカウント	-10.4635
▁サポート	-10.4635
毒	-10.4636
されると	-10.4641
善	-10.4645
リフト	-10.4646
高齢者	-10.4648
ポジション	-10.4649
用に	-10.4652
私を	-10.4653
泡	-10.4654
file	-10.4654
キュ	-10.4654
▁高	-10.4658
母親	-10.4659
職員	-10.4659
-3	-10.466
多数	-10.4661
にわたる	-10.4663
ja	-10.4665
岸	-10.4666
の手	-10.4667
▁アカウントを作成します	-10.4668
マネジメント	-10.467
景色	-10.4671
折	-10.4671
作られた	-10.4673
自体	-10.4674
急速に	-10.4675
そうな	-10.4676
延長	-10.4679
職人	-10.4682
を確認	-10.4682
を購入	-10.4685
経済的	-10.4685
冷たい	-10.4685
の役割	-10.4686
お母さん	-10.4687
res	-10.4688
の魅力	-10.4689
被害	-10.4691
my	-10.4692
づ	-10.4696
物を	-10.47
を高め	-10.47
情熱	-10.4703
▁Sh	-10.4707
▁Me	-10.471
電車	-10.4711
外観	-10.4715
分間に	-10.4715
目撃	-10.4716
でさえ	-10.4716
説教	-10.4716
を変更する	-10.4718
CR	-10.4718
tra	-10.4719
ファイルが	-10.4719
ゴー	-10.472
ッタ	-10.4722
DVD	-10.4722
不具合が生じ	-10.4725
ost	-10.4727
に関する重要な情報を	-10.4727
担当者	-10.4729
後ろ	-10.4731
▁re	-10.4734
2)	-10.4737
現金	-10.4739
サッカー	-10.4741
少	-10.4743
共通の	-10.4744
る可能性がございます	-10.4746
を掲載しております	-10.4747
さま	-10.4747
イオン	-10.4748
フード	-10.4752
fi	-10.4753
▁サイズ	-10.4753
を受け付けた	-10.4757
ok	-10.4759
スカイ	-10.4764
九	-10.4765
ペア	-10.4765
兼	-10.4767
探偵事務所	-10.4768
を設けました	-10.4769
跡	-10.477
うち	-10.4773
ビア	-10.4774
転換	-10.4775
外国	-10.4776
▁cm	-10.4779
廃棄物	-10.4779
納	-10.4782
▁ボックス	-10.479
のタイプのファイルと	-10.4795
止め	-10.4798
療法	-10.4802
92	-10.4802
詳しく	-10.4802
側に	-10.4802
2002	-10.4803
チューブ	-10.4807
抑制	-10.4812
を適用することができます	-10.4812
時は	-10.4813
リズム	-10.4815
コート	-10.4818
脆弱性	-10.4818
ひと	-10.4819
▁2007	-10.4821
首相	-10.4823
融合	-10.4824
ブレスレット	-10.4826
基本的に	-10.4826
腸	-10.4827
疑問	-10.4827
業績	-10.4829
一体	-10.4831
の場合もそうで	-10.4832
83	-10.4833
ピア	-10.4834
▁Tw	-10.4834
漢	-10.4834
ヴ	-10.4835
▁その種類の	-10.4835
ゴム	-10.4836
に関するデータを提供し	-10.4836
▁ウィキペディアで	-10.4837
サイトの目的は	-10.4839
▁g	-10.4839
詳細な情報を含ん	-10.4841
混	-10.4841
いくつかのファイル形式	-10.4842
そして保存できる	-10.4843
なサイトへのリンク	-10.4845
に関する情報を検索し	-10.4846
の最も一般的な形式	-10.4846
だ有用	-10.4846
きれい	-10.4847
ure	-10.4847
一般的な質問に対	-10.4851
事項に関するより	-10.4851
専門的な回答	-10.4851
これらのごく	-10.4852
替え	-10.4854
の旅	-10.4856
PI	-10.4857
を完了	-10.4859
わたし	-10.4859
chi	-10.4859
▁フランスのホテル	-10.486
続いて	-10.4864
調節	-10.4864
スの	-10.4864
行いたします	-10.4868
フォン	-10.4869
お届け	-10.487
数が	-10.4871
大衆	-10.4871
73	-10.4872
エントリ	-10.4872
坂	-10.4873
基地	-10.4879
を開始する	-10.4882
タングステン	-10.4882
を使って開く	-10.4882
ファイルを何	-10.4883
▁Ciampino	-10.4884
ながらゆったりと	-10.4887
ナイ	-10.4888
作品を	-10.4891
ボタンを押して	-10.4891
革命	-10.4891
ための花	-10.4894
74	-10.4895
ラル	-10.4895
ウェ	-10.4898
することに	-10.4898
知る	-10.4898
のではなく	-10.4906
今日の	-10.4908
静かな	-10.4909
▁最近	-10.4911
言って	-10.4913
ct	-10.4913
初期の	-10.4915
▁最も近代的な技術	-10.4916
世界的な	-10.492
有名	-10.492
▁つ	-10.4921
話し	-10.4922
▁Ar	-10.4923
技術的	-10.4924
▁w	-10.4926
待ち	-10.4926
を作成します	-10.4926
する際に	-10.4926
人工	-10.4928
作られ	-10.4929
演劇	-10.4929
法令	-10.4931
▁Con	-10.4932
という事実	-10.4932
を可能としました	-10.4934
立場	-10.4934
家に	-10.4935
や編集	-10.4936
癌	-10.4936
▁2016.05.1	-10.4938
を経て	-10.494
ようになる	-10.4941
▁2018.04.2	-10.4941
の仕事	-10.4944
hu	-10.495
ko	-10.4951
sta	-10.4951
によれば	-10.4951
農	-10.4951
ファミリー	-10.4952
らず	-10.4953
気象	-10.4957
なった	-10.4959
複合	-10.4959
容易に	-10.4961
締結	-10.4964
探偵機関	-10.4969
キン	-10.4971
ash	-10.4971
のもと	-10.4973
動画ページ	-10.4975
▁2016.06.0	-10.498
▁こうした	-10.498
排出	-10.498
立つ	-10.4981
種の	-10.4982
メッセージを	-10.4984
廃	-10.4984
永	-10.4986
などに	-10.4986
VE	-10.4987
▁MOVIE	-10.4989
作成した	-10.4989
▁Apparel	-10.4992
ホー	-10.4992
濃度	-10.4995
は通常	-10.4997
慎重に	-10.4999
アパート	-10.5
▁これら	-10.5001
回までの	-10.5001
を受けて	-10.5001
▁メニュー	-10.5002
地点	-10.5004
書き込み	-10.5004
教え	-10.5006
復活しました	-10.5006
パンダ	-10.5008
なのか	-10.5008
に同意	-10.5009
ように見える	-10.5012
フライ	-10.5015
育成	-10.5016
はこちら	-10.5016
を発表	-10.5018
図書館	-10.5019
の家	-10.5024
いき	-10.5025
シス	-10.5025
▁SHARE	-10.5026
▁当社の	-10.5031
両国	-10.5031
が好き	-10.5037
上記商品イメージ	-10.5038
その実行に	-10.5038
適切となる	-10.5039
が起こる	-10.504
問題修正	-10.5041
呼び出し	-10.5041
背	-10.5041
越え	-10.5041
▁For	-10.5044
2016.09.21	-10.5044
潮	-10.5047
の不具合が生じ	-10.5047
がうまく機能してい	-10.5047
▁オペレーティングシステムや	-10.5049
▁2017.06.0	-10.505
を示しています	-10.5052
2016.12.14	-10.5052
▁2018.07.1	-10.5052
ance	-10.5053
▁復旧	-10.5053
▁2016.09.0	-10.5054
▁こちらから最新	-10.5054
を利用することにより	-10.5056
ろう	-10.5056
借り	-10.5056
En	-10.5056
ユーザーご自身は	-10.5057
その形式を認識	-10.5057
▁2017.06.1	-10.506
ファイルをどうやって開くか	-10.5062
を展開	-10.5063
ご迷惑をおかけし申し訳ありません	-10.5065
システムメンテナンスを実	-10.5065
▁の動画をダウンロード	-10.5065
カウントとして	-10.5067
ダウンロードが成功した	-10.5067
▁ThisA	-10.5067
数多くの	-10.5067
出来ない問題を解決しました	-10.5068
回数ではなく	-10.5069
の権利	-10.5069
動画のダウンロードに	-10.507
2016.09.10	-10.507
でログイン出来ない	-10.507
動画がストリーミング形式	-10.507
日ほど前から	-10.507
方法で上手く	-10.507
▁動画のダウンロード機能	-10.507
が増え	-10.5071
厳	-10.5072
一層	-10.5072
ダウンロード出来ない	-10.5073
の大きさ	-10.5073
サービスの	-10.5075
オート	-10.5075
▁2017.06.03	-10.5078
したがって	-10.508
▁2018.07.30	-10.5081
▁私たち	-10.5082
鉱	-10.5083
ヴェ	-10.5085
のダウンロードに対応しま	-10.5086
ファイル拡張子により	-10.5086
問題を	-10.5089
火災	-10.5093
ft	-10.5094
しなさい	-10.5095
企業が	-10.5099
art	-10.5099
に出	-10.5102
という疑問	-10.5102
Net	-10.5103
を作成し	-10.5103
を維持する	-10.5106
商品の	-10.5107
迫	-10.5108
本の	-10.5109
弁護士	-10.511
作る	-10.5111
の前	-10.5113
その結果	-10.5113
TR	-10.5114
FS	-10.5119
rovideo	-10.5122
▁ビデオ	-10.5123
移転	-10.5124
2004	-10.5125
に感謝	-10.5125
RT	-10.5125
進展	-10.5128
ことになる	-10.5128
ができます	-10.5129
セント	-10.5133
道を	-10.5133
薄	-10.5137
登	-10.5137
000	-10.5139
▁25	-10.5139
▁カ	-10.5139
技術を	-10.5139
講師	-10.5142
を保存	-10.5143
▁ApparelGoods	-10.5143
▁の動画	-10.5144
典型的な	-10.5145
置き換え	-10.5145
乾	-10.5146
を目指し	-10.5147
ブレーキ	-10.5149
部の	-10.5153
卒業	-10.5155
気温	-10.5157
似	-10.5158
PE	-10.5159
証明書	-10.516
複雑	-10.5161
are	-10.5162
いている	-10.5164
2018.04.29	-10.5166
ビルド	-10.5166
観光スポット	-10.5172
あなたはおそらく	-10.5172
グラフィック	-10.5173
2016.05.18	-10.5174
行われた	-10.5177
ear	-10.5178
でもある	-10.5178
北米	-10.5181
対応する	-10.5184
導	-10.5185
CI	-10.5187
深刻な	-10.519
▁Media	-10.5191
インデックス	-10.5192
個人情報の	-10.5192
必要に応じて	-10.5193
滅	-10.5195
▁写真	-10.5195
がありません	-10.52
休日	-10.52
技	-10.5201
のまま	-10.5202
▁su	-10.5209
教師	-10.5209
フレ	-10.5211
PT	-10.5213
デル	-10.5217
プロモーター	-10.5219
エー	-10.522
を使用することができます	-10.5222
立って	-10.5226
信じ	-10.5228
綿	-10.5228
Me	-10.523
ことなく	-10.5233
ミャンマー	-10.5233
高品質の	-10.5235
休暇	-10.5236
値は	-10.5236
大規模	-10.5237
ake	-10.5237
隠蔽工作	-10.5238
暮らし	-10.5239
アルゴリズム	-10.5241
早い	-10.5243
調べ	-10.5244
プレス	-10.5246
を拒否	-10.5246
最適	-10.5247
物理	-10.5251
学会	-10.5251
ber	-10.5251
ens	-10.5259
ウス	-10.5259
エイリアン	-10.5259
▁Tr	-10.5259
読	-10.5261
がその	-10.5262
復興	-10.5263
各国	-10.5263
なくなる	-10.5266
1.5	-10.527
軍隊	-10.527
▁規約と条件	-10.5274
プレー	-10.5275
に役立つ情報	-10.5278
をクリックし	-10.5278
火星	-10.5279
を解決することができます	-10.5279
ron	-10.5282
本体	-10.5283
ジャケット	-10.5285
理想的な	-10.5285
の組み合わせ	-10.5288
年まで	-10.5289
ps	-10.529
暴	-10.5293
洗い	-10.5294
▁重量	-10.5299
寄付	-10.5301
件の	-10.5303
示唆	-10.5304
ブース	-10.5305
左右	-10.5306
コンパイル	-10.531
保健	-10.5314
がこの	-10.5317
すこと	-10.5317
戦い	-10.5317
ao	-10.5318
払い	-10.5319
呼吸	-10.5319
エージェント	-10.5319
▁Ro	-10.5324
のほか	-10.5328
にお	-10.533
接近	-10.533
▁その結果	-10.5333
のデザイン	-10.5334
当時の	-10.5335
しないでください	-10.5336
ヒット	-10.5336
そば	-10.534
▁d	-10.5347
フランスの	-10.5347
正しく	-10.5347
北部	-10.5347
上部	-10.5348
エンジニア	-10.5349
イー	-10.535
箇所	-10.5351
2.5	-10.5353
▁私たちはあなたの	-10.5354
声明	-10.5355
▁v	-10.5355
アクティビティ	-10.5358
子どもたち	-10.5359
コル	-10.5362
スロット	-10.5364
自社	-10.5366
政治的	-10.5367
ニック	-10.5368
食べ物	-10.5369
▁Inc	-10.5373
工事	-10.5373
ドラマ	-10.5375
脚	-10.5375
SU	-10.5375
MD	-10.538
▁国際	-10.5381
設定により	-10.5383
エリート達	-10.5384
の良い	-10.5386
PO	-10.5386
の主な	-10.5387
FE	-10.5388
軽減	-10.539
や他の	-10.539
Mo	-10.539
誕生	-10.539
月から	-10.5391
にご利用ください	-10.5392
昇	-10.5393
API	-10.5393
ード	-10.5395
煙	-10.5395
紫	-10.5397
つは	-10.5403
照	-10.5404
確認できます	-10.5404
滝	-10.5405
コネクタ	-10.5405
ラス	-10.5406
子供の	-10.5406
雷	-10.5408
開放	-10.5411
Li	-10.5413
抜け	-10.5415
描写	-10.5416
とは異なり	-10.5418
を示し	-10.5419
テンプレートを	-10.542
売り	-10.5422
奇妙な	-10.5423
が存在する	-10.5428
美しさ	-10.5431
然	-10.5433
いだ	-10.5434
になること	-10.5434
引用	-10.5434
▁世界	-10.5434
西洋	-10.5435
べきである	-10.5435
▁大抵の場合	-10.544
使われる	-10.5441
赤ちゃん	-10.5442
死亡	-10.5443
簡単です	-10.5448
でしたが	-10.5453
進歩	-10.5456
トイレ	-10.5457
節約	-10.5459
存在する	-10.546
中断	-10.5462
▁プレスリリース	-10.5462
糸	-10.5474
を表示する	-10.5477
スカ	-10.5479
ハンドル	-10.548
していきます	-10.5483
ジャパン	-10.5484
樹脂	-10.5486
何度も	-10.5488
カーソル	-10.549
適切なプログラム	-10.5494
アクティブ	-10.5494
▁Th	-10.5495
追	-10.5496
チョコレート	-10.5498
の際に	-10.5498
あって	-10.5499
応募	-10.5501
仮想	-10.5504
当社は	-10.5504
出展	-10.5508
上空	-10.5512
のユーザープロフィール	-10.5513
フラ	-10.5515
化する	-10.5515
事例	-10.5518
記入	-10.552
モンゴル	-10.5523
コンピュータの専門家	-10.5526
海水	-10.553
自ら	-10.5532
レプリカ	-10.5535
キット	-10.5539
▁三	-10.5541
グリッド	-10.5542
以上に	-10.5547
を強化する	-10.5549
しっかりと	-10.5549
誰かが	-10.5549
▁PC	-10.555
麻	-10.5552
優	-10.5553
トゥ	-10.5553
スペ	-10.556
てい	-10.5561
PL	-10.5567
SH	-10.5568
▁そんな	-10.557
していくうちに	-10.5572
けなかった場合	-10.5573
互換性	-10.5574
デスクトップ	-10.5575
驚き	-10.5578
嵐	-10.5579
専門家のアドバイスや	-10.5579
を削除する	-10.5583
配列	-10.5584
枝	-10.5586
しさ	-10.5587
ファイルの開閉に関する問題	-10.559
使用されている	-10.5591
嘘	-10.5591
ファイルの開閉	-10.5594
に助けを求める必要	-10.5594
を持つファイルを開	-10.5594
▁花	-10.5595
私たちのサイトにあ	-10.5595
従来	-10.5596
折り	-10.5597
ケン	-10.5598
▁タイプ	-10.5599
▁複数の	-10.5603
活	-10.5607
達の	-10.5607
保有	-10.5608
動向	-10.5611
の時代	-10.5613
コミュニティの	-10.5614
現代の	-10.5616
最低	-10.5617
分野の	-10.5618
気に	-10.5619
IA	-10.5622
又	-10.5627
枠	-10.5628
チャーム	-10.563
独特の	-10.563
指定された	-10.5633
泉	-10.5637
縦	-10.5637
いただいた	-10.5637
既	-10.5638
を迎え	-10.5641
して下さい	-10.5643
低下	-10.5645
MC	-10.5645
こちら	-10.5645
か遭遇し	-10.5646
があること	-10.5647
激	-10.5647
伴	-10.565
移行	-10.565
に対する答えを探	-10.565
開くことができるという	-10.5651
ソフトウェアに何度	-10.5651
ファイル名	-10.5653
見せ	-10.5654
を理解する	-10.5654
心を	-10.5655
▁同じ	-10.5655
北朝鮮	-10.5655
の建設	-10.5658
を始め	-10.5662
出現	-10.5664
ティック	-10.5665
そういう	-10.5665
ディレクティブ	-10.5665
調和	-10.5666
▁通常	-10.5667
ジャン	-10.5667
どこか	-10.5672
状態に	-10.5676
外側	-10.5678
ない場合は	-10.5679
ない場合	-10.5679
はほとんど	-10.568
に関する通知	-10.568
日曜日	-10.5682
Auto	-10.5684
の中には	-10.5687
キャラクター	-10.5689
するでしょう	-10.5689
▁今後	-10.5692
教室	-10.5694
するので	-10.5694
便利	-10.5695
を理解し	-10.5697
50%	-10.5699
美しく	-10.57
価格は	-10.5702
サイトの	-10.5704
▁22	-10.5706
イタリアの	-10.5706
そこから	-10.5707
同一	-10.5711
グラフィックス	-10.5712
CE	-10.5715
どちらか	-10.5715
礼	-10.5721
両親	-10.5722
使える	-10.5722
に連絡してください	-10.5725
テック	-10.5725
▁Mac	-10.5725
タワー	-10.5729
しかった	-10.5731
郷	-10.5733
を認め	-10.5735
精密	-10.5735
結果は	-10.5736
87	-10.5743
ことである	-10.5743
シルバー	-10.5745
を適用	-10.5749
FC	-10.5749
やその他の	-10.5752
に行って	-10.5755
すべてを	-10.5757
▁説明	-10.5759
変わる	-10.576
鉱山	-10.576
本物の	-10.5761
ach	-10.5761
を引き起こし	-10.5762
ass	-10.5763
EP	-10.5766
所有者	-10.5768
につき	-10.5773
を持った	-10.5777
の専門家	-10.5779
中止	-10.5779
談	-10.578
虫	-10.578
CS	-10.5782
ませ	-10.5783
露	-10.5788
に入って	-10.5793
より高い	-10.5793
蓄積	-10.5793
自動化	-10.5795
が記載されています	-10.5795
イル	-10.5796
レット	-10.5798
動く	-10.5799
ビザ	-10.58
!」	-10.5803
宝石	-10.5804
当日	-10.5805
物事	-10.5809
の皆様	-10.5809
遅延	-10.581
速く	-10.5811
書いて	-10.5812
神様	-10.5813
tic	-10.5814
甘	-10.5816
の終わり	-10.5816
クレジット	-10.5817
の中から	-10.5817
の合計	-10.5818
ターミナル	-10.5819
単純な	-10.5819
の多くは	-10.5819
▁Mar	-10.5821
今では	-10.5822
益	-10.5823
PP	-10.5823
を取り扱うプログラムのリスト	-10.5825
亜	-10.5827
シンプルな	-10.5829
他の人	-10.5831
使って	-10.5834
▁オプション	-10.5834
▁はい	-10.5834
は現在	-10.5835
願い	-10.5836
に準拠	-10.5836
ピース	-10.5838
送り	-10.5839
お客さま	-10.584
天皇	-10.5842
を開き	-10.5843
の表面	-10.5845
オンラインで	-10.5848
捨て	-10.5849
bu	-10.585
▁私立探偵	-10.5851
オファー	-10.5856
に来る	-10.5858
ローマの	-10.5859
そのもの	-10.5862
認定された	-10.5869
同様の	-10.5869
灯	-10.587
見学	-10.587
場合でも	-10.5873
cc	-10.5874
ソウル	-10.5874
は何ですか	-10.5874
NT	-10.5877
レプリカ時計	-10.5879
を有し	-10.5881
状の	-10.5882
本部	-10.5882
固体	-10.5883
ハイライト	-10.5883
▁Com	-10.5883
IF	-10.5887
システムを	-10.5887
書類	-10.5893
問題が	-10.5894
リサイクル	-10.5896
両方	-10.5896
晩	-10.5898
りました	-10.5902
FI	-10.5904
経路図	-10.5906
日米	-10.5906
の改善	-10.5907
少女	-10.5909
ロータリー	-10.5914
下部	-10.5917
サークル	-10.5917
高品質	-10.5918
の第	-10.5918
に比べて	-10.5919
洞	-10.592
手を	-10.5924
郎	-10.5925
切断	-10.5925
方法です	-10.5925
増加する	-10.5928
普通の	-10.5928
なっています	-10.593
と比較して	-10.593
と考えています	-10.5931
ゴン	-10.5933
自宅	-10.5934
たこと	-10.5941
行われる	-10.5942
サイン	-10.5943
ことがある	-10.5945
ることで	-10.5945
おすすめ	-10.5946
する場合は	-10.5946
自分達の	-10.5949
かり	-10.595
モニター	-10.5951
についての詳細を知っています	-10.5952
冬の	-10.5953
お金を	-10.5957
財政	-10.5957
日間の	-10.5958
SS	-10.5959
に移動	-10.5959
だと思います	-10.5959
まわり	-10.5963
ランチ	-10.5964
永続	-10.5965
目を	-10.5966
ならびに	-10.5966
トマト	-10.5967
に対応する	-10.5971
を見せ	-10.5972
WA	-10.5973
ドロップダウン	-10.5976
ウェア	-10.5977
を守る	-10.5979
名称	-10.5983
コンテンツの	-10.5987
書式	-10.5988
ことはありません	-10.5988
表示される	-10.5991
強さ	-10.5991
と同様	-10.5992
四半期	-10.5993
テー	-10.5993
name	-10.5994
整	-10.5995
発送	-10.5996
いかに	-10.6
▁is	-10.6003
ナイト	-10.6004
熟	-10.6005
含む	-10.6006
アニメ	-10.6008
をしている	-10.6009
からタクシー	-10.6009
酸素	-10.6012
▁21	-10.6014
ますか	-10.6014
単一の	-10.6014
神は	-10.6014
検	-10.602
形式で	-10.6023
広がり	-10.6028
特長	-10.6029
RS	-10.603
don	-10.6032
▁mUniSm	-10.6033
-10	-10.6035
射	-10.6037
集め	-10.6038
隣	-10.604
危険な	-10.6041
並びに	-10.6042
ガイドライン	-10.6043
もともと	-10.6044
ger	-10.6046
を見つけ	-10.6047
会計	-10.6048
極端な	-10.605
候補	-10.6051
腫瘍	-10.6051
繁栄	-10.6051
0°	-10.6053
関与	-10.6053
歴史的	-10.6054
すべてのレプリカのサイト	-10.6057
レプリカへようこそアウトレット店	-10.6057
発現	-10.6058
壮大な	-10.6058
ひとり	-10.6063
改	-10.6064
ディー	-10.6067
▁イ	-10.6069
han	-10.6069
ase	-10.607
-6	-10.6076
化合物	-10.6076
垂直	-10.6078
戦闘	-10.6079
▁Italy	-10.608
▁Google	-10.6082
をもつ	-10.6083
犯	-10.6083
▁ファイル拡張子が	-10.6084
lic	-10.6084
出来る	-10.6085
手術	-10.6086
どうやって	-10.6088
イベントの	-10.6091
提供する	-10.6091
血液	-10.6092
クタ	-10.6093
第三	-10.6093
閉	-10.6096
知らない	-10.6096
ンド	-10.6098
ボトル	-10.6098
炉	-10.6099
浦	-10.61
Edit	-10.6101
緊張	-10.6103
盗	-10.6104
活性	-10.6105
住	-10.6108
IL	-10.6109
を行うこと	-10.611
結局	-10.611
はっきりと	-10.6112
をサポート	-10.6112
視覚	-10.6113
否定	-10.6114
パーツ	-10.6116
ゴール	-10.6116
施行	-10.6119
生じる	-10.6119
クーポン	-10.6119
寿命	-10.612
誇り	-10.6123
熱帯	-10.6124
Crypto	-10.6125
ling	-10.6126
開発した	-10.6127
インストゥルメント	-10.6128
を読む	-10.613
自然な	-10.6131
ah	-10.6131
DM	-10.6132
素敵な	-10.6132
ほんの	-10.6132
地球に	-10.6134
グレー	-10.6136
▁Sp	-10.6137
夜の	-10.6137
中国語	-10.6137
を含みます	-10.6139
出会い	-10.6141
▁h	-10.6141
迷	-10.6143
いただける	-10.6144
チームの	-10.6149
インターナショナル	-10.615
▁アイテム	-10.615
家具	-10.6153
リセット	-10.6154
なしに	-10.6157
独自に発行する	-10.6157
独立した	-10.6158
暴力	-10.616
思う	-10.6164
事が	-10.6165
なお	-10.6168
の作品	-10.6168
(3	-10.6168
プレゼンテーション	-10.617
人も	-10.617
ないため	-10.6171
iPad	-10.6173
ベルギー	-10.6174
ky	-10.6176
コーティング	-10.618
バイト	-10.6183
に来て	-10.6183
を集め	-10.6183
年前	-10.6185
を実現する	-10.6186
議	-10.6189
と考え	-10.619
食料	-10.6192
梅	-10.6195
視点	-10.6195
周囲	-10.6196
ary	-10.6197
▁その他の	-10.6197
▁小	-10.6198
の追加	-10.6201
個人の	-10.6203
ディレクター	-10.6204
キッチン	-10.6206
IM	-10.6208
日々	-10.6208
スペイン語	-10.621
男の子	-10.6216
を向上させる	-10.6217
タンク	-10.6217
受け入れ	-10.6219
読み込み	-10.6219
からも	-10.6219
▁ユーザー	-10.6219
▁ご	-10.622
重い	-10.622
麺	-10.6222
あなた方の	-10.6223
カラー設定	-10.6223
▁2009	-10.6225
リラックス	-10.6226
ことができた	-10.6227
らせ	-10.6229
▁それで	-10.6234
ug	-10.6235
20%	-10.6235
コンタクト	-10.6235
共に	-10.6238
当然	-10.6243
ティン	-10.6244
それほど	-10.6245
濃	-10.6245
、2017	-10.625
返す	-10.6251
聞いて	-10.6252
に変換	-10.6252
植え	-10.6253
AG	-10.6255
IoT	-10.6255
を受け取る	-10.6256
を指定する	-10.6258
沿い	-10.6259
僕は	-10.626
ジャンプ	-10.626
市内	-10.6261
東南アジア	-10.6261
するもの	-10.6261
欲	-10.6262
TC	-10.6263
性質	-10.6264
ish	-10.6265
保守	-10.6269
キュー	-10.6271
歩く	-10.6272
EM	-10.6272
NS	-10.6275
▁An	-10.6275
包	-10.6276
バグ	-10.6279
▁通販	-10.628
LAN	-10.6284
を実施	-10.6286
帽子	-10.6287
ものであり	-10.629
改良	-10.629
当社が	-10.629
心の	-10.6291
崎	-10.6292
ヘル	-10.6293
想定	-10.6293
の前で	-10.6294
Air	-10.6294
南極	-10.6299
我	-10.6299
▁私	-10.6299
を作って	-10.63
ガル	-10.63
上にある	-10.6302
生きる	-10.6303
僕	-10.6305
デイ	-10.6305
ランプ	-10.6306
ob	-10.6306
たとえば	-10.6308
iTunes	-10.6308
au	-10.6309
ないでしょう	-10.6309
言えば	-10.6309
針	-10.6311
夕食	-10.6311
であっても	-10.6312
は実際のものと多少	-10.6317
いたしました	-10.6318
安全に	-10.632
一般に	-10.632
所在地	-10.6331
スピーカー	-10.6332
年間の	-10.6332
探偵	-10.6339
次世代	-10.6339
セー	-10.6344
地面	-10.6344
VR	-10.6347
のカラーイメージ	-10.6348
スクリーン等の	-10.6349
プロセッサ	-10.635
▁ご使用コンピューターの	-10.635
景	-10.6351
▁Mi	-10.6353
木材	-10.6355
性を	-10.6356
作品は	-10.6358
が出	-10.6358
0.0	-10.6359
▁注	-10.636
DR	-10.6361
広大な	-10.6363
タイヤ	-10.6364
ウォーター	-10.6364
の販売	-10.637
政府が	-10.637
インターフェイス	-10.6372
になるでしょう	-10.6372
ドイツの	-10.6375
はすでに	-10.6376
伊	-10.6377
明治	-10.6378
▁今回は	-10.6379
ページで	-10.6381
▁Pa	-10.6383
RAR	-10.6383
広島	-10.6387
はじめ	-10.6388
ya	-10.6388
ax	-10.639
▁レプリカ時計	-10.6392
を参照して	-10.6393
話題	-10.6393
私立探偵	-10.6395
はい	-10.6396
税関	-10.6397
対処	-10.6399
翼	-10.6402
を超えて	-10.6406
マッチ	-10.6407
二重	-10.6408
ome	-10.6409
年前に	-10.6409
カタログ	-10.6416
臨床	-10.6416
使用されます	-10.6417
テント	-10.6421
スクール	-10.6422
水平	-10.6422
吸	-10.6423
を送る	-10.6423
ことができました	-10.6424
舞	-10.6431
謎	-10.6431
各地	-10.6433
刻	-10.6437
:1	-10.6437
ずつ	-10.6438
東部	-10.6438
、『	-10.6441
▁Portal	-10.6442
同時	-10.6442
メイ	-10.6443
ご連絡	-10.6444
最高品質の花	-10.6445
を用いる	-10.6448
欲しい	-10.6448
▁今年	-10.6449
有料	-10.6451
AB	-10.6451
利用できます	-10.6451
▁Car	-10.6452
落下	-10.6454
の保護	-10.6456
まい	-10.6456
顧客の	-10.6457
bit	-10.6458
唐	-10.6459
習	-10.646
EXEC	-10.6462
透明	-10.6462
を得て	-10.6463
▁プロパティ	-10.6464
ようになります	-10.6466
1:	-10.6468
高温	-10.6473
しっかり	-10.6473
興奮	-10.6474
の簡単な説明	-10.6474
ペット	-10.6476
できるよう	-10.6476
南部	-10.6478
あげ	-10.648
パーセント	-10.6482
過ごし	-10.6486
iamo	-10.6487
OT	-10.6487
緩	-10.649
しているか	-10.6492
近年	-10.6492
クロー	-10.6495
マスク	-10.6495
を指定	-10.6495
結晶	-10.6496
に大きな	-10.6499
online	-10.6504
毎日の	-10.6506
を除いて	-10.6506
UI	-10.6506
UFO	-10.6508
ブランドの	-10.6513
ろうと	-10.6514
int	-10.6515
1999	-10.6515
iOS	-10.6515
▁までお問い合わせください	-10.6517
の美しさ	-10.652
環境で	-10.652
Po	-10.652
国籍	-10.652
YO	-10.6521
ナンシー	-10.6523
とおり	-10.6524
べきです	-10.6525
▁これには	-10.6526
form	-10.6526
詰め	-10.653
メニューから	-10.6532
を拡大	-10.6532
はもちろん	-10.6534
いま	-10.6536
信用	-10.6537
の強化	-10.654
全員	-10.6542
南米	-10.6543
と同じように	-10.6544
覚え	-10.6544
みたい	-10.6547
原子力	-10.6549
ワシントン	-10.6551
ロング	-10.6554
IO	-10.6556
ていることが重要です	-10.6556
の関係	-10.6561
ポルノ	-10.6564
排出量	-10.6564
拡張子	-10.6565
出席	-10.6566
ポップアップ	-10.6566
とし	-10.6567
プロトコル	-10.6568
はどこにでもあり	-10.6568
の建物	-10.6568
大西洋	-10.6568
さんが	-10.6569
の価値	-10.657
を読み	-10.657
経過	-10.6571
ick	-10.6572
ましたが	-10.6573
▁注意	-10.6579
ワード	-10.658
Gu	-10.6582
の意味	-10.6582
指定した	-10.6583
系の	-10.6583
ハイブリッド	-10.6585
融資	-10.6585
睡眠	-10.6586
KO	-10.6588
文学	-10.6589
学ぶ	-10.659
筋肉	-10.659
画像を	-10.6594
ったり	-10.6595
XML	-10.6596
違法	-10.6597
フォード	-10.6597
▁私たちのサイトに	-10.6598
CT	-10.6601
チョ	-10.6601
▁そのファイル	-10.6601
貨物	-10.6601
冷却	-10.6602
大量の	-10.6605
移民	-10.6605
果物	-10.6607
興	-10.662
このページ	-10.6621
第三者に	-10.6621
快適	-10.6622
ニン	-10.6624
この問題	-10.6625
を構築する	-10.6627
勢	-10.663
助言	-10.663
湿	-10.6632
思え	-10.6632
安定した	-10.6633
造り	-10.6634
上がる	-10.6635
ヒル	-10.6638
痛み	-10.6638
スパイ	-10.6639
備	-10.6641
空港送迎	-10.6645
諸島	-10.6645
狂	-10.6646
機能は	-10.6646
博	-10.6647
それはあなたが今日	-10.6647
の市場で利用可能な最	-10.6647
を目指す	-10.6647
善を取得し	-10.6649
業界の	-10.6649
鳴	-10.665
ケット	-10.6651
今は	-10.6661
に関する情報とそ	-10.6662
これまでに	-10.6662
町の	-10.6663
要約	-10.6664
Co	-10.6665
ゼータトーク	-10.6665
畑	-10.6668
の取り扱いが可能	-10.667
拒否	-10.667
続	-10.667
の成長	-10.667
飛	-10.6671
▁タグ	-10.6671
およびそのファイル	-10.6674
なプログラムについて	-10.6674
オレンジ	-10.6675
手で	-10.6676
を変える	-10.6678
テラス	-10.6678
JR	-10.6679
ris	-10.6679
ホイール	-10.6681
たる	-10.6683
筆	-10.6687
迅速に	-10.6692
時計の	-10.6693
キロメートル	-10.6696
地球が	-10.6699
世界中で	-10.6701
を停止	-10.6703
決め	-10.6705
可能な限り	-10.6707
数量	-10.6709
トランザクション	-10.6709
▁総合情報	-10.671
講	-10.6712
すべてのファイル拡張子	-10.6712
マス	-10.6712
に最適な	-10.6714
段階で	-10.6715
堅	-10.6715
内蔵	-10.6716
景観	-10.6717
賀	-10.6717
リコ	-10.6719
分間	-10.6721
疑	-10.6722
重要である	-10.6723
庫	-10.6724
ano	-10.6724
ore	-10.6726
非難	-10.6728
TT	-10.6728
従	-10.6729
を扱う	-10.673
JAV	-10.6731
知って	-10.6732
–	-10.6736
GE	-10.6736
商品を	-10.6738
メル	-10.6739
応	-10.6741
の部分	-10.6742
しようとする	-10.6744
センサ	-10.6745
おき	-10.675
外の	-10.6752
いろいろな	-10.6753
移動する	-10.6754
先の	-10.6756
鼻	-10.6757
zi	-10.6759
ウン	-10.6761
た後	-10.6762
詐欺	-10.6762
に入れ	-10.6764
喜んで	-10.6765
読者	-10.6767
▁一	-10.6768
マリア	-10.6768
歩き	-10.6768
チュー	-10.6769
エス	-10.6769
の対象	-10.6771
発生した	-10.6771
ついた	-10.6771
原理	-10.6772
誰でも	-10.6772
ロケーション	-10.6775
DNA	-10.6775
準	-10.6777
学者	-10.678
チャート	-10.6783
家族の	-10.6785
に影響	-10.6786
ama	-10.6791
避難	-10.6791
鏡	-10.6795
ッツ	-10.68
内容を	-10.68
があると	-10.6801
わり	-10.6802
国で	-10.6804
▁弊社は	-10.6805
をもとに	-10.6808
OL	-10.6808
を得た	-10.6809
つながり	-10.6809
砂糖	-10.681
▁モジュール	-10.681
du	-10.681
を行っている	-10.681
付ける	-10.6815
を開きます	-10.6816
付近	-10.6818
悪化	-10.682
たま	-10.6824
ect	-10.6826
ny	-10.6827
できるだけ	-10.683
▁動画	-10.6832
半導体	-10.6832
関連付け	-10.6833
事は	-10.6834
PM	-10.6835
リック	-10.6836
クリントン	-10.6836
!!!	-10.6842
を簡単に	-10.6843
安全性	-10.6845
エアコン	-10.6846
▁コメント	-10.6846
の価格	-10.6848
の形	-10.6848
検索結果	-10.685
を確認する	-10.6852
一律	-10.6853
であるため	-10.6854
tor	-10.6857
ara	-10.6859
陸	-10.6859
集まり	-10.686
を知っている	-10.6865
▁10.	-10.6866
▁International	-10.6869
哲学	-10.687
想	-10.6871
▁パンドラジュエリー	-10.6873
永久	-10.6873
旅行者	-10.6874
兆	-10.6875
を考え	-10.6877
内側	-10.6877
小児	-10.6878
上位	-10.6879
ありがとう	-10.688
mod	-10.6882
れて	-10.6887
海上	-10.6887
無い	-10.6887
車を	-10.6888
の記事	-10.6891
パイ	-10.6894
▁ほとんどの	-10.6903
するのが	-10.6903
チェックアウト	-10.6904
が見	-10.6905
マッサージ	-10.6908
致します	-10.6908
を表す	-10.6909
寒	-10.6909
隠れ	-10.6912
ting	-10.6914
のいくつかの	-10.6914
▁全	-10.6914
qu	-10.6915
▁サン	-10.6915
することなく	-10.6916
提供される	-10.6918
こんな	-10.6919
成功した	-10.692
FT	-10.6921
ためです	-10.6922
起こり	-10.6923
時から	-10.6926
2001	-10.6928
たとえ	-10.6928
大切	-10.6932
の状況	-10.6934
カーブ	-10.6937
BO	-10.6938
▁水	-10.6939
との関係	-10.6939
の実施	-10.694
ds	-10.6941
私も	-10.6946
正常に	-10.6947
pp	-10.6948
時計製造	-10.6949
財	-10.6951
世紀の	-10.6955
是非	-10.6955
▁すべて	-10.6956
に焦点を当て	-10.6957
の準備	-10.6957
パーティション	-10.6959
向けに	-10.6964
協議	-10.6965
執行	-10.6966
old	-10.6968
戻って	-10.6969
便利です	-10.6969
1%	-10.6969
適応	-10.6972
shi	-10.6972
プロバイダー	-10.6973
▁ある	-10.6973
を完全に	-10.6974
解放	-10.6975
福岡	-10.6975
しゃ	-10.6978
塵	-10.6979
装備	-10.698
珍しい	-10.6984
けば	-10.6984
増大	-10.6985
アルミ	-10.6985
慶	-10.6985
▁(2)	-10.6986
異なった	-10.6987
ハンド	-10.6987
は今	-10.6988
トラフィック	-10.699
離れ	-10.6991
カップル	-10.6991
スタイルの	-10.6991
左側	-10.6992
着せかえ	-10.6992
の壁	-10.6993
コンテスト	-10.6993
•	-10.6994
解除	-10.6995
を持っていた	-10.6999
▁Bo	-10.6999
を防ぐ	-10.7
0.5	-10.7002
メモ	-10.7002
冒険	-10.7003
名は	-10.7004
飲	-10.7006
当て	-10.7007
しているので	-10.7007
にかけて	-10.701
発見された	-10.7017
が非常に	-10.7017
tri	-10.7017
続け	-10.7018
▁こちら	-10.7019
銃	-10.7019
▁(1)	-10.7019
伝達	-10.7024
日本では	-10.7025
組み	-10.7028
図面	-10.703
一定の	-10.7033
TH	-10.7034
プログラミング	-10.7035
多くの人々	-10.7037
流行	-10.7044
ッカ	-10.7047
格安	-10.7049
抽出	-10.705
砲	-10.7051
乗馬	-10.7052
まった	-10.7056
と思われる	-10.7057
ひとつ	-10.7057
石の	-10.7059
ることは	-10.706
を代表する	-10.706
思考	-10.7061
Excel	-10.7063
を許可	-10.7065
何の	-10.707
物流	-10.707
の場	-10.7072
されることを	-10.7072
人の乗客	-10.7075
もありません	-10.7075
180	-10.7075
居住	-10.7077
倒	-10.7077
優勝	-10.7079
XX	-10.708
途	-10.7081
大切な	-10.7084
美味しい	-10.7086
生産性	-10.7088
を可能にする	-10.7089
人々を	-10.709
あの	-10.709
を提供すること	-10.7093
の編集	-10.7099
敷	-10.7102
扱い	-10.7103
彼等	-10.7103
事業者	-10.7106
81	-10.7107
]:	-10.7107
時間に	-10.7108
é	-10.711
▁特定の	-10.711
正確	-10.7113
贈	-10.7116
尿	-10.7116
の導入	-10.7116
運転手は	-10.7118
CEO	-10.7118
方に	-10.712
▁必要であれば	-10.712
相互作用	-10.712
を学び	-10.7121
CP	-10.7122
入って	-10.7123
が行われ	-10.7123
{	-10.7126
ているため	-10.7126
を明らかに	-10.7126
GB	-10.7128
▁Studio	-10.713
推測	-10.7134
さくら	-10.7135
}	-10.7136
杯	-10.7137
歴	-10.714
ave	-10.7141
vo	-10.7141
を探	-10.7142
ドロップ	-10.7143
Al	-10.7143
仮	-10.7145
▁素敵な	-10.7146
に掲載	-10.7146
をとる	-10.7147
入力できます	-10.7148
クレ	-10.7149
剣	-10.7149
さと	-10.7149
誘導	-10.7152
周り	-10.7153
前後	-10.7154
を採用	-10.7154
ML	-10.7155
ユー	-10.7155
社内	-10.7156
モードで	-10.7158
フルーツ	-10.7163
ツー	-10.7164
前述	-10.7165
安定性	-10.7166
典	-10.7166
メートルの	-10.7168
づけ	-10.7168
チームが	-10.717
人乗り	-10.717
追加の	-10.717
ランダム	-10.7174
を下	-10.7176
の構築	-10.7179
昼	-10.718
ster	-10.718
情報が	-10.7182
持つ	-10.7182
貧困	-10.7188
の話	-10.7188
ことを意味します	-10.7189
書いた	-10.7189
移	-10.7192
行われます	-10.7192
ターゲティング広告	-10.7192
密度	-10.7195
アナ	-10.7195
加熱	-10.7196
形の	-10.7197
▁URL	-10.7198
▁MP	-10.72
モニタリング	-10.7201
ys	-10.7201
を残す	-10.7202
ボーナス	-10.7202
特典	-10.7202
▁アプリケーション	-10.7203
るでしょう	-10.7204
最良の	-10.7205
▁商品番号	-10.7206
sk	-10.7208
薬剤	-10.7208
上がり	-10.7209
悪意者	-10.721
人形	-10.721
漁	-10.7211
学術	-10.7214
税金	-10.7216
gu	-10.7216
▁レプリカ	-10.7217
上記	-10.7219
性と	-10.7221
を利用し	-10.7221
韓	-10.7221
エンジニアリング	-10.7225
襲	-10.7226
トレンド	-10.7228
ドラゴン	-10.7228
▁実際	-10.723
ショ	-10.7231
▁商品詳細	-10.7232
1.0	-10.7232
メー	-10.7233
ice	-10.7236
アルミニウム	-10.7238
賞を受賞	-10.7239
くて	-10.7239
フラット	-10.724
付いて	-10.7242
いること	-10.7245
▁WiFi	-10.7247
四川省	-10.7248
医	-10.7249
VI	-10.7249
を満たす	-10.7249
を開発	-10.7249
国際空港	-10.725
をチェック	-10.7251
BC	-10.7254
カイ	-10.7255
作物	-10.7256
グランド	-10.7256
の実現	-10.7258
快	-10.7261
上げる	-10.7261
明らか	-10.7262
スタンダード	-10.7264
パル	-10.7264
オス	-10.7266
▁チャット	-10.7266
誰が	-10.7267
ネーム	-10.7268
放出	-10.7269
~20	-10.7271
芽	-10.7272
たびに	-10.7274
▁あらかじめご了承下さい	-10.7278
後半	-10.7279
を助け	-10.728
街の	-10.7285
やはり	-10.7288
帳	-10.729
プログラムの	-10.7296
3%	-10.7297
薄い	-10.73
作った	-10.73
pl	-10.7303
黒い	-10.7305
方の	-10.7306
されている場合	-10.7306
薬物	-10.7307
青い	-10.7308
寧	-10.7308
の送迎サービス	-10.7312
カム	-10.7315
番組	-10.7315
シャー	-10.7316
回り	-10.7317
広州	-10.7318
決	-10.732
散歩	-10.7322
写真コンテスト	-10.7325
を取得する方法	-10.7328
人権	-10.7331
の全	-10.7333
容器	-10.7334
更なる	-10.7337
氏が	-10.7337
明日	-10.7338
傘	-10.7339
▁名前	-10.734
ミリ	-10.734
伸び	-10.7341
ノン	-10.7344
を強化し	-10.7348
手配	-10.7348
与えられた	-10.7349
容	-10.7349
ラーメン	-10.735
シリコン	-10.735
App	-10.7351
払い戻し	-10.7351
買	-10.7351
▁これまで	-10.7351
テープ	-10.7352
象	-10.7353
ニュ	-10.7354
みな	-10.7355
部分は	-10.7355
あなた方は	-10.7356
を確認し	-10.7356
の設計	-10.7358
ラップ	-10.736
奈	-10.7363
建て	-10.7363
にわたり	-10.7367
oo	-10.7368
浜	-10.7372
▁Ac	-10.7374
題	-10.7374
ではなかった	-10.7375
――	-10.7375
食器	-10.7376
肺	-10.7377
認められ	-10.7378
他人	-10.7378
遅く	-10.738
プログラムを	-10.7382
Br	-10.7383
育て	-10.7383
去	-10.7384
のページの	-10.7385
ボタンをクリックします	-10.7386
▁韓国旅行	-10.7387
av	-10.7388
アーキテクチャ	-10.739
連結	-10.7391
ダイナミック	-10.7392
触	-10.7393
これまでの	-10.7394
ているので	-10.7395
孔	-10.7396
ページを	-10.7398
▁Network	-10.74
現れる	-10.74
探索	-10.74
コーナー	-10.7402
展覧会	-10.7402
知見	-10.7402
デュ	-10.7403
▁Be	-10.7404
フィード	-10.7406
を誇る	-10.7406
GO	-10.7409
バンコク	-10.741
高校	-10.7412
To	-10.7413
▁50	-10.7413
沢	-10.7413
エディタ	-10.7414
潜在的な	-10.7415
NC	-10.7416
たった	-10.7416
▁2008	-10.7417
時間と	-10.7419
User	-10.742
ei	-10.7421
を維持	-10.7421
らす	-10.7423
より安い	-10.7424
太陽系	-10.7432
洞察	-10.7433
リストから	-10.7434
を入力する	-10.7434
by	-10.7434
PRO	-10.7436
区域	-10.7436
なん	-10.7436
毎週	-10.7437
聞く	-10.7438
道具	-10.7439
静かに	-10.744
▁Premiere	-10.7441
するまで	-10.7442
▁当社	-10.7444
された場合	-10.7448
の上で	-10.7448
1.2	-10.7449
弱い	-10.745
求められ	-10.7452
シャル	-10.7455
禁	-10.7459
ホステル	-10.7459
可能性が	-10.746
を開いて	-10.7462
ますが	-10.7462
ッキング	-10.7463
キシ	-10.7464
延	-10.7466
起こっている	-10.7466
に行った	-10.7467
移植	-10.747
周年	-10.7472
に貢献	-10.7475
ボット	-10.7475
にくい	-10.7476
しないように	-10.7478
ジェット	-10.7479
インター	-10.748
言われ	-10.7481
困難な	-10.7482
ない限り	-10.7482
海軍	-10.7482
競争力	-10.7483
任務	-10.7484
チリ	-10.7487
バッテリー	-10.7487
という言葉	-10.7488
わからない	-10.7489
セラミック	-10.7489
があるので	-10.7489
に参加し	-10.749
はかなり	-10.7491
に関わる	-10.7494
アルコール	-10.7495
パキスタン	-10.7496
反映	-10.7498
羅	-10.75
誤	-10.75
のニーズ	-10.7501
場所です	-10.7501
確保	-10.7503
出して	-10.7503
弟子	-10.7507
▁Free	-10.7507
我が国	-10.7509
限界	-10.751
故	-10.7511
と言った	-10.7512
をご確認ください	-10.7512
サイズの	-10.7515
hen	-10.7516
の多く	-10.7521
LL	-10.7521
重大な	-10.7523
札	-10.7528
1.	-10.7529
わけ	-10.7529
スタンド	-10.7533
棟	-10.7533
わない	-10.7534
豊	-10.7534
▁2003	-10.7535
▁ピサ	-10.7536
プラント	-10.7536
スイート	-10.7541
プロダクト	-10.7541
提供開始しました	-10.7544
ケイ	-10.7545
モーションエレメンツは	-10.7546
CZ	-10.7546
ICO	-10.7547
国内の	-10.7548
NG	-10.7549
始めました	-10.7552
の技術	-10.7554
峰	-10.7554
レイヤー	-10.7555
▁상세	-10.7556
後は	-10.7556
ラック	-10.7557
、2016	-10.7561
粒	-10.7562
ければ	-10.7562
専攻	-10.7562
府	-10.7565
ポン	-10.7565
昔	-10.7569
▁パリ	-10.7572
を使用しております	-10.7573
言いました	-10.7573
mail	-10.7574
マーケットプレイスである	-10.7575
会社は	-10.7581
シャン	-10.7581
先端	-10.7582
ユニ	-10.7584
ence	-10.7585
iss	-10.7587
lin	-10.7587
湖の	-10.7587
▁オブジェクト	-10.7589
皿	-10.7589
枠組み	-10.759
春の	-10.759
のもの	-10.7592
ドルにて	-10.7592
インテリア	-10.7594
ジア最大級のロイヤリティーフリー	-10.7596
動画編集者が	-10.7596
簡単にカスタマイズ可能な	-10.7596
するとき	-10.7597
壊	-10.7598
舎	-10.76
名誉	-10.76
1,000	-10.7602
キャップ	-10.7603
デュアル	-10.7608
ino	-10.7608
の最後の	-10.7616
科学者	-10.7617
心に	-10.7617
を備え	-10.7617
への転送	-10.7619
大使館	-10.762
絶対	-10.7621
を発揮	-10.7621
YouTube	-10.7625
cl	-10.7627
の他の	-10.7627
担	-10.7628
▁同様に	-10.7628
パイロット	-10.7631
うちに	-10.7633
app	-10.7635
並	-10.7636
値が	-10.7637
結果を	-10.7637
レアル	-10.7638
環	-10.764
部分を	-10.7641
▁Messagg	-10.7642
書かれた	-10.7646
を忘れ	-10.7648
あなたの人生に	-10.7652
驚くべき	-10.7655
台の	-10.7655
速い	-10.7656
の大きな	-10.7657
英国の	-10.7657
のバージョン	-10.7659
IWC	-10.7659
告	-10.766
をさらに	-10.7661
▁同時に	-10.7662
観光地	-10.7662
国際交流	-10.767
を追加します	-10.7672
チャイルドシート	-10.7673
デフォルトの	-10.7674
金曜日	-10.7675
測	-10.7676
ディスカッション	-10.7679
喜	-10.768
ji	-10.7681
ディス	-10.7681
BS	-10.7684
サービスを提供し	-10.7684
幕	-10.7687
を付け	-10.7689
その時	-10.7691
ように見えます	-10.7694
発明	-10.7696
を修正	-10.7696
Ro	-10.7701
世界で最も	-10.7702
▁マ	-10.7703
ワイ	-10.7703
を使用すること	-10.7705
きっかけ	-10.7706
波形	-10.7706
全体で	-10.7707
設	-10.7707
160	-10.7707
に存在する	-10.7707
▁mm	-10.7709
所に	-10.7709
模様	-10.771
甲	-10.7711
dr	-10.7711
▁沖縄	-10.7711
再現	-10.7711
ベリー	-10.7712
厚さ	-10.7712
1995	-10.7718
本サービス	-10.7723
クション	-10.7723
営業日	-10.7725
じゃ	-10.7726
▁このため	-10.7726
HP	-10.7727
原材料	-10.7728
▁トラック	-10.7729
難民	-10.773
の方が	-10.7731
スライド	-10.7731
ビッグ	-10.7731
▁Corporation	-10.7732
社会の	-10.7732
ISO	-10.7734
良好な	-10.7738
格納	-10.7738
LP	-10.774
の言葉	-10.7741
10%	-10.7741
首脳	-10.7744
の新	-10.7744
box	-10.7745
っていました	-10.7746
それゆえに	-10.7747
旗	-10.7749
不可	-10.775
同社は	-10.7751
奏	-10.7757
残酷な	-10.7758
LC	-10.7759
ther	-10.7759
多様性	-10.7759
の風景	-10.7759
を保持	-10.776
オーナー	-10.776
村の	-10.7762
uo	-10.7763
自信	-10.7767
カジノ	-10.7768
間違いなく	-10.7769
講義	-10.7771
を探し	-10.7773
始まった	-10.7774
わたしは	-10.7775
略	-10.7776
ml	-10.7776
工具	-10.7776
避け	-10.7776
入手	-10.7778
染	-10.7778
機会を与えてくれます	-10.7778
不明	-10.778
巨大	-10.778
ものだ	-10.7781
食べて	-10.7781
子会社	-10.7782
ファイルは	-10.7782
My	-10.7783
実際	-10.7783
をサポートする	-10.7786
開かれ	-10.7791
まして	-10.7791
ik	-10.7793
ウォレット	-10.7793
回の	-10.7794
熱い	-10.7795
絶対に	-10.7796
着陸	-10.7797
の港から	-10.7797
`	-10.7798
数百	-10.7798
ディナー	-10.7798
覆	-10.7799
▁イタリアのホテル	-10.7801
El	-10.7803
発達	-10.7805
を受け入れ	-10.7807
の腕時計を提供しています	-10.7807
デモ	-10.7807
を取得し	-10.781
を避ける	-10.781
をどんどん	-10.7814
洗練された	-10.7814
テンポ	-10.7814
バスルーム	-10.7816
uan	-10.7817
われわれ	-10.7817
ブリッジ	-10.782
71	-10.782
画像の	-10.7821
クロック	-10.7823
九寨溝	-10.7823
APEC	-10.7825
のタクシーは	-10.7826
個人データ	-10.7827
を選び	-10.7827
黙	-10.7827
▁Vi	-10.7827
限	-10.7828
二人	-10.7828
ウル	-10.7829
ult	-10.7831
房	-10.7831
する事	-10.7832
can	-10.7833
失われた	-10.7834
録	-10.7835
探	-10.7838
tr	-10.7838
のチームです	-10.784
関連の	-10.7842
区別	-10.7844
0.00	-10.7844
急いで	-10.7844
つい	-10.7845
鶏	-10.7848
このサイト	-10.7849
▁ウィッグの	-10.785
耐久性	-10.785
挨拶	-10.7851
▁前	-10.7851
OD	-10.7852
あなたを助けることができる	-10.7853
核兵器	-10.7853
カウント	-10.7854
▁Cubase	-10.7858
得られた	-10.7858
が発生する	-10.7859
を覚え	-10.7859
を知って	-10.786
支	-10.7861
幸運	-10.7862
を支払う	-10.7863
意志	-10.7867
研	-10.7867
3.0	-10.7869
少なく	-10.7871
しばらく	-10.7871
活動の	-10.7872
幾	-10.7874
BI	-10.7874
陳	-10.7874
風の	-10.7876
発掘	-10.7876
帰り	-10.7876
時計で	-10.7877
疑い	-10.7877
1990	-10.7878
の一環として	-10.7879
マテリアル	-10.7879
重要です	-10.7879
北海道	-10.788
UL	-10.788
善意者	-10.788
笑顔	-10.7881
飲み	-10.7883
▁i	-10.7887
カスタマーサービス	-10.7889
激しい	-10.7892
異なります	-10.7892
間隔	-10.7892
大量	-10.7893
ことに注意してください	-10.7895
blog	-10.7896
ペイ	-10.7897
を維持し	-10.7899
オル	-10.79
指揮	-10.79
コンソール	-10.7903
を利用した	-10.7904
▁ATTRACTIONS	-10.7904
をもたらし	-10.7905
のページ	-10.7906
ニャ	-10.7907
所得	-10.7909
流れる	-10.791
ov	-10.7913
されているブランド	-10.7913
アプリケーションの	-10.7913
シンプル	-10.7913
ーズ	-10.7915
保全	-10.7915
からスイス	-10.7917
全世界	-10.7918
リムジンサービス	-10.7919
▁ZetaTalk	-10.792
シップ	-10.7921
マテリアル製品	-10.7921
▁ですから	-10.7923
私たちはあなた	-10.7924
ることが	-10.7924
▁Ka	-10.7926
バリ	-10.7926
を提供している	-10.7926
ブランドの製品を	-10.7926
私達に	-10.7929
‐	-10.793
企業は	-10.7931
置き	-10.7933
作成された	-10.7934
豊富な経験と知識	-10.7934
身に着けていることによって	-10.7934
マリ	-10.7935
低減	-10.7936
割引価格で提供	-10.7937
▁アル	-10.7938
他のショップ	-10.7938
スタイルと衣装	-10.7939
▁彼らの	-10.794
▁CD	-10.794
柔らかい	-10.7941
あらゆる機会であなたの	-10.7941
エッジ	-10.7942
地に	-10.7942
かけて	-10.7943
BookingSuite	-10.7943
のお抱え運転手	-10.7943
を示す大きい	-10.7943
プロの	-10.7945
大きさ	-10.7949
▁GPS	-10.7949
産地	-10.795
隠された	-10.7951
▁Booking	-10.7951
時計を買う	-10.7951
個人情報は	-10.7953
を用意	-10.7955
▁TV	-10.7955
天体	-10.7956
一意性を追加	-10.7956
ベゼル	-10.7958
ぐらい	-10.7959
ご案内	-10.796
で製品を買う	-10.796
▁なぜ会社	-10.7961
職場	-10.7965
全体を	-10.7965
数学	-10.7965
に適した	-10.7966
の中でも	-10.7967
封	-10.7967
取り扱い	-10.7973
▁PAX	-10.7974
html	-10.7978
▁ドライバと	-10.7978
ごと	-10.798
出る	-10.7982
の方々	-10.7983
を構築し	-10.7983
都市の	-10.7984
93	-10.7986
氏の	-10.7987
時計は	-10.7988
の効果	-10.7988
定期	-10.7989
星の	-10.7989
兵士	-10.7989
財産	-10.799
pre	-10.7992
数日	-10.7993
に適用	-10.7993
億ドル	-10.7994
近隣	-10.7994
写真は	-10.7994
軍の	-10.7995
の目的	-10.7997
に表示される	-10.7997
しておく	-10.7999
生存	-10.8001
目的で	-10.8001
呼	-10.8002
oolshopus	-10.8004
が提供する	-10.8005
単なる	-10.8006
ound	-10.8006
経験の豊かな	-10.8006
のガイドと一緒に	-10.8009
▁ドイツ	-10.8009
マウント	-10.801
▁自動	-10.8012
▁アプリ	-10.8012
▁リ	-10.8013
ker	-10.8013
快適な旅をご提供	-10.8015
コンテナ	-10.8016
肩	-10.8017
決めた	-10.8018
設計された	-10.8019
▁その他サービス	-10.8021
インタプリタや	-10.8021
ポジターノ	-10.8025
申込	-10.8025
示す	-10.8028
高性能	-10.8028
次のように	-10.8029
率は	-10.8029
初めての	-10.803
はあなたの	-10.8032
チビタベッキア	-10.8032
ところに	-10.8032
歴史的な	-10.8033
の代わりに	-10.8033
からシチリア島	-10.8034
アラ	-10.8035
▁グループ	-10.8036
を選択すると	-10.8037
ホテルまでタクシー	-10.8038
SSI	-10.8039
を恐れ	-10.8039
患者の	-10.804
奨学金	-10.8041
ティブルティーナ駅	-10.8041
▁ミニバスの	-10.8041
Microsoft	-10.8041
されていました	-10.8041
ソロ	-10.8043
自然に	-10.8044
バイク	-10.8045
内部の	-10.8046
が自動的に	-10.8046
やイタリアの他の	-10.8047
▁メルセデスビアノ	-10.8047
車の中でタクシー	-10.8047
▁リボルノ海	-10.8047
▁San	-10.8047
思います	-10.8052
現時点で	-10.8053
ミラー	-10.8053
聞き	-10.8053
オートメーション	-10.8054
ミラノ	-10.8054
ンス	-10.8055
感染症	-10.8055
がある場合は	-10.8055
oc	-10.8056
▁お客様	-10.8056
買い物	-10.806
ank	-10.806
因	-10.8064
に到着	-10.8064
ひどい	-10.8067
釣り	-10.8067
クレーム	-10.8068
の大部分	-10.8069
7%	-10.8069
を担当	-10.8071
ことだ	-10.8073
できなかった	-10.8073
※	-10.8074
tro	-10.8074
遺跡	-10.8076
ご紹介	-10.8077
ボル	-10.8077
コミットメント	-10.8078
携帯	-10.8078
木の	-10.8079
▁Vol	-10.808
タップ	-10.8081
江戸時代	-10.8082
BE	-10.8082
ことができるように	-10.8082
亡	-10.8084
炎症	-10.8089
を減らす	-10.8091
売上高	-10.8092
当施設は	-10.8092
▁40	-10.8092
通常は	-10.8092
を開発し	-10.8094
障害者	-10.8096
がなく	-10.8097
を保証する	-10.8097
を有効に	-10.8098
経験を	-10.81
の主要な	-10.81
らい	-10.8101
復	-10.8106
▁チャンピーノ空港	-10.8107
リンポチェ	-10.811
態度	-10.8111
2%	-10.8112
認知	-10.8115
福祉	-10.8115
ズーム	-10.8115
取り付け	-10.8117
▁ニュース	-10.8117
砂漠	-10.8121
▁それらは	-10.8123
成形	-10.8128
使ってみよう	-10.8128
パソコン	-10.8129
Link	-10.8129
かもしれませんが	-10.8133
持って	-10.8134
ズム	-10.8139
oy	-10.8139
▁イタリア	-10.814
に乗る	-10.8142
最後	-10.8142
グレ	-10.8142
8%	-10.8143
ies	-10.8144
由来	-10.8145
及	-10.8146
▁HD	-10.8148
書籍	-10.8148
棚	-10.815
楽しく	-10.8152
ator	-10.8153
闘	-10.8154
▁23	-10.816
Th	-10.8162
とり	-10.8164
之	-10.8165
わけではありません	-10.8166
補正	-10.8167
インドの	-10.817
にアクセスする	-10.8171
付きの	-10.8171
様子	-10.8173
追加しよう	-10.8174
うる	-10.8174
特殊な	-10.8176
進出	-10.8176
椅子	-10.8176
天井	-10.8179
Sp	-10.8179
楽しむ	-10.818
を避け	-10.8181
▁アドレス	-10.8184
月には	-10.8185
際の	-10.8186
しようとしている	-10.8188
を紹介し	-10.8191
割合	-10.8192
入学	-10.8193
クリスチャン	-10.8195
FL	-10.8195
を必要とし	-10.8201
地域に	-10.8202
マジック	-10.8203
RP	-10.8204
に伴い	-10.8204
横浜	-10.8209
従って	-10.821
JavaScript	-10.821
を押し	-10.821
ですので	-10.821
軽く	-10.8211
一歩	-10.8211
▁--	-10.8211
の製品	-10.8214
replica	-10.8216
革新	-10.8218
とにかく	-10.8219
使われ	-10.8221
データが	-10.8224
残っている	-10.8224
GP	-10.8224
ning	-10.8225
wa	-10.8226
職業	-10.8228
つもり	-10.8228
の町	-10.8229
▁ドキュメント	-10.8229
ビタミン	-10.823
cn	-10.8232
気になるアイテム	-10.8232
映	-10.8232
▁サイト	-10.8232
CSR	-10.8233
しかも	-10.8235
みなさん	-10.8236
重点	-10.8239
ポータル	-10.8239
▁Blog	-10.8239
出演	-10.824
で構成され	-10.824
の小さな	-10.8242
スキャナ	-10.8244
リーグ	-10.8248
タウン	-10.8249
を加え	-10.8254
ウェブサイトの	-10.8259
漫画	-10.8262
ical	-10.8262
持続	-10.8263
がい	-10.8264
表明	-10.8265
かかります	-10.8266
ワクチン	-10.8267
わかる	-10.8268
ND	-10.8271
プロセスの	-10.8271
したい場合は	-10.8272
種子	-10.8274
策定	-10.8276
booking	-10.828
円形	-10.828
を書く	-10.8281
執	-10.8281
ドーム	-10.8285
近くに	-10.8286
を図る	-10.8287
処	-10.8288
▁何	-10.8289
▁Ad	-10.829
▁バー	-10.8292
』(	-10.8293
世界的に	-10.8293
パッチ	-10.8294
地球温暖化	-10.8295
シェ	-10.8296
偶然	-10.8296
下記	-10.8298
プライ	-10.8298
順番	-10.8298
にとっては	-10.8299
船舶	-10.8299
▁Ta	-10.8301
Cl	-10.8304
生涯	-10.8305
の基礎	-10.8307
批判	-10.8308
当施設の	-10.8312
れない	-10.8312
解明	-10.8313
劇	-10.8314
mb	-10.8315
児	-10.8316
のいくつか	-10.8317
▁ローマから	-10.8317
専用の	-10.8319
フィット	-10.8322
コンテンツを	-10.8323
低く	-10.8325
輝き	-10.8325
OpenImageBank	-10.8325
文明	-10.8327
を説明する	-10.8328
ミュージック	-10.833
階段	-10.8333
ari	-10.8333
▁Lo	-10.8334
女性は	-10.8336
売上	-10.8339
▁Skype	-10.8339
したとき	-10.8339
日の出	-10.8339
変異	-10.8343
転生	-10.8345
▁Friends	-10.8346
右の	-10.8346
に移	-10.8352
メタ	-10.8352
合法的	-10.8353
を検討	-10.8353
他にも	-10.8354
ムービー	-10.8355
創出	-10.8355
生活を	-10.8357
光学	-10.836
に位置しています	-10.8362
できるようになります	-10.8363
食材	-10.8363
mer	-10.8364
偏	-10.8365
の伝統	-10.8366
芸	-10.8367
思わ	-10.8368
起き	-10.8369
明確に	-10.837
▁スクリプト	-10.837
辞	-10.8371
そのうち	-10.8372
したときに	-10.8375
味わい	-10.8375
ありませんでした	-10.8375
Sha	-10.8376
専	-10.8377
に役立つ	-10.8377
ブライトリング	-10.8377
若干	-10.8377
嫌	-10.8379
接続ポイント	-10.8379
▁Evernote	-10.838
Con	-10.8381
図形	-10.8381
▁サ	-10.8382
定める	-10.8382
取得した	-10.8383
クリーン	-10.8388
の内部	-10.8389
はっきり	-10.8389
欄	-10.8389
ASEAN	-10.8391
でなく	-10.8391
lan	-10.8394
365	-10.8394
生じた	-10.8395
▁Enter	-10.8397
済みの	-10.8397
▁ちょうど	-10.8398
チャレンジ	-10.8399
シンポジウム	-10.84
領	-10.84
監査	-10.84
イベントを	-10.8402
ごとの	-10.8402
医薬品	-10.8402
日中	-10.8403
キャンパス	-10.8405
XP	-10.8406
蘇州	-10.8413
▁26	-10.8415
出来ます	-10.8416
シュー	-10.8416
の構造	-10.8417
座席	-10.8419
アフリカの	-10.842
Da	-10.842
才能	-10.842
祝	-10.8421
▁をクリックします	-10.8421
数十	-10.8422
中でも	-10.8424
、2018	-10.8424
者と	-10.8424
年以来	-10.8424
父親	-10.8424
バター	-10.8425
かん	-10.8428
dis	-10.8429
おります	-10.8429
かを	-10.843
パッド	-10.843
子プロセス	-10.843
▁7.	-10.8431
短期	-10.8431
派遣	-10.8438
傾き	-10.844
ブレ	-10.8441
まって	-10.8442
幸福	-10.8443
デザインの	-10.8444
頻度	-10.8444
が完了	-10.8445
女子	-10.8446
句	-10.8447
▁Pre	-10.8448
曲線	-10.8449
用品	-10.8449
干渉	-10.8449
探し	-10.845
出来	-10.845
付けられ	-10.8451
ムー	-10.8452
▁CO	-10.8452
▁ジャミロクワイイタリア	-10.8454
1997	-10.8455
の重要な	-10.8456
豪華な	-10.8457
ING	-10.8457
胃	-10.8458
組み込み	-10.8459
▁watch	-10.8467
見えます	-10.8469
▁ラ	-10.847
時半	-10.847
Trans	-10.8474
添付	-10.8476
ゲン	-10.848
毎月	-10.848
っており	-10.848
室内	-10.8481
レッ	-10.8482
るため	-10.8483
みた	-10.8487
江戸	-10.8487
ドリンク	-10.849
ご利用いただけます	-10.8492
肝	-10.8492
バックパック	-10.8494
▁彼らが	-10.8495
のリスク	-10.8495
金星	-10.8498
パルス	-10.8499
を見ることができます	-10.8499
いった	-10.85
長い時間	-10.85
ルイ	-10.8501
▁メール	-10.8502
何かを	-10.8503
▁World	-10.8503
怒り	-10.8504
▁一度	-10.8509
株主	-10.8509
果実	-10.8511
を調整	-10.8512
ありました	-10.8516
めた	-10.8516
長年	-10.8517
オリジナルの	-10.8518
暗	-10.8521
技術と	-10.8524
呼びかけ	-10.8524
待って	-10.8525
輝く	-10.8527
欠	-10.8527
データセンター	-10.8528
オール	-10.8529
進み	-10.8532
ちゃ	-10.8534
登山	-10.8536
のみならず	-10.8536
いれば	-10.8538
ナル	-10.8539
メイド	-10.8541
のトップ	-10.8541
の周り	-10.8545
MM	-10.8545
ld	-10.8545
高速道路	-10.8547
評判	-10.8548
eo	-10.8549
水が	-10.8549
倉庫	-10.855
ないでください	-10.8551
々と	-10.8555
▁Go	-10.8556
ハート	-10.8556
men	-10.8557
音符	-10.8557
プロジェクトは	-10.8557
作戦	-10.8559
細菌	-10.8562
していただけるよう	-10.8562
ちゃん	-10.8563
▁確かに	-10.8563
いずれかの	-10.8566
ox	-10.8566
とみなされ	-10.8566
ホワイトハウス	-10.8571
のインストール	-10.8572
ッカー	-10.8573
知られています	-10.8573
を聞く	-10.8577
道路の	-10.858
双方	-10.858
91	-10.8583
イング	-10.8583
取締役	-10.8587
ないと	-10.8587
相関	-10.8588
▁材料	-10.859
文章	-10.8592
360	-10.8592
アンケート	-10.8596
酵素	-10.8596
創設	-10.8596
方法について	-10.8598
1998	-10.8598
議長	-10.8599
比率	-10.8599
指向	-10.8599
蓮	-10.86
昭和	-10.8601
固有の	-10.8601
エリート	-10.8601
手の	-10.8601
を認識し	-10.8601
創業	-10.8602
トラックの	-10.8602
の支援	-10.8602
に興味	-10.8604
に至るまで	-10.8606
レザー	-10.8606
効果的に	-10.8607
溶け	-10.8607
▁Ra	-10.8609
を直接	-10.8609
ゲノム	-10.8609
腫	-10.8611
紀	-10.8611
追い	-10.8612
稲	-10.8623
場所は	-10.8625
▁Server	-10.8628
悲	-10.8628
加え	-10.863
でもあります	-10.8631
何故	-10.8631
許容	-10.8632
を意味する	-10.8632
▁それぞれの	-10.8633
放射	-10.8634
キリスト教	-10.8637
スイスの	-10.8642
続けて	-10.8645
沼	-10.8646
▁He	-10.8648
予期	-10.8648
La	-10.8649
スペシャル	-10.8649
緩和	-10.8651
を選択できます	-10.8651
Word	-10.8652
land	-10.8652
されるように	-10.8652
事業の	-10.8652
の女性	-10.8654
動的	-10.8655
協議会	-10.8658
開発された	-10.8658
戻り	-10.8658
相当	-10.8659
案件	-10.8661
の成功	-10.8661
、2015	-10.8663
をご利用	-10.8665
蒸気	-10.8665
ring	-10.8665
LS	-10.8668
ll	-10.8668
カウンター	-10.867
ホルダー	-10.867
場面	-10.867
ran	-10.8671
倉	-10.8672
仏教	-10.8672
アメリカ合衆国	-10.8675
ことができません	-10.8679
している場合	-10.868
ガーデン	-10.8681
どこでも	-10.8681
侵入	-10.8682
ユーザーに	-10.8684
ていない場合	-10.8685
Le	-10.8686
▁Ba	-10.8688
走行	-10.8689
えて	-10.869
画面の	-10.869
レア	-10.8691
えます	-10.8693
のではないか	-10.8693
SQL	-10.8693
がどのように	-10.8697
からだ	-10.8704
の品質	-10.8706
性別	-10.8706
山脈	-10.8709
がいる	-10.8709
6%	-10.8711
こともあります	-10.8711
シェフ	-10.8713
インスピレーション	-10.8714
血管	-10.8714
を変え	-10.8715
者を	-10.8716
ラウンジ	-10.8716
130	-10.8716
つです	-10.8717
▁Na	-10.8718
刺	-10.8718
セットアップ	-10.8719
取組	-10.8719
演出	-10.872
寺の	-10.8722
▁質問	-10.8723
▁主な	-10.8724
▁App	-10.8724
質量	-10.8728
カート	-10.8728
▁オーディオ	-10.8729
シリーズは	-10.873
止	-10.8732
に対処する	-10.8732
柔軟性	-10.8734
に来た	-10.8735
送られ	-10.8735
を選択してください	-10.8735
秋の	-10.8736
サミット	-10.8737
▁タブ	-10.8739
レンジ	-10.8739
0.1	-10.874
高解像度	-10.8742
責任者	-10.8744
の完全な	-10.8745
愛の	-10.8746
けれど	-10.8747
の端	-10.8747
▁8.	-10.8751
ユーティリティ	-10.8756
のウェブサイトでは	-10.8757
経済探偵	-10.8758
フィールドに	-10.8759
で開催された	-10.876
抑え	-10.8761
曲げ	-10.8762
の心	-10.8763
を更新	-10.8763
救	-10.8765
匿名	-10.8766
の実行	-10.8766
XXL	-10.8766
と考える	-10.8767
一定	-10.8767
汁	-10.8767
Japanese	-10.8767
お互い	-10.8769
死ぬ	-10.877
継続的な	-10.877
に伴う	-10.8772
スナップ	-10.8772
直面	-10.8772
してダウンロードしてください	-10.8773
ユーザーの個人情報を使用する	-10.8773
ロイ	-10.8775
参照してください	-10.8776
以下に	-10.8778
設定ファイル	-10.878
展示会	-10.8782
ソーシャルメディア	-10.8782
▁Hotel	-10.8784
▁西	-10.8785
スキーム	-10.8787
レジャー	-10.8787
ことを確認	-10.8788
の発生	-10.8789
自由な	-10.8791
amp	-10.8792
排水	-10.8795
みると	-10.8797
することができない	-10.88
況	-10.8801
▁デザイン	-10.8802
ウィン	-10.8802
lia	-10.8802
を保護する	-10.8809
▁Followers	-10.881
ことについて	-10.881
の味	-10.881
ドライ	-10.881
▁2006	-10.8811
フィン	-10.8814
溶接	-10.8815
正直	-10.8817
多少	-10.8819
▁画像	-10.882
施	-10.882
アジアの	-10.8821
rc	-10.8821
することも	-10.8822
ric	-10.8822
FX	-10.8822
の治療	-10.8824
Key	-10.8824
からなる	-10.8824
ture	-10.8825
適用する法律	-10.8826
囲	-10.883
▁地図	-10.8831
ニセコ	-10.8831
▁どの	-10.8832
粉末	-10.8832
フェア	-10.8833
ze	-10.8835
改めて	-10.8836
ose	-10.8836
水分	-10.8837
みて	-10.884
▁As	-10.884
紅	-10.8841
と考えられる	-10.8841
を発見	-10.8842
を共有する	-10.8843
るのは	-10.8843
とう	-10.8844
を送信する	-10.8844
市場は	-10.8845
訴訟	-10.885
コンクリート	-10.885
bin	-10.8852
の再	-10.8852
勇気	-10.8854
行事	-10.8854
終わる	-10.8855
名古屋	-10.8856
を対象に	-10.8856
同様	-10.8857
と言いました	-10.8861
ユーザーが当施設	-10.8862
コントローラー	-10.8862
部隊	-10.8866
包装	-10.8868
化した	-10.8868
進め	-10.8869
▁Ver	-10.887
オーダー	-10.8872
地方の	-10.8872
ごろ	-10.8873
できない場合	-10.8876
iao	-10.8876
トレ	-10.8876
---	-10.8878
市場に	-10.8878
かかり	-10.8879
によって異なります	-10.8879
ポーカー	-10.8879
Ma	-10.8881
フォーク	-10.8882
可能性のある	-10.8884
スクロール	-10.8884
軒	-10.8885
の光	-10.8885
を見つけることができます	-10.8887
az	-10.889
効	-10.889
イスラム	-10.8892
注意事項	-10.8892
そんなに	-10.8893
明るく	-10.8893
対象となる	-10.8894
収容	-10.8895
容易	-10.8895
農家	-10.8899
人類の	-10.8899
ソフトウェアの	-10.8901
日産	-10.8901
インタフェース	-10.8902
譜	-10.8905
文献	-10.8905
ミルク	-10.8905
を与えた	-10.8905
ウォー	-10.8906
安全で	-10.8906
規模の	-10.8908
1.1	-10.8909
クリスタル	-10.8909
太陽が	-10.891
手動で	-10.8911
選定	-10.8912
座標	-10.8914
ご連絡ください	-10.8918
個性	-10.8919
クラッシュ	-10.892
生きている	-10.8921
拡散	-10.8921
ていきたい	-10.8926
を訪問	-10.8926
CF	-10.8927
意義	-10.8928
使用することはできません	-10.8928
クイック	-10.893
足を	-10.8931
唯一	-10.8932
委員会の	-10.8933
消化	-10.8934
gg	-10.8934
に連絡	-10.8936
4%	-10.8937
ニュースレター	-10.8938
日目	-10.8939
これに	-10.8939
Set	-10.8942
エクスペリエンス	-10.8942
菜	-10.8942
開催される	-10.8944
の様子	-10.8945
補	-10.8945
を支える	-10.895
未満	-10.8951
ということは	-10.8952
護	-10.8953
クー	-10.8953
アド	-10.8953
ボン	-10.8956
状況を	-10.8956
ございます	-10.8957
▁デバイス	-10.896
List	-10.8961
MAN	-10.8962
をオフに	-10.8962
水道	-10.8963
ソフトウェアは	-10.8964
フー	-10.8964
を占め	-10.8965
正式に	-10.8965
彼らを	-10.8966
ise	-10.8967
込め	-10.897
ブラシ	-10.897
、2012	-10.897
腰	-10.8971
▁Add	-10.8972
韓国の	-10.8972
投与	-10.8974
位置情報	-10.8977
リットル	-10.8978
а	-10.8978
WEB	-10.8979
アク	-10.898
ニュージーランド	-10.8981
という意味	-10.8981
の拡大	-10.8981
ura	-10.8986
名が	-10.8987
▁2005	-10.899
Java	-10.8991
ung	-10.8991
最先端の	-10.8992
差別	-10.8994
スは	-10.8995
歳以上	-10.8995
そうした	-10.8996
で使用する	-10.8998
弊社の	-10.8998
化し	-10.9001
望遠鏡	-10.9002
コロ	-10.9002
料金は	-10.9003
のようなもの	-10.9005
の基本	-10.9006
▁27	-10.9008
ダイビング	-10.9009
首都	-10.9011
▁北	-10.9011
理念	-10.9011
連れ	-10.9011
コンサルティング	-10.9011
初心者	-10.9011
は無料です	-10.9012
周期	-10.9012
を続け	-10.9012
標高	-10.9014
たく	-10.9017
見解	-10.9018
ヌー	-10.902
CIA	-10.9021
しておりますが	-10.9027
世界を	-10.9027
Res	-10.9028
だと思う	-10.903
ler	-10.9031
する際	-10.9031
航	-10.9033
を超え	-10.9033
ダル	-10.9036
発射	-10.9037
続けている	-10.9038
チェックイン	-10.9038
上映	-10.9041
てくる	-10.9041
お話	-10.9042
稼働	-10.9043
ユーザー名	-10.9045
を伴う	-10.9045
を強調し	-10.9046
Ana	-10.9047
いで	-10.9048
▁ガールズ	-10.9048
年代に	-10.9048
大学で	-10.9048
誘	-10.9049
所属	-10.9052
為に	-10.9054
価格で	-10.9055
揚げ	-10.9058
機能が	-10.906
やり方	-10.9062
完	-10.9062
者たち	-10.9062
の目	-10.9063
閲覧する場合	-10.9063
煮	-10.9064
機の	-10.9065
地位	-10.9065
などの目的で	-10.9067
未来の	-10.9067
結婚式	-10.9069
▁1:	-10.907
モスクワ	-10.9072
car	-10.9072
を容易に	-10.9073
向かい	-10.908
思	-10.9081
しまい	-10.9083
本質的に	-10.9084
問い合わせ	-10.9084
クラスの	-10.9084
与えられ	-10.9085
明白	-10.9085
同僚	-10.9086
材料の	-10.9086
年頃	-10.9088
ke	-10.9088
同士	-10.9088
なんて	-10.9091
LT	-10.9092
神戸	-10.9092
見ることができます	-10.9095
フレーズ	-10.9096
噴火	-10.9101
ビス	-10.9101
当サイトを引き続き	-10.9101
経由で	-10.9102
同盟	-10.9103
黄金	-10.9103
するとともに	-10.9104
地の	-10.9107
かれた	-10.9107
矢印	-10.9111
食物	-10.9111
回る	-10.9113
のセクションは	-10.9115
GT	-10.9115
▁インド	-10.9115
ブリュッセル	-10.9118
CPU	-10.9118
セクター	-10.9119
Ar	-10.9119
だれ	-10.9119
議員	-10.9122
ともに	-10.9123
張り	-10.9123
らせる	-10.9124
リファレンス	-10.9124
視野	-10.9125
技術的な	-10.9126
地下鉄	-10.9126
プレゼント	-10.9128
主導	-10.913
シグナル	-10.913
今週	-10.913
雪の	-10.9131
(4	-10.9132
標本	-10.9134
お気に入りの	-10.9134
-15	-10.9137
知らせ	-10.9137
手動	-10.9137
半島	-10.9138
この記事	-10.9139
おく	-10.9141
システムが	-10.9143
の一人	-10.9143
を開始します	-10.9146
▁51	-10.9151
衣	-10.9151
の最	-10.9152
を始める	-10.9153
line	-10.9153
ビデオを	-10.9156
と私は	-10.9158
スラ	-10.9159
不良	-10.916
を特定	-10.9165
EV	-10.9167
を支援し	-10.9167
正規	-10.9168
get	-10.9169
(「	-10.9169
▁¥	-10.917
ミル	-10.9171
カリフォルニア	-10.9171
姉妹	-10.9171
じゃない	-10.9171
▁GB	-10.9172
続けています	-10.9172
ネイ	-10.9173
テイ	-10.9175
の開始	-10.9175
除外	-10.9176
ご注意ください	-10.9178
ご質問	-10.9178
だろうか	-10.9181
毎に	-10.9182
ゆえに	-10.9184
音源	-10.9188
クリエイティブ	-10.9188
授与	-10.9188
の取り組み	-10.9189
▁さて	-10.9189
を管理する	-10.9189
の画像	-10.9191
▁Sa	-10.9194
遵守	-10.9194
こちらの	-10.9195
ってくる	-10.9197
ファブリック製品と	-10.9198
仕上がりの印象が	-10.9198
の機会	-10.9199
を促進し	-10.92
てくれた	-10.92
ほかの	-10.9202
▁フィウミチーノ空港	-10.9206
どのくらい	-10.9208
ベルリン	-10.9209
トラッキング	-10.9211
自分たちの	-10.9211
に行き	-10.9213
日時	-10.9213
体重	-10.9213
)]	-10.9215
とサードパーティー	-10.9215
いう	-10.9216
表示され	-10.9216
抜	-10.9217
RF	-10.9217
og	-10.922
oz	-10.922
グローバルな	-10.9221
キッズサイズ	-10.9222
に沿った	-10.9222
役員	-10.9223
示します	-10.9224
加入	-10.9226
踊り	-10.9227
▁上記の	-10.9228
サラ	-10.9228
四川省中国青年旅行社	-10.923
に基づいた	-10.923
より快適に閲覧	-10.923
学的	-10.923
が発生し	-10.923
をすべて	-10.9233
特色	-10.9234
が含まれている	-10.9234
復活	-10.9236
触れ	-10.9239
広範囲	-10.924
分析およびマーケティング	-10.924
変化する	-10.9242
選ばれた	-10.9243
馬力	-10.9244
о	-10.9244
2:	-10.9245
レーン	-10.9247
寄せ	-10.9247
スティ	-10.9248
東芝	-10.9248
れている	-10.9249
の更新	-10.925
独占	-10.925
名を	-10.925
潜	-10.9253
yn	-10.9254
▁CE	-10.9255
相対	-10.9256
祝福	-10.926
メーター	-10.926
ようになり	-10.9261
を基に	-10.9263
式の	-10.9264
通りに	-10.9264
ii	-10.9265
▁Mon	-10.9266
▁Cloud	-10.9266
配慮	-10.9269
と思って	-10.927
知られ	-10.927
を発行	-10.9271
すばらしい	-10.9272
日本と	-10.9272
数分	-10.9273
をとり	-10.9273
日本企業	-10.9276
ことを期待	-10.9276
高精度	-10.9277
を見つけること	-10.9278
をかけ	-10.9279
チック	-10.928
デッキ	-10.9281
お気に入り	-10.9282
▁このサイト	-10.9282
SF	-10.9283
をクリックしてください	-10.9284
逆に	-10.9284
無く	-10.9286
幹	-10.9289
説明した	-10.929
▁BookingSuite	-10.9291
戦略的	-10.9292
いか	-10.9292
pr	-10.9294
の処理	-10.9294
植	-10.9294
リーダーシップ	-10.9294
▁Ph	-10.9296
思って	-10.9296
農村	-10.9299
別に	-10.9303
ヴァン	-10.9303
なくなった	-10.9306
包括的な	-10.9307
に従う	-10.9308
▁日本語	-10.9309
か月	-10.9309
概	-10.931
確定	-10.931
描画	-10.9311
楼	-10.9311
ブドウ	-10.9311
速やかに	-10.9312
はじめに	-10.9313
放射線	-10.9313
防災	-10.9316
▁9.	-10.9317
shan	-10.9318
労	-10.9321
年間で	-10.9321
動か	-10.9321
の近くに	-10.9326
麗江	-10.9327
野球	-10.9327
上下	-10.9328
うこと	-10.9329
鹿	-10.9332
を設立	-10.9336
充実	-10.9337
ダッシュボード	-10.9338
77.	-10.9339
▁Ha	-10.9339
입선	-10.9341
女性が	-10.9342
▁自分の	-10.9344
ネス	-10.9344
切る	-10.9345
ort	-10.9345
転移	-10.9346
▁t	-10.9347
見られ	-10.9348
ea	-10.9348
隆	-10.935
を伝える	-10.9354
書かれ	-10.9355
求める	-10.9355
同じく	-10.9357
▁惑星	-10.9357
使用されています	-10.9357
を推進し	-10.9358
鐘	-10.9361
採	-10.9361
ドリ	-10.9362
▁まだ	-10.9362
奇	-10.9363
エントリー	-10.9365
バイヤー	-10.9369
刃	-10.937
短縮	-10.9371
▁アクセス	-10.9372
小説	-10.9375
ている場合	-10.9377
お部屋	-10.9379
当社グループ	-10.9382
サイバー	-10.9382
つぶ	-10.9382
GS	-10.9383
NY	-10.9385
世話	-10.9386
ッパー	-10.9387
期の	-10.9391
the	-10.9394
に影響を与える	-10.9395
免除	-10.9396
SL	-10.9396
に努め	-10.9396
ローズ	-10.9396
遺産	-10.9397
石炭	-10.9398
に戻って	-10.9399
純粋な	-10.9399
OM	-10.9399
Ch	-10.9399
を探す	-10.94
性交	-10.94
las	-10.9403
にかかわらず	-10.9403
スティック	-10.9405
▁DRM	-10.9408
事務	-10.9408
▁アジア	-10.9409
cgi	-10.9409
Min	-10.941
本学	-10.941
フライト	-10.941
地形	-10.9411
▁32	-10.9414
表情	-10.9415
を訪れ	-10.9415
rm	-10.9417
欠陥	-10.9418
健	-10.9418
見通し	-10.9418
感動	-10.942
車輌	-10.942
そのように	-10.9421
友	-10.9421
耐水性	-10.9421
▁コ	-10.9422
質の	-10.9424
и	-10.9425
に取り組む	-10.9426
めて	-10.9429
くれ	-10.9429
努力を	-10.9432
笑い	-10.9432
е	-10.9435
wiki	-10.9438
てしまった	-10.9438
用いられ	-10.9439
動物の	-10.9441
が参加し	-10.9442
を得るために	-10.9444
鎮	-10.9445
▁ユーザーは	-10.9447
プロセスを	-10.9448
必ずしも	-10.9448
を越えて	-10.945
地中海	-10.945
を決定する	-10.9451
上司	-10.9452
Name	-10.9453
生態系	-10.9453
コードを	-10.9454
▁あなたのレンタカー	-10.9456
影響力	-10.9456
の方へ	-10.9457
のこと	-10.9457
を読んで	-10.9458
▁タイ	-10.9463
9%	-10.9465
の使用に同意したものとみな	-10.9466
並んで	-10.9466
5,000	-10.9467
-9	-10.9468
点は	-10.9471
微生物	-10.9472
苗	-10.9473
万円	-10.9473
遅い	-10.9473
導く	-10.9473
オブジェクトの	-10.9474
支払う	-10.9475
行われている	-10.9477
ding	-10.948
ich	-10.9482
を実施し	-10.9482
強力	-10.9483
2.0	-10.9483
月曜日	-10.9484
にのみ	-10.9485
を除く	-10.9485
の顔	-10.9485
チュートリアル	-10.9486
標的	-10.9486
ami	-10.9487
を運営する	-10.9488
を取って	-10.9489
まあ	-10.949
あい	-10.949
させるために	-10.9491
組織の	-10.9491
述べた	-10.9492
夜に	-10.9493
介入	-10.9493
と思っています	-10.9495
ev	-10.9495
を制御する	-10.9495
ステレオ	-10.9496
を聞いて	-10.9496
随	-10.9497
運命	-10.9497
ポーランド	-10.9497
基板	-10.95
を設け	-10.9501
飾	-10.9502
近代	-10.9504
含	-10.9505
の安全	-10.9506
割り当てられ	-10.9506
最終的な	-10.9507
は西暦	-10.9508
ができ	-10.9508
BTC	-10.951
▁iOS	-10.9511
量を	-10.9512
▁アメリカ	-10.9512
1996	-10.9515
プロジェクトを	-10.9516
ペース	-10.9517
リュー	-10.9517
の評価	-10.9519
EA	-10.9521
▁私達が	-10.9523
アンプ	-10.9524
損	-10.9526
を保つ	-10.9526
をつけ	-10.9528
朱	-10.9528
自らの	-10.9529
催	-10.953
▁px	-10.953
の香り	-10.9531
▁Data	-10.9531
インスタンス	-10.9531
満たされ	-10.9531
組み立て	-10.9531
wi	-10.9532
ガソリン	-10.9536
出てくる	-10.9538
介	-10.9538
Ca	-10.9538
冊	-10.9538
耐性	-10.9539
Apple	-10.9539
登る	-10.954
FF	-10.9541
の必要性	-10.9543
就	-10.9544
過剰	-10.9544
バンク	-10.9545
委員	-10.9546
奪	-10.9547
ベンダーや	-10.9549
▁ザ	-10.955
:"	-10.9552
トーン	-10.9553
語った	-10.9553
ぶり	-10.9555
新宿	-10.9555
形式の	-10.9556
階層	-10.9556
改正	-10.9558
リストに	-10.9559
dB	-10.956
米国で	-10.956
tics	-10.9563
の総	-10.9564
滑	-10.9565
同社	-10.9565
▁コピー時計	-10.9565
勤務	-10.9567
因子	-10.9568
パニック	-10.9568
豚	-10.9568
を務め	-10.9569
シリーズの	-10.9573
モデルの	-10.9574
設定を	-10.958
すごく	-10.9581
モル	-10.9581
承	-10.9582
無料フォント	-10.9583
フラグ	-10.9583
▁Online	-10.9584
技術は	-10.9585
イエス様	-10.9586
おお	-10.9586
音響	-10.9588
リバー	-10.9588
の平均	-10.9589
であることが	-10.959
ローン	-10.959
ニビルの	-10.9591
を持っていない	-10.9591
選び	-10.9592
雑	-10.9596
抜き	-10.9596
iv	-10.9597
の通り	-10.9598
横断	-10.9599
-20	-10.96
以外に	-10.9602
をダウンロードできる場所	-10.9602
の戦い	-10.9605
買収	-10.9605
死んだ	-10.9605
ってきた	-10.9605
を起こし	-10.9605
イラスト	-10.9607
児童	-10.9607
崖	-10.9611
▁メイン	-10.9612
っぱ	-10.9613
ダイアログで	-10.9613
が最も	-10.9614
row	-10.9615
カスタムプレビュー	-10.9615
を通過	-10.9616
att	-10.9617
フォント集	-10.9617
▁DVD	-10.9617
掘削	-10.9617
コンパクト	-10.962
▁このページ	-10.9621
小売	-10.9621
招	-10.9622
目的地	-10.9625
期限	-10.9625
巨	-10.9627
の質	-10.9629
敬	-10.9629
という名前	-10.963
友好	-10.963
目で	-10.9632
米ドル	-10.9632
ウクライナ	-10.9632
増加し	-10.9633
サイトの完全	-10.9633
東京都	-10.9635
は全く	-10.9635
海岸線	-10.9637
削除された	-10.9638
滑り	-10.9639
信頼できる	-10.964
優しい	-10.9641
コム	-10.9641
ギリシャの	-10.9642
投入	-10.9642
正面	-10.9643
3000	-10.9644
狭い	-10.9645
をはじめとする	-10.9645
サム	-10.9645
UP	-10.9645
前提	-10.9646
を販売しようとしている	-10.9648
を示した	-10.9651
バレー	-10.9651
we	-10.9655
されていること	-10.9655
のソース	-10.9657
Apache	-10.9662
周辺の	-10.9662
建立	-10.9662
FR	-10.9663
IV	-10.9664
dia	-10.9664
の死	-10.9665
Remo	-10.9665
ショット	-10.9666
力が	-10.9667
rom	-10.9667
危険性	-10.9668
gr	-10.967
このゲーム	-10.967
Outlook	-10.9673
様に	-10.9675
アパートメント	-10.9676
個別	-10.9678
贈り物	-10.9679
信頼性の高いサイトを	-10.9679
Object	-10.9681
予	-10.9681
元に	-10.9682
アナログ	-10.9684
ani	-10.9687
ini	-10.9689
百万	-10.9689
に注目	-10.969
ジャミロクワイ	-10.9691
なんと	-10.9692
の夜	-10.9692
1980	-10.9692
▁KDDI	-10.9693
仁	-10.9694
悪魔	-10.9695
act	-10.9696
モータ	-10.9696
境	-10.9697
銘柄	-10.9699
ッピング	-10.9701
面で	-10.9702
ジング	-10.9703
クレーン	-10.9703
の道	-10.9704
がよく	-10.9706
不要	-10.9707
ターン	-10.9708
系統	-10.9709
à	-10.9712
の声	-10.9715
調査サービスや	-10.9715
沈下	-10.9717
ale	-10.9718
INC	-10.9719
機器の	-10.9721
述べています	-10.9722
競	-10.9723
▁Ex	-10.9724
タブレット	-10.9726
さらには	-10.9726
手作り	-10.9727
の一覧	-10.9727
▁ダイアログ	-10.9727
きっと	-10.9728
悩	-10.9729
姿を	-10.9731
長崎	-10.9736
始	-10.9736
貯蔵	-10.9738
エクス	-10.9738
▁Support	-10.974
ポスター	-10.9741
再建	-10.9741
を避けるために	-10.9745
2/	-10.9746
を行なう	-10.9746
クター	-10.9747
しまう	-10.975
作品の	-10.975
竜	-10.9751
康	-10.9753
を実行します	-10.9754
MU	-10.9756
に比べ	-10.9756
era	-10.9757
ns	-10.9757
委員長	-10.9758
フロ	-10.9759
利用する	-10.976
研究センター	-10.976
▁Center	-10.9761
発生します	-10.9761
デザート	-10.9762
Ti	-10.9763
おこ	-10.9764
万ドル	-10.9764
予報円	-10.9765
ベンダー	-10.9766
硬	-10.9768
委託	-10.9771
燃え	-10.9773
BT	-10.9775
に貢献する	-10.9776
これらは	-10.9776
がまだ	-10.9778
するときに	-10.9781
テレ	-10.9786
▁近年	-10.9787
農場	-10.9787
ハードドライブ	-10.9788
しま	-10.9789
ブラン	-10.9789
実は	-10.9793
ついて	-10.9797
を送信	-10.9801
物理的	-10.9801
マイク	-10.9807
領土	-10.9809
▁なぜなら	-10.9809
入場	-10.981
ica	-10.9811
遠い	-10.9811
文化の	-10.9813
戦う	-10.9813
長期的な	-10.9816
Portal	-10.9816
お奨めする	-10.9818
のイベント	-10.9818
商品をメールで	-10.9821
を記録し	-10.9823
と比較	-10.9824
セールス	-10.9827
見ている	-10.9827
標準的な	-10.9828
▁選択した	-10.983
tu	-10.983
人生の	-10.9831
中心部	-10.9833
はありますか	-10.9835
塊	-10.9836
達に	-10.9837
物理学	-10.9838
失われ	-10.9838
、2010	-10.9839
代理店	-10.9839
Best	-10.984
ままに	-10.9842
一人の	-10.9842
マケドニア	-10.9844
免	-10.9845
▁私たちが	-10.9847
一時的に	-10.9847
織	-10.9848
積極的な	-10.9849
お使い	-10.9851
福音	-10.9852
桃	-10.9859
サードパーティ	-10.9859
前進	-10.986
浸透	-10.9861
Fe	-10.9863
受付	-10.9864
徹底	-10.9864
アムステルダム	-10.9865
??	-10.9866
構	-10.9866
ノウハウ	-10.9867
没	-10.9868
言え	-10.9871
と考えている	-10.9871
東北	-10.9872
の約	-10.9875
ステンレス鋼	-10.9875
ドキュメンタリー	-10.9875
ブレンド	-10.9876
入った	-10.9876
を形成する	-10.9876
New	-10.9877
原発	-10.9877
お願い	-10.9879
だけに	-10.9881
世界最大の	-10.9881
110	-10.9881
細胞の	-10.9881
に登録	-10.9881
同社の	-10.9883
であって	-10.9883
量は	-10.9885
落とし	-10.9885
見つけ	-10.9886
補償	-10.9886
国際社会	-10.9887
教会の	-10.9889
どれ	-10.9889
の部屋	-10.989
継続的に	-10.989
フィットネス	-10.9891
ori	-10.9892
work	-10.9892
▁どのように	-10.9892
の安全性	-10.9892
vis	-10.9892
磁石	-10.9895
瀬	-10.9896
に使用する	-10.9896
ならではの	-10.9897
ゆっくり	-10.99
HS	-10.99
見つける	-10.9901
行い	-10.9902
大いに	-10.9903
を加える	-10.9904
言葉を	-10.9908
与え	-10.9908
の始まり	-10.9909
にした	-10.9909
現在は	-10.9909
Cr	-10.991
としています	-10.9911
ラボ	-10.9912
駐	-10.9917
する機会	-10.9917
混ぜ	-10.9917
考えた	-10.9919
意味で	-10.9919
▁アカウント	-10.9919
すべては	-10.9919
共同研究	-10.992
制約	-10.9921
数々の	-10.9922
省の	-10.9924
プレートが	-10.9924
他のもの	-10.9925
茎	-10.9925
遺	-10.9927
人間が	-10.9928
af	-10.9928
必要はありません	-10.9929
▁Communications	-10.993
揺れ	-10.9931
走り	-10.9933
懐	-10.9933
教員	-10.9934
の街	-10.994
との間の	-10.994
を開け	-10.9941
コンバータ	-10.9944
sha	-10.9945
問題を解決	-10.9947
男性の	-10.9948
彼ら自身	-10.995
商用	-10.9951
得られる	-10.9952
ウィーン	-10.9953
ock	-10.9953
コテージ	-10.9956
の精神	-10.9956
尋ね	-10.9957
分野における	-10.9957
変形	-10.9957
お願いいたします	-10.996
われた	-10.9962
ショック	-10.9962
▁ここ	-10.9964
III	-10.9964
伏	-10.9965
デスク	-10.9966
できますか	-10.9967
心地	-10.9968
€	-10.997
渓谷	-10.9971
資金を	-10.9972
牧	-10.9973
効率的な	-10.9975
ert	-10.9976
成田	-10.9976
で最高の	-10.9978
上がって	-10.9979
フェード	-10.9982
るので	-10.9983
せて	-10.9983
リビア	-10.9985
▁ボタン	-10.9985
▁上海	-10.9986
救い	-10.9986
問題の	-10.9987
していると	-10.9987
溶	-10.9989
の所有者	-10.9992
メガ	-10.9993
トーナメント	-10.9994
Cam	-10.9995
寒い	-10.9995
▁Te	-10.9996
空白で区切って	-10.9996
を入力し	-10.9998
われる	-10.9998
縮小	-10.9998
FO	-10.9999
不満	-11.0002
することが可能	-11.0002
に向け	-11.0003
ブラウン	-11.0003
訪れる	-11.0004
地球は	-11.0007
付加	-11.0009
訴え	-11.0011
飲み物	-11.0012
するためには	-11.0013
ストップ	-11.0016
UE	-11.0016
py	-11.0017
の最も	-11.0018
木製の	-11.002
▁複数の単語を	-11.002
zip	-11.002
ドラ	-11.0021
で検索開始	-11.0023
アカウントの	-11.0023
生態	-11.0024
の例	-11.0024
傾斜	-11.0025
▁ネットワーク	-11.0026
壊れ	-11.0027
▁You	-11.0027
祖	-11.0027
ight	-11.0028
逸	-11.0028
の特性	-11.0029
ッグ	-11.0029
年後	-11.003
▁最も	-11.0031
者として	-11.0031
ステンレス	-11.0033
ティファニー	-11.0034
事務局	-11.0034
光を	-11.0035
体を	-11.0035
パイプ	-11.0036
ロイヤル	-11.0036
することがあります	-11.0037
帝国	-11.0038
風味	-11.0039
月末	-11.0039
の記録	-11.004
チー	-11.0043
の最大	-11.0045
非表示	-11.0047
一般的	-11.0048
の利点	-11.005
夕方	-11.0051
みました	-11.0055
▁Record	-11.0056
埋め	-11.0056
▁n	-11.0056
▁テンプレート	-11.0057
にご	-11.0058
活気	-11.0058
いただきました	-11.0059
渓	-11.0059
無し	-11.006
ヶ月間	-11.0061
がより	-11.0063
に移動する	-11.0063
File	-11.0064
捕	-11.0065
Blockchain	-11.0065
発注	-11.0067
っていない	-11.0067
かせ	-11.0068
に見える	-11.007
の方法	-11.0072
ジャック	-11.0073
を使用する場合	-11.0074
で撮影	-11.0076
red	-11.0077
を始めた	-11.0077
tt	-11.008
カスタマー	-11.008
海に	-11.0082
と彼の	-11.0082
を選択することができます	-11.0084
定期的な	-11.0084
va	-11.0086
苦しみ	-11.0087
2,000	-11.0089
南北	-11.0089
民主主義	-11.009
目標は	-11.009
それとも	-11.0091
ていると	-11.0094
PD	-11.0095
に移動します	-11.0097
あなた方	-11.0097
性的	-11.0099
の山	-11.0101
ビーム	-11.0103
mu	-11.0105
奴隷	-11.0105
リターン	-11.0106
を買う	-11.0108
スパム	-11.0108
に入り	-11.0109
▁約	-11.0112
周りの	-11.0113
▁コード	-11.0115
駅から	-11.0115
一切	-11.0118
知ら	-11.0118
▁平成	-11.0119
LD	-11.0119
通話	-11.012
を考える	-11.012
▁プロ	-11.0121
▁内部	-11.0121
青年	-11.0123
画面に	-11.0123
An	-11.0123
全然	-11.0125
VA	-11.0129
特集	-11.0132
des	-11.0134
任命	-11.0136
の期間	-11.0138
を描く	-11.0141
▁詳細は	-11.0141
本当	-11.0142
頂く	-11.0144
したのは	-11.0145
皇帝	-11.0146
ッター	-11.0147
軽量	-11.0149
のほとんどは	-11.0149
伝える	-11.0149
そうだ	-11.015
再生可能エネルギー	-11.0151
をよく	-11.0152
に耐え	-11.0153
wn	-11.0154
サイエンス	-11.0155
なども	-11.0155
開いて	-11.0155
業界で	-11.0156
イヤー	-11.0158
貧しい	-11.016
IG	-11.016
宇宙の	-11.016
僕の	-11.016
してくれる	-11.0162
ゴールデン	-11.0163
キャスト	-11.0164
ヘア	-11.0166
▁2000	-11.0167
無限の	-11.0167
グロ	-11.0168
ign	-11.0169
ナス	-11.0169
ブロ	-11.0169
王国	-11.017
マット	-11.0171
に集中	-11.0171
のみが	-11.0171
していますが	-11.0174
識別子	-11.0174
ことのできる	-11.0175
境界	-11.0176
マッピング	-11.0176
▁コンテンツ	-11.0177
を満たし	-11.0182
集合	-11.0184
FP	-11.0184
time	-11.0185
誇	-11.0186
述べ	-11.0187
学校の	-11.0187
握	-11.0189
お待ち	-11.0189
レール	-11.0193
耐え	-11.0193
シング	-11.0194
ユーザが	-11.0194
正確性	-11.0194
エレ	-11.0195
レジ	-11.0196
音が	-11.0197
YA	-11.0198
ENT	-11.02
ラグ	-11.02
ポップアップメニュー	-11.0202
径	-11.0203
レーター	-11.0203
ファイルに	-11.0204
以外で	-11.0204
エキス	-11.0204
の中心部	-11.0204
年までに	-11.0205
とりわけ	-11.0206
▁実際には	-11.0206
レント	-11.0206
判	-11.0208
審	-11.021
fin	-11.021
高原	-11.0213
Mod	-11.0213
の高	-11.0214
の規定	-11.0215
▁Facebook	-11.0217
の真	-11.022
コミット	-11.0221
コーチ	-11.0221
VC	-11.0221
昼食	-11.0222
冠	-11.0223
に取り組んで	-11.0223
ギャ	-11.0224
研磨	-11.0224
▁弊社	-11.0227
受け取り	-11.0228
チベットの	-11.0231
oll	-11.0232
世紀に	-11.0233
ヒー	-11.0234
が必要である	-11.0235
が所有	-11.0236
ラマ	-11.0237
缶	-11.0238
Book	-11.0241
とも呼ばれ	-11.0241
訪れ	-11.0243
▁スタッフ	-11.0244
頂けます	-11.0245
感度	-11.0246
を編集する	-11.0249
トンネル	-11.025
鑑賞	-11.0252
を生じ	-11.0253
MT	-11.0253
ディーゼル	-11.0254
ヨハネ	-11.0254
動機	-11.0255
る税関	-11.0259
紀元前	-11.0259
xi	-11.0264
CV	-11.0264
オーディオファイル	-11.0265
直ちに	-11.0265
植物の	-11.0265
ショート	-11.0266
▁Download	-11.0267
リュ	-11.0268
レジストリ	-11.0269
明確	-11.027
を繰り返し	-11.0274
コスプレ	-11.0274
裁	-11.0274
を切り	-11.0274
▁ベトナム	-11.0275
の葉	-11.0279
真空	-11.0281
ドロ	-11.0281
ほどの	-11.0282
を追跡	-11.0283
期間中	-11.0284
ときには	-11.0285
生まれる	-11.0285
の半分	-11.0286
恵まれ	-11.0286
を保存する	-11.0287
にあたって	-11.0287
帰国	-11.0287
寿司	-11.0289
の主要	-11.029
屈	-11.0291
の方向	-11.0292
料理を	-11.0292
▁90	-11.0294
オリーブ	-11.0294
ライフスタイル	-11.0296
帝	-11.0297
成績	-11.0298
を返す	-11.0298
を使用している	-11.0299
はどう	-11.0299
迅速な	-11.0299
抗議	-11.03
モール	-11.03
聞かせ	-11.03
さら	-11.03
磁気の	-11.0301
載	-11.0301
者である	-11.0301
ジョー	-11.0302
怒	-11.0302
する必要が	-11.0302
Bit	-11.0302
発表された	-11.0308
ことができなかった	-11.0308
セイ	-11.0309
使用され	-11.0309
雨が	-11.0311
知恵	-11.0312
を表し	-11.0313
買い手	-11.0314
顔を	-11.0314
塗	-11.0316
の学生	-11.0317
飾り	-11.0318
が大きく	-11.0319
事実上	-11.0319
トラブル	-11.0319
磁場	-11.0321
今年の	-11.0322
ことがない	-11.0322
▁l	-11.0323
最大限	-11.0324
コラボレーション	-11.0325
書く	-11.0326
省エネ	-11.0327
グルメ	-11.0328
を信じ	-11.0328
といいます	-11.0329
どうして	-11.033
全体が	-11.033
運賃	-11.033
AW	-11.0331
渡し	-11.0332
愛好家	-11.0336
フロア	-11.0336
全体に	-11.0336
▁Group	-11.0337
初めに	-11.0337
▁ソース	-11.0339
立っている	-11.0339
が表示される	-11.034
MX	-11.0341
350	-11.0341
ボディガードサービス	-11.0342
シール	-11.0345
妙	-11.0346
を向上させ	-11.0347
妊娠	-11.0347
9:00	-11.0348
のタイプ	-11.0348
お子様	-11.0349
来年	-11.035
ium	-11.035
は自動的に	-11.0351
則	-11.0351
税込	-11.0352
を与えます	-11.0355
かなりの	-11.0357
ということを	-11.0358
gram	-11.0358
得られ	-11.036
たもの	-11.036
に住んでいる	-11.0361
コントローラ	-11.0362
含まれています	-11.0362
関節	-11.0368
ハブ	-11.0368
嘆	-11.0369
過程で	-11.0369
由	-11.037
それでも	-11.0371
らは	-11.0371
最初から	-11.0371
親切	-11.0374
周囲の	-11.0376
惑	-11.0377
カメラの	-11.0378
近づいて	-11.0379
を実施する	-11.0382
への影響	-11.0383
振興	-11.0383
ヨン	-11.0385
氏名	-11.0386
▁オ	-11.0387
弓	-11.0388
▁外部	-11.039
あなただけ	-11.0393
いっぱい	-11.0393
gin	-11.0394
上から	-11.0396
つづけ	-11.0397
乗客	-11.0398
自身が	-11.0403
もち	-11.0403
研究員	-11.0404
に入った	-11.0404
についての詳細	-11.0405
するものとします	-11.0407
厚い	-11.0407
に触れ	-11.0408
を提供するために	-11.0408
▁2004	-11.0408
をお楽しみください	-11.0409
ati	-11.0409
▁ユーザ	-11.041
ドバイ	-11.0411
買い	-11.0412
介護	-11.0413
トリック	-11.0414
▁あなた	-11.0416
忍	-11.0418
可能である	-11.042
トリー	-11.0421
3.5	-11.0421
のであれば	-11.0421
もらう	-11.0421
単純	-11.0422
する必要はありません	-11.0422
を見ると	-11.0423
即座に	-11.0424
NTT	-11.0427
lib	-11.0428
神が	-11.0428
もいい	-11.0429
NGO	-11.0429
は決して	-11.0431
に従事	-11.0432
お花	-11.0432
、2014	-11.0433
を可能に	-11.0435
著	-11.0437
に貢献し	-11.0438
順に	-11.0439
▁当時	-11.0439
しやすい	-11.0439
汗	-11.044
動作する	-11.044
土曜日	-11.0443
それによって	-11.0444
▁ビュー	-11.0445
vel	-11.0446
体系	-11.0449
を生み出し	-11.0449
科学的	-11.0449
去る	-11.045
軟	-11.0454
間違った	-11.0456
▁be	-11.0456
穏やかな	-11.0458
起源	-11.0462
禅	-11.0465
KI	-11.0465
私には	-11.0467
ある程度	-11.0469
プー	-11.047
怪	-11.047
収録	-11.0471
流通	-11.0474
使われている	-11.0475
余分な	-11.0475
設立された	-11.0475
いずれ	-11.0477
東京大学	-11.0478
聞	-11.0478
なかなか	-11.048
有名です	-11.048
ジェイ	-11.0481
する時	-11.0481
主題	-11.0481
俳優	-11.0482
エレガントな	-11.0482
故障	-11.0482
成人	-11.0483
何でも	-11.0483
0.2	-11.0484
私はそれを	-11.0484
将	-11.0484
スチール	-11.0484
代表者	-11.0485
地殻	-11.0486
入札	-11.0489
の音	-11.0489
キリストの	-11.0492
管轄	-11.0493
よね	-11.0493
の上昇	-11.0494
米軍	-11.0495
金融機関	-11.0496
▁New	-11.0498
双	-11.0498
[...]	-11.0498
▁we	-11.05
ほしい	-11.0502
古典	-11.0502
を楽しみ	-11.0503
の移動	-11.0504
捧げ	-11.0504
ピアノ	-11.0506
自治体	-11.0507
ui	-11.0509
atch	-11.051
るような	-11.051
流体	-11.051
獣	-11.0512
語る	-11.0514
の調査	-11.0514
▁この特別	-11.0514
を形成し	-11.0516
を楽しんで	-11.0518
並ぶ	-11.0519
ウィキ	-11.0522
▁全ての	-11.0523
披露	-11.0524
航空会社	-11.0524
を増やす	-11.0526
Meetup	-11.0526
カンパニー	-11.0526
を取り入れ	-11.0526
資	-11.0527
レーダー	-11.0528
に掲載されている	-11.0529
自分自身を	-11.0531
Hu	-11.0531
▁(3)	-11.0532
悪く	-11.0533
▁すでに	-11.0534
の実	-11.0534
噂	-11.0535
ということで	-11.0535
をダウンロードする	-11.0535
プロフェッショナル	-11.0536
市場調査	-11.054
威	-11.0542
▁SIM	-11.0542
ペーパー	-11.0543
汚	-11.0544
スリ	-11.0544
語り	-11.0545
を終了	-11.0547
を発	-11.0548
ワイヤレス	-11.055
▁チャンネル	-11.055
或いは	-11.0551
述	-11.0552
▁素材	-11.0552
衣装	-11.0552
▁北京	-11.0553
の海	-11.0553
てしまいます	-11.0553
建てられた	-11.0553
▁with	-11.0555
と言われ	-11.0557
▁韓国	-11.0557
西部	-11.0557
迎え	-11.0557
この地域	-11.0558
を設置し	-11.0559
▁彼が	-11.0559
日本に	-11.0562
に最適です	-11.0563
無駄	-11.0563
途中	-11.0564
侵略	-11.0566
彼女を	-11.0567
さい	-11.0568
が生じ	-11.0569
の景色	-11.057
を書き	-11.057
示された	-11.0571
せい	-11.0572
見直し	-11.0573
滴	-11.0574
作動	-11.058
対照	-11.0581
を失う	-11.0582
▁弊社では	-11.0584
に置かれ	-11.0585
を伝え	-11.0585
部品の	-11.0592
▁下記	-11.0592
誰でもゲームが作れ	-11.0594
が追加され	-11.0596
化学物質	-11.0596
古典的な	-11.0596
蘭	-11.0596
わずかな	-11.0597
▁東	-11.0597
てくれました	-11.0597
を生成する	-11.0599
しつつ	-11.06
際には	-11.0601
を要求	-11.0602
マネー	-11.0603
心から	-11.0607
▁500	-11.0608
リティ	-11.0609
をオンに	-11.061
天国	-11.061
的かつ	-11.061
の削減	-11.0611
だったので	-11.0612
深さ	-11.0613
一時	-11.0615
決意	-11.0615
クラッチ	-11.0616
講座	-11.0617
関税	-11.0618
上書き	-11.0619
部門の	-11.0621
ライオン	-11.0623
わたしたち	-11.0623
ゴミ	-11.0624
プロバイダ	-11.0627
表彰	-11.0628
には有名な	-11.0629
も可能です	-11.0632
レンダリング	-11.0633
智	-11.0633
次回	-11.0633
行列	-11.0634
事態	-11.0634
係	-11.0634
マラ	-11.0634
奉仕	-11.0636
決勝	-11.0636
徴候	-11.0639
を公開	-11.0639
知られる	-11.0641
を設定し	-11.0642
を使うことで	-11.0646
サービスを提供する	-11.0646
予報誤差	-11.0647
譲渡	-11.0648
伝送	-11.0648
▁60	-11.0649
サービスは	-11.065
Game	-11.0654
福島	-11.0654
キャッチ	-11.0654
▁Type	-11.0655
返信	-11.0656
冷蔵庫	-11.0658
を有効にする	-11.066
が少ない	-11.0661
膨大な	-11.0664
国が	-11.0665
金の	-11.0666
ありますが	-11.0666
伝えられ	-11.0667
待	-11.0668
data	-11.0668
Internet	-11.0668
▁過去	-11.0668
焼け	-11.0669
リウム	-11.0669
彗星	-11.067
学んだ	-11.067
を教え	-11.0672
aka	-11.0673
Open	-11.0675
▁二	-11.0676
権力体制	-11.0676
ブー	-11.0677
台北	-11.0678
絶えず	-11.068
感じている	-11.0682
EE	-11.0683
送金	-11.0683
▁誰が	-11.0684
およびその他の	-11.0686
をご用意	-11.0686
かについて	-11.0687
改訂	-11.0689
の形成	-11.069
例では	-11.0691
日程	-11.0691
この時点で	-11.0691
幅広く	-11.0692
パテックフィリップ	-11.0693
で開催	-11.0696
5000	-11.0696
発言	-11.0697
▁Art	-11.0697
を提示	-11.0698
に参加した	-11.0698
塗り	-11.0701
隅	-11.0701
いきます	-11.0704
普段	-11.0704
認め	-11.0706
を受信	-11.0708
グラン	-11.071
最高レベルの	-11.0712
に属し	-11.0712
を検索	-11.0713
Pa	-11.0714
をお持ち	-11.0714
漂	-11.0717
アイデンティティ	-11.0718
地震の	-11.0719
欧州連合	-11.0719
西安	-11.072
Space	-11.072
▁best	-11.0723
菩薩	-11.0724
Type	-11.0724
ケル	-11.0725
曜	-11.0726
巣	-11.0726
如	-11.0727
▁ロレックス	-11.0728
プライバシーポリシー	-11.0728
艦	-11.0728
コンプライアンス	-11.0732
▁Man	-11.0735
思想	-11.0735
を起こす	-11.0736
まち	-11.0738
採択	-11.0738
ストレート	-11.0739
倫理	-11.0741
世界各地の	-11.0741
特別に	-11.0745
婦	-11.0746
尻	-11.0747
突然の	-11.0747
OW	-11.0748
時期に	-11.0749
豊富	-11.0749
述べている	-11.0749
刀	-11.0749
出た	-11.0752
梨	-11.0752
cy	-11.0753
ロケット	-11.0753
浸	-11.0755
特有の	-11.0755
望む	-11.0757
に関連して	-11.0758
大幅に	-11.0759
UT	-11.0762
タバコ	-11.0764
評	-11.0765
ついに	-11.0765
▁テーブル	-11.0766
代理	-11.0767
デート	-11.0769
二酸化炭素	-11.0769
Add	-11.077
えた	-11.077
▁閣僚は	-11.077
付いた	-11.0771
ワークスペース	-11.0772
行使	-11.0774
年より	-11.0775
を超えた	-11.0775
配達	-11.0775
root	-11.0776
豪	-11.0777
▁Qu	-11.0778
▁ここに	-11.0778
カ月	-11.078
に設置	-11.078
苦労	-11.0781
に住む	-11.0782
戻る	-11.0783
再利用	-11.0783
謝	-11.0783
重複	-11.0785
を入れて	-11.0785
タイル	-11.0786
br	-11.0786
back	-11.0787
模	-11.0787
したい場合	-11.0787
斜面	-11.0788
きれいな	-11.0788
-12	-11.0788
30%	-11.0789
を上げる	-11.079
ions	-11.079
SNS	-11.0792
detective	-11.0795
カルティエ	-11.0798
▁Play	-11.0799
個人的に	-11.08
罰	-11.0801
かわいい	-11.0804
あなた方が	-11.0804
を訪問し	-11.0806
票	-11.0806
すばる望遠鏡	-11.0807
単一	-11.0809
カンボジア	-11.0809
であると考えています	-11.081
の領域	-11.081
との間で	-11.0812
確	-11.0813
味を	-11.0813
浴	-11.0814
てくれます	-11.0814
▁©	-11.0814
DD	-11.0815
新機能	-11.0816
▁ノート	-11.0816
ial	-11.0816
ユダヤ人	-11.0816
SSL	-11.0817
ART	-11.0817
ez	-11.0818
礼拝	-11.0818
充分	-11.082
を生み出す	-11.082
スロー	-11.0822
族の	-11.0826
▁それらの	-11.0826
CB	-11.083
が良い	-11.0832
電子レンジ	-11.0834
て下さい	-11.0834
Win	-11.0836
gen	-11.0837
どのようにして	-11.0839
度に	-11.0839
露出	-11.084
▁世界の	-11.084
マグニチュード	-11.0841
Work	-11.0842
あれ	-11.0845
透明性	-11.0845
産物	-11.0847
聞いた	-11.0848
ye	-11.0849
渦	-11.085
得た	-11.085
ラップトップ	-11.0851
休憩	-11.0853
Uni	-11.0853
出身	-11.0853
岩の	-11.0854
▁\	-11.0858
忙しい	-11.0859
ここから	-11.0859
オペラ	-11.086
求められる	-11.0861
とはいえ	-11.0862
いただきます	-11.0862
技能	-11.0863
呼び	-11.0863
と思い	-11.0863
金型	-11.0865
リダイレクト	-11.0866
地獄	-11.0869
▁フル	-11.087
して何度も	-11.0873
ユーザは	-11.0876
レモン	-11.088
▁ケース	-11.0882
▁2:	-11.0882
宇	-11.0884
国際的に	-11.0885
性の高い	-11.0886
《	-11.0887
Lightning	-11.0887
▁My	-11.0888
協調	-11.0888
しますか	-11.0889
数ヶ月	-11.089
を通じた	-11.0892
宣	-11.0892
ms	-11.0893
▁Un	-11.0894
コンピュータに	-11.0895
素早く	-11.0898
知的	-11.0899
効率的に	-11.0899
col	-11.0901
見事な	-11.0902
をコピー	-11.0904
▁di	-11.0905
$4.95	-11.0908
がありますが	-11.0908
を運ぶ	-11.0908
ポップ	-11.0909
余り	-11.091
ようにしてください	-11.091
衛	-11.0914
シーンが含まれています	-11.0915
休み	-11.0915
トロン	-11.0916
▁はたったの	-11.0917
方々	-11.0918
▁昨年	-11.0918
のシーンや厳選された	-11.0919
▁前述	-11.092
の確認	-11.0921
選出	-11.0921
そうと	-11.0926
ネル	-11.0928
摂取	-11.0928
し続ける	-11.0929
▁EMF	-11.093
ley	-11.093
、2011	-11.093
の概念	-11.0932
突き	-11.0933
手続	-11.0934
読む	-11.0934
国内外の	-11.0939
の分野で	-11.0942
セラ	-11.0943
▁おそらく	-11.0943
住んでいた	-11.0944
つのその他の	-11.0944
西側	-11.0945
ren	-11.0946
をもたらします	-11.0948
およびダウンロードが可能です	-11.0951
視聴することが可能	-11.0951
に使用される	-11.0953
ミネラル	-11.0954
を示している	-11.0954
成熟	-11.0956
▁例	-11.0956
に関連付けられ	-11.0957
電磁	-11.0957
再生速度を調整	-11.0957
働いて	-11.0957
Se	-11.0958
どうぞ	-11.0958
難しく	-11.0959
の動作	-11.096
▁72	-11.0961
出場	-11.0962
140	-11.0963
オーブン	-11.0964
トリガー	-11.0964
本ウェブサイト	-11.0964
無制限の視聴	-11.0966
これらのシーンは	-11.0968
の多い	-11.0969
日光	-11.097
とのこと	-11.0971
出口	-11.0972
モンスター	-11.0978
クール	-11.0979
壁に	-11.098
依然として	-11.098
文化財	-11.0981
▁アン	-11.0982
▁News	-11.0985
ソニー	-11.0987
にならない	-11.0988
始めて	-11.0988
告げ	-11.0989
システムに	-11.0989
ade	-11.0989
(18	-11.0991
令	-11.0995
が同じ	-11.0995
プロジェクトに	-11.0995
...)	-11.0995
肥料	-11.0996
ボウル	-11.0996
スウェーデン	-11.0996
と思っている	-11.0998
創作	-11.1
涙	-11.1001
▁納期については	-11.1001
暗闇	-11.1001
現地の	-11.1001
ひとつの	-11.1003
アカデミー	-11.1004
回避	-11.1005
▁ウェブサイト	-11.1005
データ保護	-11.1005
1994	-11.1006
メタン	-11.1006
遠隔	-11.1006
本日	-11.1007
花配達	-11.1007
フック	-11.1008
を共有	-11.1009
ネー	-11.1015
送料	-11.1017
に応じた	-11.1018
させていただきます	-11.102
全体的な	-11.102
提供されます	-11.1021
アメダス統計	-11.1021
16:30	-11.1024
をカバー	-11.1024
添加	-11.1025
に影響を与え	-11.1025
州で	-11.1025
言っている	-11.1026
スライス	-11.1027
を構成する	-11.1027
こだわり	-11.1029
につれて	-11.1029
警報	-11.103
故郷	-11.103
ファンド	-11.1031
渡す	-11.1031
右に	-11.1031
るための	-11.1031
というもの	-11.1033
ヤマ	-11.1035
を経験し	-11.1036
配合	-11.1037
限られた	-11.1037
フィリップ	-11.1037
▁一部の	-11.1038
主の	-11.1042
などが含まれます	-11.1044
press	-11.1045
もらい	-11.1046
かない	-11.1053
所有権	-11.1054
情報源	-11.1056
の責任	-11.1057
の報告	-11.1057
LU	-11.1058
制定	-11.106
提供しています	-11.1061
ファースト	-11.1063
を進める	-11.1063
宇宙船	-11.1064
ize	-11.1065
寒さ	-11.1065
を受け入れる	-11.1066
メタル	-11.1066
WS	-11.107
枚の	-11.1071
Twitter	-11.1073
陵	-11.1073
の代表	-11.1074
たっぷり	-11.1074
Cas	-11.1075
fer	-11.1077
を監視します	-11.1081
motherfuckers	-11.1083
今の	-11.1083
開かれた	-11.1084
タイムスタンプ	-11.1085
最終的には	-11.1087
を発表しました	-11.1087
ero	-11.1088
時点	-11.109
ali	-11.1091
ネイティブ	-11.1092
つつある	-11.1094
ASS	-11.1095
アクティブな	-11.1095
オークション	-11.1096
寛	-11.1098
送信されます	-11.11
汎用	-11.1101
どういう	-11.1101
ストリーミング	-11.1104
暴露	-11.1104
の力	-11.1104
クエリ	-11.1105
マイニング	-11.1105
せない	-11.1107
繰り	-11.1109
貼り付け	-11.111
を継続	-11.111
効果的	-11.1111
留め	-11.1112
▁Si	-11.1113
World	-11.1114
ストリップ	-11.1114
態	-11.1115
use	-11.1115
実行する	-11.1115
受講	-11.1115
変わった	-11.1117
の構成	-11.1117
のでしょう	-11.1118
を続ける	-11.112
変わります	-11.112
扉	-11.1122
未知の	-11.1122
レイン	-11.1122
ことはできない	-11.1123
Jo	-11.1123
見えた	-11.1123
▁奈良	-11.1123
土曜日の	-11.1124
フィンランド	-11.1126
花火	-11.1126
ウエスト	-11.1126
val	-11.1127
栄光	-11.1127
▁もっと	-11.1128
の周りに	-11.1132
クラフト	-11.1136
をご提供	-11.1138
使用します	-11.1138
表示された	-11.114
ハードディスク	-11.114
申し	-11.114
みます	-11.1142
しましたが	-11.1146
いずれも	-11.1149
の共同	-11.115
が含まれ	-11.115
阿	-11.1151
を見ている	-11.1152
ツァ	-11.1152
ボス	-11.1155
を構成	-11.1155
RFID	-11.1156
請求書	-11.1156
コントラスト	-11.1157
閣	-11.1158
ゲル	-11.1159
ソーシャル	-11.1161
rt	-11.1162
行わ	-11.1163
ミーティング	-11.1164
を聞いた	-11.1165
再起動	-11.1165
参加者は	-11.1166
かれる	-11.1167
アカウントに	-11.1167
が可能な	-11.1168
パール	-11.1168
を確認するために	-11.1171
▁ゼータ達は	-11.1171
進んで	-11.1172
本格的な	-11.1175
からである	-11.1176
魚の	-11.1176
一切の	-11.118
アルファベット	-11.1181
達を	-11.1182
忠	-11.1182
るもの	-11.1182
バージョンの	-11.1183
ゅう	-11.1184
討議	-11.1184
寄り	-11.1184
優秀な	-11.1185
一度に	-11.1186
をご覧下さい	-11.1188
規約	-11.1188
文化的	-11.1188
ail	-11.1188
ているか	-11.1191
つめ	-11.1192
ey	-11.1193
縮	-11.1193
ホン	-11.1193
であるので	-11.1194
の量	-11.1196
電極	-11.1196
不可欠な	-11.1198
経済成長	-11.1198
逃げ	-11.1202
ブルガリ	-11.1203
を使用している場合	-11.1206
ark	-11.1206
かどうかを	-11.1207
台中	-11.1209
は完全に	-11.1212
今すぐ	-11.1213
若手	-11.1214
することが可能です	-11.1216
遊ぶ	-11.1218
をお勧めします	-11.1219
を確実に	-11.1219
動作します	-11.1219
▁if	-11.1219
70%	-11.122
わず	-11.1221
JA	-11.1222
over	-11.1222
祈	-11.1223
を通じ	-11.1225
は少し	-11.1227
麗	-11.1229
勤	-11.1231
重さ	-11.1231
▁このオプション	-11.1233
を期待	-11.1233
ビジュアル	-11.1235
á	-11.1235
作成されます	-11.1235
社が	-11.1236
宛先	-11.1237
を反映し	-11.1239
ウッド	-11.124
内陸	-11.1241
広範な	-11.1242
たのは	-11.1243
▁白	-11.1243
九州	-11.1244
却	-11.1245
を決定	-11.1246
ることができ	-11.1246
与	-11.1248
小学校	-11.1249
を参照する	-11.125
全般	-11.1251
民主	-11.1251
生じ	-11.1252
彼女に	-11.1254
走行距離	-11.1254
営業時間	-11.1255
だろうと	-11.1256
ern	-11.1257
行っている	-11.1261
覆われ	-11.1261
醸造	-11.1262
神話	-11.1263
したくない	-11.1263
使用に起因する	-11.1264
蓋	-11.1265
建物の	-11.1265
に分かれ	-11.1267
、2013	-11.1268
ux	-11.1268
》	-11.1271
ブラウザー	-11.1272
子供達	-11.1273
一見	-11.1275
県の	-11.1275
走る	-11.1276
Char	-11.1276
1.3	-11.1277
小惑星	-11.1278
励	-11.1279
回目	-11.128
カスタマーサポートまで	-11.128
を可能にします	-11.128
有効化	-11.1282
設定した	-11.1284
返品	-11.1285
磨	-11.1289
就職	-11.1289
部分が	-11.129
RD	-11.1292
赤外線	-11.1292
快適に	-11.1293
知りたい	-11.1293
爆	-11.1294
へようこそ	-11.1295
燃焼	-11.1295
フォーカス	-11.1295
記念碑	-11.1296
雨の	-11.1298
開催された	-11.1299
OC	-11.13
▁ソウル	-11.1301
の土地	-11.1302
を受け取った	-11.1302
感じた	-11.1302
丁	-11.1302
▁その時	-11.1305
リンポチェは	-11.1305
▁Open	-11.1307
を好む	-11.1307
継承	-11.1309
なんだ	-11.131
ごみ	-11.131
符	-11.1312
肥	-11.1312
▁Live	-11.1312
トゥー	-11.1313
▁ビット	-11.1313
言われた	-11.1314
実施しています	-11.1314
欧米	-11.1314
の割合	-11.1315
どちら	-11.1315
が行われた	-11.1317
広がる	-11.1317
オーストラリアの	-11.1317
クラン	-11.1317
▁28	-11.1321
美容	-11.1324
の森	-11.1324
仮定	-11.1324
▁Salesforce	-11.1325
イニシアティブ	-11.1325
上級	-11.1327
たかった	-11.1327
センターの	-11.1329
の一つである	-11.133
RAM	-11.133
の証拠	-11.1334
den	-11.1334
▁パスワード	-11.1335
ハラ	-11.1337
モンクレール	-11.1337
完備	-11.1337
奇跡	-11.1338
シック	-11.1339
設定されている	-11.1339
蛇	-11.134
座って	-11.1342
技法	-11.1343
Power	-11.1343
灰色	-11.1344
数千	-11.1346
場合にのみ	-11.1347
今や	-11.1347
アイテムカラー	-11.1347
MV	-11.1349
▁オンライン花屋	-11.135
瓶	-11.1352
ギター	-11.1353
功	-11.1354
タイの	-11.1355
摩擦	-11.1355
▁LIVE	-11.1355
総会	-11.1356
人工衛星	-11.1356
勢力	-11.1359
今回は	-11.136
▁カラー	-11.1361
事情	-11.1361
ありがとうございます	-11.1362
奨励	-11.1364
取れ	-11.1364
ベクトル	-11.1364
ベトナムの	-11.1367
ルカ	-11.1368
凍結	-11.1368
控え	-11.1369
ニコ	-11.137
合わせて	-11.137
頑	-11.137
画質	-11.1371
に立ち	-11.1371
海抜	-11.1371
TP	-11.1371
個別の	-11.1372
que	-11.1372
均一	-11.1372
"、"	-11.1372
▁デ	-11.1372
年度の	-11.1373
部分に	-11.1374
兄	-11.1375
マッ	-11.1375
できませんでした	-11.1376
▁ディレクトリ	-11.1377
▁加えて	-11.1377
のバランス	-11.1378
fa	-11.1379
を起動	-11.138
▁Am	-11.138
を使用してください	-11.138
桃園	-11.1381
等を	-11.1381
テクニカル	-11.1383
eg	-11.1383
を見つけた	-11.1383
(5	-11.1388
かのように	-11.139
楽しめる	-11.139
▁3:	-11.139
鮮やかな	-11.1391
Chi	-11.1392
統治	-11.1392
どれほど	-11.1397
虎	-11.1398
述べました	-11.14
肉体	-11.14
▁プラグイン	-11.1401
消去	-11.1401
万人の	-11.1403
ために必要な	-11.1403
と言われています	-11.1403
先進	-11.1403
鬼	-11.1404
TEL	-11.1406
わら	-11.1407
先週	-11.1408
を除き	-11.1408
いなかった	-11.141
闇	-11.141
各国の	-11.1412
ツールバー	-11.1413
▁ヘルプセンター	-11.1413
みる	-11.1413
は同じ	-11.1413
技術者	-11.1415
与えられる	-11.1415
畳	-11.1416
を調べる	-11.1418
加えて	-11.1421
できるようになりました	-11.1421
を開発する	-11.1422
脇	-11.1422
ata	-11.1423
フィル	-11.1423
を求めて	-11.1423
の下の	-11.1423
替	-11.1427
わる	-11.1428
の異なる	-11.1429
められ	-11.143
システムです	-11.143
込	-11.143
婚	-11.1431
おこなわれ	-11.1432
わずかに	-11.1432
指針	-11.1433
成立	-11.1433
奈良	-11.1433
救助	-11.1435
KA	-11.1435
広報	-11.1436
Language	-11.1438
直線	-11.1439
薬品	-11.1439
秀	-11.144
を搭載し	-11.144
ual	-11.1442
ダーク	-11.1442
生き物	-11.1443
▁北海道	-11.1445
グラフィカル	-11.1447
▁台湾	-11.1447
と関連	-11.1448
ペル	-11.1449
▁Help	-11.145
幼児	-11.145
必要があり	-11.1452
トム	-11.1452
クラスタ	-11.1452
fl	-11.1453
国は	-11.1454
使用可能な	-11.1455
落ちる	-11.1455
滞	-11.1458
を打ち	-11.1458
Linux	-11.1459
途中で	-11.146
を発見した	-11.1461
ご購入	-11.1461
ことが出来ます	-11.1462
意思決定	-11.1464
エピソード	-11.1465
GM	-11.1465
も可能	-11.1469
死者	-11.1471
工芸品	-11.1472
味が	-11.1473
oss	-11.1477
採掘	-11.1478
▁Do	-11.1478
を果たし	-11.1479
の外に	-11.1481
の利益	-11.1481
1970	-11.1483
アブログ	-11.1483
顧客に	-11.1484
臭	-11.1485
スポンサー	-11.1487
数多く	-11.1488
郊外	-11.149
ーノ	-11.149
選択された	-11.149
事が出来	-11.1491
元々	-11.1491
個別に	-11.1492
急速な	-11.1496
の操作	-11.1498
売却	-11.1498
許諾	-11.1499
舗装	-11.1502
数年	-11.1503
ゲイン	-11.1503
屋台	-11.1504
次のような	-11.1504
のヒント	-11.1506
、2019	-11.1506
の性質	-11.1506
有用	-11.1507
器具	-11.1507
長官	-11.1508
女王	-11.1508
有効性	-11.1508
程度の	-11.1509
ハム	-11.151
昌	-11.1511
だけでは	-11.1512
涼	-11.1514
ord	-11.1517
実質	-11.1517
CON	-11.1518
三菱	-11.1518
返し	-11.1519
できるか	-11.1521
作業を	-11.1522
ls	-11.1522
恵	-11.1523
同定	-11.1523
▁別の	-11.1523
取られ	-11.1524
SK	-11.1524
入る	-11.1526
for	-11.1526
▁CoinRevolution	-11.1527
TSMC	-11.1527
物理的な	-11.1527
年生	-11.1528
防御	-11.1529
草原	-11.1533
お楽しみ	-11.1533
の比較	-11.1534
否	-11.1534
つける	-11.1535
目的の	-11.1535
DP	-11.1536
宅	-11.1537
ries	-11.1538
指数	-11.154
詳しい	-11.1541
創立	-11.1542
シリ	-11.1543
できました	-11.1547
と他の	-11.1547
おか	-11.1547
するなど	-11.1547
即	-11.1548
確かめ	-11.155
が登場	-11.155
ご希望の	-11.1551
nc	-11.1551
2.1	-11.1552
言わ	-11.1554
楽園	-11.1557
PH	-11.1558
▁ところが	-11.1559
ゲームは	-11.156
ホイ	-11.1562
ティブ	-11.1562
賭け	-11.1562
準備を	-11.1565
▁THE	-11.1565
詞	-11.1566
震	-11.1567
選手権	-11.1568
英語で	-11.1569
ころ	-11.1573
デフォルトで	-11.1573
イスラエルの	-11.1575
ーゼ	-11.1575
のプロパティ	-11.1576
適切	-11.1576
▁ONE	-11.1576
日以内に	-11.1577
決断	-11.1577
執筆	-11.1577
作者	-11.1578
が異なる	-11.1578
漆	-11.1579
性格	-11.1582
(2	-11.1586
状態の	-11.1587
てはいけない	-11.1587
代謝	-11.1588
ウィザード	-11.1589
お手伝い	-11.159
リップ	-11.1591
抽選	-11.1592
より大きな	-11.1592
SHI	-11.1592
▁リスト	-11.1593
Di	-11.1593
者達が	-11.1594
れます	-11.1595
-11	-11.1595
くり	-11.1596
時まで	-11.1596
はならない	-11.1597
地域社会	-11.1598
レディース	-11.1598
▁それに	-11.1598
平等	-11.1599
あらかじめ	-11.1601
ヶ	-11.1601
上限	-11.1601
論理	-11.1601
開拓	-11.1601
▁ポイント	-11.1603
ヨー	-11.1603
粗	-11.1604
不思議	-11.1606
京都大学	-11.1606
救済	-11.1608
生物学	-11.1608
ダイニング	-11.1609
見込み	-11.1611
が含まれる	-11.1611
ラッシュ	-11.1612
を共有し	-11.1613
誕生日	-11.1614
がなかった	-11.1618
するような	-11.1619
ようとする	-11.1619
わが	-11.1621
も多く	-11.1622
茂	-11.1623
尊	-11.1623
ベータ	-11.1623
の終わりに	-11.1624
されたもの	-11.1624
コーン	-11.1626
を踏まえ	-11.1626
マグ	-11.1627
をオンにします	-11.1628
はあまり	-11.1628
限られ	-11.1629
東洋	-11.163
of	-11.163
であるという	-11.1632
▁2.0	-11.1636
今でも	-11.1636
CAD	-11.1636
代表的な	-11.1638
操	-11.1638
IX	-11.1638
牽引	-11.1638
のお知らせ	-11.1639
たちに	-11.164
ごく	-11.1641
私にとって	-11.1641
▁リクエスト	-11.1645
AUROTEK	-11.1645
の東	-11.1645
幸	-11.1646
▁価格	-11.1647
してしまう	-11.1647
お願いします	-11.1648
次第	-11.1648
中小企業	-11.1648
にかかる	-11.1649
カス	-11.1651
▁Track	-11.1651
競合	-11.1652
に送信	-11.1652
を送って	-11.1653
スペクトル	-11.1654
木々	-11.1654
不思議な	-11.1655
数年間	-11.1656
バッジ	-11.1657
ins	-11.1658
▁セキュリティ	-11.1659
ware	-11.166
▁入力	-11.1662
持ってい	-11.1662
柔軟	-11.1668
サンタ	-11.1668
AF	-11.1668
ポートフォリオ	-11.167
反対側	-11.167
pu	-11.1671
兵器	-11.1672
グレード	-11.1677
爆弾	-11.1679
与える	-11.168
ile	-11.168
匹	-11.1682
エンティティ	-11.1682
のロゴ	-11.1683
ソート	-11.1684
一人で	-11.1686
pot	-11.1687
sign	-11.1688
ボタンをクリックして	-11.1689
されてきた	-11.169
tan	-11.1691
入口	-11.1691
主体	-11.1693
欄に	-11.1693
機関の	-11.1697
oshi	-11.1697
展望	-11.1698
ギャップ	-11.1698
バルブ	-11.17
逮捕	-11.1701
自然と	-11.1702
どこで	-11.1702
付加価値	-11.1702
少数の	-11.1703
人数	-11.1704
こういう	-11.1705
を意味します	-11.1705
にあたり	-11.1709
(1)	-11.1711
送る	-11.1712
日常生活	-11.1712
とします	-11.1712
されず	-11.1712
Port	-11.1715
共和党	-11.1717
人以上の	-11.1717
様々	-11.1718
記者	-11.1719
の皆さん	-11.1719
とらえ	-11.1721
裸	-11.1724
っていく	-11.1725
干	-11.1725
ICE	-11.1726
あふれる	-11.1728
▁ゼータ達によると	-11.1729
探求	-11.1731
本人	-11.1731
どちらも	-11.1731
国内で	-11.1731
堪能	-11.1732
連盟	-11.1732
▁Bi	-11.1735
完成した	-11.1735
研究では	-11.1735
(2)	-11.1736
▁誰もが	-11.1738
集まって	-11.1738
東アジア	-11.1739
秩序	-11.1739
カール	-11.1739
で開催される	-11.1739
活発	-11.1739
陣	-11.1741
JBIC	-11.1742
suite	-11.1743
停電	-11.1746
選ばれ	-11.1748
あなたと	-11.1749
復帰	-11.1749
別途	-11.175
▁::	-11.1751
表記	-11.1753
多くの人が	-11.1753
わけです	-11.1753
つ目の	-11.1757
JI	-11.1758
カリフォルニア州	-11.1758
物が	-11.1758
締め	-11.1759
拘束	-11.176
頃に	-11.1761
アブ	-11.1761
Ba	-11.1762
ストレッチ	-11.1764
っていて	-11.1764
妨害	-11.1767
ten	-11.177
を立て	-11.177
と信じ	-11.1771
▁ここには	-11.1771
捉え	-11.1772
分かる	-11.1773
埋葬	-11.1773
mit	-11.1775
物は	-11.1778
を受賞	-11.1779
索	-11.1779
を使うと	-11.1781
カルチャー	-11.1783
統	-11.1783
ヴォ	-11.1785
アレルギー	-11.1786
音楽を	-11.1788
ギア	-11.1788
▁EPLAN	-11.1789
1993	-11.1789
歌詞	-11.179
ョ	-11.1791
誠実	-11.1792
問題について	-11.1792
▁これを	-11.1793
モニタ	-11.1793
ディア	-11.1794
水中	-11.1795
両者	-11.1795
を挙げ	-11.1798
の方に	-11.1798
日本は	-11.1798
▁ハイ	-11.1798
例として	-11.18
製造業	-11.1801
検索エンジン	-11.1803
の調整	-11.1803
衆生	-11.1803
を明確に	-11.1804
鎖	-11.1807
コンピュータの	-11.1809
期待される	-11.1811
を調べ	-11.1814
自動巻き	-11.1818
側で	-11.182
違って	-11.182
▁同社は	-11.1821
を搭載した	-11.1822
チェン	-11.1823
最善の	-11.1824
耳を傾け	-11.1824
市長	-11.1826
彼自身	-11.1826
丈	-11.1827
コンデンサ	-11.1827
の最高	-11.1828
が行われました	-11.1831
燃	-11.1831
▁Services	-11.1831
停	-11.1832
受注	-11.1833
Ad	-11.1833
▁お客様の	-11.1834
モデルは	-11.1834
できるだけ早く	-11.1834
レストランで	-11.1837
オフに	-11.1839
を生成	-11.184
単位で	-11.184
考えている	-11.1841
と言います	-11.1842
の後ろに	-11.1846
アプリの	-11.1847
がたくさん	-11.1847
を置き	-11.1848
史上	-11.1848
お土産	-11.185
uk	-11.1851
有効期限も	-11.1854
副作用	-11.1854
inc	-11.1855
ていなかった	-11.1855
サウジアラビア	-11.1856
矢	-11.1859
デリ	-11.186
を開始した	-11.1861
yo	-11.1861
影響を与え	-11.1862
イベントは	-11.1864
訪	-11.1865
に属する	-11.1866
1992	-11.1868
クライ	-11.1868
機種	-11.1868
設定されます	-11.1869
を提案し	-11.1869
宇宙協議会	-11.187
ダイレクト	-11.187
んでいます	-11.1871
バイオマス	-11.1872
究極の	-11.1872
前方	-11.1872
プロジェクトで	-11.1873
真っ	-11.1873
見ることができる	-11.1874
リーフ	-11.1875
応援	-11.1875
呼ばれ	-11.1875
魔	-11.1876
儀式	-11.1877
AA	-11.1878
に係る	-11.1878
▁お客様が	-11.1878
したように	-11.1878
尚	-11.1878
について話し	-11.1879
を立ち上げ	-11.188
ロープ	-11.1881
をつくる	-11.1882
喫煙	-11.1882
銭	-11.1882
バーチャル	-11.1884
お互いに	-11.1885
出資	-11.1885
の裏	-11.1889
を確保する	-11.1889
ィ	-11.189
▁続きを読む	-11.1891
HI	-11.1892
舌	-11.1894
を重ね	-11.1895
を閲覧する	-11.1897
恐ろしい	-11.1897
の作業	-11.1898
の多くの	-11.19
つ星	-11.19
を目指して	-11.19
pid	-11.1901
の開催	-11.1901
が大好き	-11.1901
敏感	-11.1902
ib	-11.1904
コラム	-11.1904
▁CA	-11.1904
するのを	-11.1906
渋谷	-11.1908
の背景	-11.1915
黄色の	-11.1916
何人か	-11.1917
波長	-11.1917
太陽光発電	-11.1918
またはその	-11.1919
▁ソフトウェア	-11.192
の要求	-11.1922
Direct	-11.1923
を問わず	-11.1923
中毒	-11.1924
グループが	-11.1925
地球の変化	-11.1925
VS	-11.1925
を再生	-11.1926
平面	-11.1928
発音	-11.1929
を大幅に	-11.1929
河川	-11.1929
永遠に	-11.1932
カラット	-11.1932
年前の	-11.1933
高価な	-11.1934
ray	-11.1935
に利用されます	-11.1936
セメント	-11.1936
来ている	-11.1936
処分	-11.1937
▁フリー	-11.1937
ナイフ	-11.1937
パーティ	-11.1938
AK	-11.1938
多くの人	-11.1938
テクニック	-11.1938
食糧	-11.1939
向こう	-11.1941
頂き	-11.1941
ご利用ください	-11.1941
金銭	-11.1942
mar	-11.1943
勢い	-11.1944
廟	-11.1946
欧	-11.1946
勝ち	-11.1947
移動し	-11.1948
スピ	-11.1949
画面で	-11.1952
塚	-11.1952
周辺情報	-11.1955
使われます	-11.1958
....	-11.1959
矛盾	-11.1962
シャングリ	-11.1962
バッファ	-11.1962
Multi	-11.1964
二つ	-11.1967
会社が	-11.1967
あれば	-11.1968
Info	-11.1968
である場合	-11.1969
雅	-11.1971
えば	-11.1972
そろ	-11.1975
司法	-11.1976
確率	-11.1976
暖	-11.1976
▁Bitcoin	-11.1976
役割を果たし	-11.1977
プラチナ	-11.1978
モダンな	-11.1978
カレー	-11.1979
量が	-11.1979
▁IT	-11.198
sis	-11.198
ンズ	-11.1981
辛	-11.1981
ヴィラ	-11.1982
潜在	-11.1983
開催されました	-11.1984
TU	-11.1985
幸せな	-11.1985
取引先	-11.1988
が存在し	-11.1988
の村	-11.1991
共有する	-11.1991
に入れて	-11.1991
早朝	-11.1992
たぶん	-11.1992
頭の	-11.1993
を解除	-11.1994
感じて	-11.1994
が行われる	-11.1996
桁	-11.1997
プーチン	-11.1998
アカウントを	-11.2
クルーズ	-11.2
一つは	-11.2001
を使用できます	-11.2002
きちんと	-11.2004
男女	-11.2004
必要とする	-11.2005
▁女性	-11.2009
解消	-11.201
似た	-11.201
RU	-11.2012
食事を	-11.2012
uc	-11.2013
間接的	-11.2015
ホース	-11.2016
の一部として	-11.2016
価値がある	-11.2016
誤って	-11.2016
目覚め	-11.2017
修了	-11.2017
▁ファイルの	-11.2017
溶液	-11.2017
淡	-11.2017
該当	-11.2019
着実に	-11.2021
視聴	-11.2021
ハル	-11.2021
0.3	-11.2022
Service	-11.2022
を改善する	-11.2023
医者	-11.2023
必要です	-11.2024
もう少し	-11.2025
フィー	-11.2025
残る	-11.2026
見つけられ	-11.2026
処方	-11.2026
ナンバー	-11.2026
101	-11.2028
名前空間	-11.203
チャンピオン	-11.2033
4.5	-11.2033
ユニーク	-11.2035
の出力	-11.2035
サラダ	-11.2035
ジッパー	-11.2036
戦車	-11.2037
なくなります	-11.2038
の損失	-11.2038
式典	-11.2039
▁すなわち	-11.2039
[1]	-11.2039
キム	-11.2042
ることはありません	-11.2042
を備えています	-11.2043
hai	-11.2045
air	-11.2045
を開始し	-11.2045
音を	-11.2045
を決め	-11.2046
のパフォーマンス	-11.2046
弊社までお問い合わせください	-11.2046
たときに	-11.2047
注意してください	-11.2047
の需要	-11.2048
不安定	-11.2049
正常	-11.2051
本契約	-11.2051
立った	-11.2051
変革	-11.2051
Cryptocurrency	-11.2052
ノック	-11.2055
ポールシフトの	-11.2055
ストーン	-11.2055
を評価する	-11.2055
武装	-11.2057
GR	-11.2057
ストラ	-11.2058
十字架	-11.2059
開いている	-11.2059
実際の商品	-11.2062
追求	-11.2062
を処理する	-11.2062
教えて	-11.2062
▁Pri	-11.2063
翌日	-11.2064
の支払い	-11.2064
に起因する	-11.2065
トヨタ	-11.2065
▁カスタム	-11.2068
をどのように	-11.2071
背中	-11.2071
兆候	-11.2072
190	-11.2073
あるもの	-11.2075
施設は	-11.2075
無制限の	-11.2075
ウォール	-11.2079
発表した	-11.2079
小規模	-11.2082
したが	-11.2084
に乗り	-11.2084
を歓迎し	-11.2086
提供されています	-11.2086
地球を	-11.2088
もたらす	-11.2088
の中で最も	-11.2088
ねじ	-11.2089
存在している	-11.209
役立つ	-11.2092
拍	-11.2092
の首都	-11.2094
平方メートル	-11.2094
▁httpd	-11.2098
元気	-11.2098
継	-11.2099
Tu	-11.2099
時折	-11.2099
氷河	-11.2099
履行	-11.21
聞こえ	-11.2101
インフルエンザ	-11.2101
しない場合	-11.2101
正午	-11.2102
お届けいたしま	-11.2105
をオンにすると	-11.2105
ワット	-11.2106
▁カタログ	-11.2107
一括	-11.2108
ビットコイン	-11.2109
スピン	-11.2109
¥	-11.2111
ホイミ	-11.2112
コイル	-11.2112
アンチ	-11.2112
ロビー	-11.2115
マネージャ	-11.2115
ベット	-11.2117
アイルランド	-11.2118
の促進	-11.2119
ele	-11.212
代わり	-11.2121
虹	-11.2121
集まる	-11.2122
したので	-11.2122
プッシュ	-11.2123
の腕時計	-11.2125
を作った	-11.2125
まっている	-11.2125
当施設が	-11.2127
光が	-11.2128
わけではない	-11.2129
前から	-11.2129
に記載されている	-11.213
妹	-11.2131
英雄	-11.2132
TY	-11.2135
塗装	-11.2136
▁On	-11.2137
▁91	-11.2137
に含まれています	-11.2139
中には	-11.214
のテーマ	-11.214
ザン	-11.2141
2.2	-11.2141
たまま	-11.2142
の物語	-11.2144
訴	-11.2144
▁×	-11.2145
男は	-11.2145
会談	-11.2145
▁朝	-11.2145
▁Or	-11.2146
しないこと	-11.2146
海底	-11.2148
NP	-11.2149
回数	-11.215
必要とされる	-11.2151
▁オー	-11.2152
Tech	-11.2153
になれ	-11.2153
し続け	-11.2153
取扱	-11.2155
壁の	-11.2155
ストロ	-11.2158
デス	-11.216
購入した	-11.216
理事会	-11.2161
day	-11.2161
SR	-11.2164
を考慮する	-11.2164
を訪れる	-11.2165
の分析	-11.2166
イカ	-11.2166
メルマガ	-11.2168
会議室	-11.2169
魅力的	-11.217
Ethereum	-11.217
アンインストール	-11.217
ゲームを	-11.2172
ors	-11.2173
ミサイル	-11.2173
ちゃう	-11.2175
是	-11.2175
わたしの	-11.2176
の方は	-11.2176
カタ	-11.2178
変え	-11.2178
吹	-11.2178
映画の	-11.2179
パスタ	-11.2179
監	-11.2182
▁Amsterdam	-11.2183
uck	-11.2184
にとっても	-11.2184
パワーポイント	-11.2184
を発表した	-11.2184
に制限	-11.2185
理由で	-11.2185
野生	-11.2189
足の	-11.219
全員が	-11.2191
させることができます	-11.2191
ばら	-11.2193
の決定	-11.2194
展開する	-11.2196
二次	-11.2197
フィギュア	-11.2197
str	-11.2198
見ると	-11.2199
上げた	-11.2199
言います	-11.2201
ポット	-11.2202
の取得	-11.2202
▁ウェブマスター向けの	-11.2203
につきましては	-11.2203
WI	-11.2203
どれも	-11.2203
検知	-11.2204
人で	-11.2206
正当な利益	-11.2208
▁VST	-11.2209
夕	-11.2209
に適しています	-11.2209
μ	-11.221
▁Microsoft	-11.2212
の知識	-11.2213
第二の	-11.2214
ブティック	-11.2215
hy	-11.2217
尊重	-11.2217
杭州	-11.2217
真珠	-11.2221
を保持する	-11.2221
cha	-11.2225
互い	-11.2225
750	-11.2226
を見てください	-11.2226
賃貸	-11.2226
年以降	-11.2228
だし	-11.2229
候補者	-11.2231
ノア	-11.2231
TRA	-11.2231
AU	-11.2232
と仮定	-11.2234
正当	-11.2237
ないか	-11.2237
uch	-11.2237
win	-11.2237
フォロワー	-11.2239
換え	-11.224
mg	-11.2243
cu	-11.2245
脅	-11.2246
開いた	-11.2246
終わった	-11.2248
運行	-11.2249
訪問者の	-11.225
▁SDK	-11.225
を目的として	-11.2254
ファイル形式	-11.2255
ポル	-11.2257
べく	-11.2258
チタン	-11.2258
の観点から	-11.2258
のピーク	-11.2259
hotel	-11.226
合格	-11.2261
rand	-11.2263
陥	-11.2264
▁パッケージ	-11.2264
▁当サイト	-11.2267
gan	-11.2267
ていますが	-11.2267
の統合	-11.2267
プロデューサー	-11.2269
季	-11.2269
生物多様性	-11.227
いち	-11.227
旅客	-11.2271
awa	-11.2272
Nha	-11.2273
ユーザの	-11.2273
を楽しむことができます	-11.2273
スー	-11.2273
だという	-11.2273
てまいります	-11.2274
組合	-11.2274
Sub	-11.2277
▁DJ	-11.2281
▁実際に	-11.2281
ディズニー	-11.2283
愛情	-11.2283
に対処	-11.2284
保つ	-11.2287
標準の	-11.2288
のシンボル	-11.2288
修道院	-11.2289
晴	-11.2289
の手順	-11.2292
▁ポリス	-11.2296
行います	-11.2298
治療法	-11.2303
ジム	-11.2303
ella	-11.2304
NET	-11.2305
漏れ	-11.2306
で行われた	-11.2307
世界各国	-11.2309
裂	-11.231
ハーブ	-11.231
α	-11.2313
購読	-11.2314
を持ちます	-11.2315
青銅	-11.2316
範囲内	-11.2318
▁Trang	-11.2318
廃止	-11.232
予言	-11.232
と思いました	-11.232
方も	-11.2321
刑	-11.2323
プリンター	-11.2324
ウム	-11.2324
裕	-11.2325
Car	-11.2328
鳥の	-11.2329
▁最初に	-11.2334
主は	-11.2335
持続可能な開発	-11.2336
に満足	-11.2336
の墓	-11.2336
いても	-11.2336
に挑戦	-11.2338
を検索します	-11.2338
開きます	-11.2338
カラフルな	-11.2339
プラグ	-11.234
の上部	-11.234
環境保護	-11.234
参加した	-11.2341
ホル	-11.2341
頂	-11.2342
細かい	-11.2343
ute	-11.2344
パズル	-11.2346
オメガ時計のレプリカ	-11.2346
の定義	-11.2346
空白	-11.2347
~14	-11.2347
存在しない	-11.2348
死んで	-11.2349
伸	-11.2349
一時的な	-11.2349
呉	-11.2349
エリ	-11.2349
SDL	-11.235
たいと思います	-11.2351
ISIS	-11.2351
暗殺	-11.2353
無限	-11.2354
AND	-11.2354
する予定です	-11.2355
打ち上げ	-11.2356
マイナス	-11.2357
Fu	-11.2357
OIST	-11.2359
窯	-11.2359
に成功	-11.2365
アーチ	-11.2365
年次	-11.2365
慣れ	-11.2365
CGI	-11.2367
アメリカ人	-11.2368
スパイダー	-11.2369
喪失	-11.2369
▁80	-11.237
将軍	-11.2372
されるまで	-11.2372
躊	-11.2373
シル	-11.2375
fr	-11.2376
に厳	-11.2376
ロッド	-11.2379
への対応	-11.2379
鉛	-11.2386
る事	-11.2386
倍の	-11.2386
ガラ	-11.2388
部長	-11.239
に注意	-11.2393
インディ	-11.2394
できるようにします	-11.2394
の中央	-11.2395
の姿	-11.2395
your	-11.2396
見出し	-11.2397
ございますので	-11.2397
付与	-11.2399
までは	-11.2401
架	-11.2403
嘉	-11.2403
年代の	-11.2404
Be	-11.2407
▁Netherlands	-11.241
番目に	-11.2411
new	-11.2413
バーグ	-11.2413
ウイ	-11.2415
混合物	-11.2416
まつり	-11.2416
は以下に記載	-11.2417
のライフタイム	-11.2417
bl	-11.2417
店内	-11.2417
ことも可能です	-11.2418
が完全に	-11.2418
尽く	-11.2419
恩	-11.242
教えてください	-11.242
適用される	-11.2421
試してみ	-11.2421
主流	-11.2422
読み込む	-11.2424
を通って	-11.2428
選ぶ	-11.2429
ご宿泊	-11.2429
人種	-11.2431
夫婦	-11.2431
昔の	-11.2432
命じ	-11.2433
作品が	-11.2434
補欠	-11.2437
ものがあります	-11.2438
の追求です	-11.2438
学院	-11.2439
進路	-11.244
アメダス集中豪雨	-11.244
権威	-11.2441
異常な	-11.2441
角質	-11.2443
働いている	-11.2443
▁何人かの	-11.2444
を開始しました	-11.2444
から来る	-11.2445
生息	-11.2446
国内外	-11.2448
の回復	-11.2449
Sa	-11.2452
を支え	-11.2452
を結ぶ	-11.2454
油圧	-11.2454
学科	-11.2454
化粧品	-11.2455
赤色	-11.2456
出願	-11.2456
フランス語	-11.2457
をインストールする	-11.2458
なもの	-11.246
映画祭	-11.2461
置換	-11.2461
▁Apple	-11.2461
▁k	-11.2461
一般人	-11.2463
リエ	-11.2464
カクテル	-11.2464
pt	-11.2464
適正	-11.2465
に非常に	-11.2465
であろうと	-11.2466
読んで	-11.2466
可能性があり	-11.2467
AST	-11.2467
を承認	-11.2469
当ホテル	-11.2469
(2018	-11.247
クリス	-11.247
根拠	-11.2471
SV	-11.2472
ローラー	-11.2472
を上げ	-11.2473
力と	-11.2474
取得した情報は	-11.2474
を準備	-11.2475
時間で	-11.2476
▁info	-11.2477
アッ	-11.2478
キャリバー	-11.2478
の推進	-11.248
たとき	-11.2481
フェン	-11.2481
説明する	-11.2484
sch	-11.2485
を採用し	-11.2485
EF	-11.2485
脱出	-11.2486
は主に	-11.2486
▁Firefox	-11.2487
によって取得した情報	-11.2488
ようとしている	-11.2488
▁彼女の	-11.2491
をご覧	-11.2491
それまで	-11.2491
弊社の正当な利益	-11.2491
絶滅	-11.2492
餌	-11.2494
場合もあります	-11.2494
主として	-11.2496
らなかった	-11.2497
cle	-11.2497
正当な利益を追求するため	-11.2498
グッズ	-11.2498
を決める	-11.2499
ハンドラ	-11.2501
所有者や	-11.2503
▁1017	-11.2503
sec	-11.2504
するだけで	-11.2504
排除	-11.2505
地面に	-11.2505
フランス語で	-11.2506
風呂	-11.2506
必要なとき	-11.2508
国家の	-11.2509
やがて	-11.2509
を放	-11.251
物件	-11.2511
失敗した	-11.2512
実務	-11.2513
岡山	-11.2513
ハイテク	-11.2513
カードを	-11.2513
フット	-11.2514
Can	-11.2514
個体	-11.2515
1.4	-11.2516
先行	-11.2517
高め	-11.2518
描かれ	-11.252
遅	-11.252
ink	-11.2521
を歓迎する	-11.2522
はなく	-11.2522
資金調達	-11.2523
菓子	-11.2524
放電	-11.2524
タオル	-11.2524
▁Player	-11.2525
をかけて	-11.2526
犠牲	-11.2527
取り組んで	-11.2527
おかげで	-11.2529
ぶら	-11.2529
までご連絡ください	-11.2529
分かり	-11.253
から直接	-11.2532
ジュース	-11.2532
した後に	-11.2532
バブル	-11.2532
のアパート	-11.2532
精神的な	-11.2534
、2003	-11.2535
最古の	-11.2536
と呼ぶ	-11.2537
アラブ	-11.2538
▁インクルード	-11.2538
傍	-11.2539
エレクトロニクス	-11.2539
どおり	-11.2539
の幅	-11.254
っち	-11.254
同じように	-11.254
を行うことができます	-11.2541
悪意者の	-11.2544
サイトで	-11.2545
Plus	-11.2547
を設定できます	-11.2549
ヴィンテージ	-11.2549
既存	-11.255
敗	-11.255
ジェン	-11.255
yu	-11.2551
達と	-11.2551
戒厳令	-11.2552
ole	-11.2553
let	-11.2553
text	-11.2553
部位	-11.2553
公平	-11.2553
ことが可能	-11.2554
上演	-11.2554
フォロー	-11.2555
砕	-11.2555
ショパール	-11.2556
活動は	-11.2557
電池の	-11.2559
民主党	-11.256
の目的は	-11.2561
田舎	-11.2562
浅草	-11.2563
ゲイ	-11.2564
設定された	-11.2565
つけられ	-11.2566
政府当局に	-11.257
ワイヤー	-11.257
Mi	-11.2571
GI	-11.2571
FM	-11.2573
インタラクティブ	-11.2573
の起源	-11.2573
賞賛	-11.2575
は他の	-11.2575
VPN	-11.2576
私の心	-11.2578
信頼性の高い	-11.2579
▁from	-11.258
ことでしょう	-11.2582
スーツ	-11.2583
法令順守	-11.2583
見えない	-11.2583
を指定できます	-11.2584
印象的な	-11.2586
起きた	-11.2586
母の日	-11.2589
▁実は	-11.2589
総額	-11.259
苦痛	-11.2591
どれだけ	-11.2593
になっていた	-11.2593
アンテナ	-11.2593
南アフリカ	-11.2596
▁チェック	-11.2597
コーディネート	-11.2597
ご希望の場合	-11.2597
たので	-11.2598
そのため	-11.2599
off	-11.26
IPS	-11.2601
セクションで	-11.2601
強制セックス	-11.2602
カーボン	-11.2602
所轄官庁	-11.2604
発酵	-11.2604
当局や	-11.2604
の象徴	-11.2605
情報の保持	-11.2607
個人情報を開示し	-11.2607
探している	-11.2607
余裕	-11.2608
アム	-11.2608
1989	-11.2608
Box	-11.2609
アンドロイド	-11.2611
紅葉	-11.2612
▁リンク	-11.2612
に関係なく	-11.2612
ace	-11.2613
知り	-11.2614
ガバナンス	-11.2614
されるべき	-11.2615
zo	-11.2616
に戻	-11.2616
を広げ	-11.2616
政治家	-11.2617
多くは	-11.2618
録画	-11.2618
▁USB	-11.2619
構え	-11.262
壇	-11.262
おい	-11.2621
ワーキング	-11.2622
MR	-11.2624
コロンビア	-11.2625
マルウェア	-11.2625
商品は	-11.2627
偉	-11.2628
でなければなりません	-11.2628
明白な	-11.2629
自主	-11.2629
の私達の	-11.2631
予めご了承ください	-11.2631
インストールされている	-11.2633
▁Dr	-11.2634
▁HRM	-11.2635
に関心	-11.2636
597,	-11.264
を抱え	-11.2641
しているため	-11.2644
に関し	-11.2644
後者	-11.2644
aw	-11.2645
行きます	-11.2646
アンダー	-11.2646
ISS	-11.2647
短く	-11.2647
観光客の	-11.2647
プロダクトやサービス	-11.2648
台風予報履歴	-11.2648
と共有される場合	-11.2649
Flash	-11.2651
反転	-11.2651
の普及	-11.2651
PV	-11.2652
SW	-11.2652
または犯罪行為	-11.2655
郵便	-11.2656
触媒	-11.2658
日本政府	-11.2658
ness	-11.2659
糖尿病	-11.2659
数週間	-11.2659
陸上	-11.266
に必要と認められ	-11.2662
Herengracht	-11.2662
を紹介する	-11.2663
プロセスは	-11.2663
アメリカ人事	-11.2664
▁Pi	-11.2664
▁II	-11.2664
VER	-11.2666
殆ど	-11.2666
別れ	-11.2667
の息子	-11.2669
に到達	-11.2669
異星人達	-11.2672
王朝	-11.2672
したいと思います	-11.2672
を中心とした	-11.2673
アルゼンチン	-11.2673
▁PARTNERS	-11.2673
ans	-11.2675
違った	-11.2675
uz	-11.2678
してみてください	-11.2679
民衆	-11.2679
雲の	-11.268
1/2	-11.2683
高まり	-11.2683
Per	-11.2683
刊	-11.2685
空に	-11.2685
潤	-11.2686
トラベル	-11.2687
揃え	-11.269
ギリシャ語	-11.269
間違って	-11.2692
力で	-11.2692
法律で義務づけられている場合	-11.2693
サービスを利用した際に	-11.2694
浄化	-11.2695
VO	-11.2695
を愛し	-11.2695
を同時に	-11.2696
または訴追	-11.2697
や詐欺行為の防止	-11.2697
によって許容される範囲において	-11.2697
アヌンナキ	-11.2697
ICS	-11.2697
ものとして	-11.2701
弟	-11.2702
質問やクレームに	-11.2704
食べた	-11.2704
▁すべての動画は	-11.2704
勝つ	-11.2707
腐敗	-11.2707
DL	-11.2708
ることが出来ます	-11.2709
:「	-11.2709
に到達する	-11.2709
ながらも	-11.271
巡	-11.2713
video	-11.2714
TF	-11.2715
がとても	-11.2715
レンガ	-11.2715
してくれた	-11.2716
4/	-11.2719
ジョブ	-11.272
知っています	-11.272
考古学	-11.2722
注ぐ	-11.2722
陶器	-11.2722
の名称	-11.2723
Japan	-11.2723
譲	-11.2724
著名な	-11.2725
の時	-11.2725
通訳	-11.2725
しようとした	-11.2726
ウエ	-11.2727
ご飯	-11.2728
知的財産権	-11.2729
がございます	-11.2729
oli	-11.2731
番目	-11.2732
正当な	-11.2733
カラーについて	-11.2734
好奇心	-11.2735
灰	-11.2735
いや	-11.2738
杉	-11.2739
の内側	-11.2741
適合	-11.2741
を知り	-11.2742
book	-11.2742
デビュー	-11.2745
マザー	-11.2745
を遂げ	-11.2746
ことはない	-11.2746
を実装	-11.2746
conf	-11.2747
裁判	-11.2747
を終え	-11.2747
ラオス	-11.2747
▁今日の	-11.2748
が必要となります	-11.2748
と述べています	-11.2749
研究は	-11.275
orn	-11.2752
文字盤	-11.2753
▁コスプレポルノチューブ	-11.2753
お越し	-11.2756
専門知識	-11.276
を推進する	-11.276
息を	-11.2761
有効に	-11.2761
向かう	-11.2761
昆虫	-11.2763
Master	-11.2766
アイス	-11.2768
月まで	-11.2768
具体的に	-11.2769
なりました	-11.277
▁適用される法律	-11.277
ことではありません	-11.2771
同国	-11.2771
DF	-11.2771
研究科	-11.2771
そこには	-11.2771
有効期間	-11.2771
BL	-11.2772
それ自体	-11.2772
▁Connect	-11.2774
2.3	-11.2774
▁全画像	-11.2775
博士は	-11.2776
承諾	-11.2777
も多い	-11.2777
rit	-11.2781
土地の	-11.2782
観点から	-11.2782
を満たすために	-11.2785
立ち上げ	-11.2786
運航	-11.2788
をつける	-11.279
▁第三者	-11.279
係数	-11.2791
ぁ	-11.2791
を担う	-11.2791
望み	-11.2792
意思	-11.2793
当施設のウェブサイト	-11.2793
の最終	-11.2793
開花	-11.2793
ool	-11.2793
知っていた	-11.2794
に到着した	-11.2794
を必要とします	-11.2795
目的のために	-11.2796
画家	-11.2796
討論	-11.2798
NK	-11.2799
散策	-11.2799
永遠の	-11.28
▁無	-11.28
▁弊社の	-11.2802
の公式	-11.2802
効果が	-11.2802
鋳造	-11.2802
の再生	-11.2802
をテーマにした	-11.2804
ておく	-11.2804
""	-11.2804
非常	-11.2806
▁塩	-11.2807
4000	-11.2807
されるか	-11.2807
密接に	-11.2809
▁著者	-11.281
しかない	-11.2812
仕方	-11.2813
▁Store	-11.2813
ビーズ	-11.2814
ステンレススチール	-11.2815
くれた	-11.2818
供	-11.282
朝の	-11.282
のチケット	-11.2821
▁本当に	-11.2822
酔	-11.2822
てはいけません	-11.2823
まない	-11.2824
SY	-11.2824
の入り口	-11.2824
充	-11.2825
繁殖	-11.2826
沢山	-11.2828
ツールは	-11.2829
掛	-11.283
真剣に	-11.283
震災	-11.2831
延期	-11.2835
到来	-11.2837
麦	-11.2838
への参加	-11.2838
対立	-11.2839
実感	-11.2839
様な	-11.284
起こります	-11.2841
丹	-11.2844
飛んで	-11.2844
お知らせします	-11.2844
:10	-11.2846
ことをお勧めします	-11.2847
似ている	-11.285
スリング	-11.285
として知られる	-11.2852
▁インストール	-11.2852
詳細情報	-11.2853
予備	-11.2855
を紹介します	-11.2855
直前	-11.2857
演習	-11.2863
▁エンジン	-11.2863
国外	-11.2864
ウブロ	-11.2864
増加した	-11.2865
tin	-11.2866
絶縁	-11.2866
明示的に	-11.2867
部屋の	-11.2869
証券	-11.287
人々です	-11.287
▁Page	-11.287
海外の	-11.2872
日本の旅行	-11.2872
支え	-11.2872
に保護されるように	-11.2872
取って	-11.2872
ology	-11.2873
うえで	-11.2874
死に	-11.2874
2025	-11.2875
紋	-11.2875
遂行	-11.2875
アレキサンダー	-11.2875
いつでも同意を撤回	-11.2875
キューバ	-11.2877
使用している	-11.2879
▁Bar	-11.2879
プリンタ	-11.288
観光客が	-11.2881
を対象とした	-11.2882
個人情報を使用する場合	-11.2882
頭を	-11.2883
▁Content	-11.2886
信号を	-11.2886
安く	-11.2887
欲望	-11.2887
減速	-11.2887
▁お客様の個人情報を	-11.2888
ていくこと	-11.2888
を残して	-11.2889
н	-11.289
決議	-11.289
伝統的	-11.2891
正当な利益のために	-11.2892
に達した	-11.2892
致	-11.2893
の法律と同等	-11.2893
を回復する	-11.2893
を飲む	-11.2894
ゲージ	-11.2894
を占める	-11.2896
疲労	-11.2897
ドイツ語	-11.2897
▁2)	-11.2897
と述べました	-11.2899
〉	-11.29
AVI	-11.29
全域	-11.2901
ush	-11.2901
▁Time	-11.2901
考えられ	-11.2902
なさ	-11.2904
個人情報が欧州	-11.2904
Note	-11.2907
下記に記載されている連絡先より	-11.2907
構想	-11.2908
▁午後	-11.2908
される場合	-11.2911
オフライン	-11.2911
勧め	-11.2912
ノース	-11.2912
つ以上の	-11.2913
飼	-11.2913
再開	-11.2914
▁私は私の	-11.2914
の真ん中	-11.2915
陸地	-11.2915
応え	-11.2916
を追加し	-11.2916
まれた	-11.2916
言語で	-11.2919
移り	-11.2923
位の	-11.2924
蘇	-11.2925
Chrome	-11.2925
残念ながら	-11.2925
儀	-11.2926
を防ぐために	-11.2928
を比較	-11.2928
溶解	-11.293
装着	-11.293
の形状	-11.2933
ste	-11.2935
プレート移動	-11.2935
詐欺行為の	-11.2935
ならない	-11.2936
nes	-11.2939
孤独	-11.2939
free	-11.2941
▁キー	-11.2941
日本語版	-11.2942
ita	-11.2942
と語った	-11.2943
読み取り	-11.2945
▁商品によってお届けが	-11.2946
jo	-11.2946
窒素	-11.2946
わった	-11.2948
▁個人情報は	-11.2948
▁空港	-11.2949
製薬	-11.295
▁をクリックして	-11.295
英語の	-11.2952
するのか	-11.2953
-18	-11.2953
を選択した場合	-11.2953
目的は	-11.2954
ナショナル	-11.2955
並び	-11.2957
今も	-11.2957
スコ	-11.2957
貧	-11.296
▁グローバル	-11.296
▁Day	-11.2961
ルーツ	-11.2962
を移動する	-11.2963
オペレーティング	-11.2964
真鍮	-11.2964
John	-11.2964
支払われ	-11.2965
をテーマに	-11.2965
他者	-11.2966
001	-11.2968
を最大限に	-11.297
▁レ	-11.297
きり	-11.2971
を送り	-11.2971
外務省	-11.2971
地球環境	-11.2972
view	-11.2975
nu	-11.2977
GIF	-11.2977
安心して	-11.2979
よくある質問	-11.2979
最高品質の	-11.2979
ずれ	-11.2979
のなかで	-11.2981
〈	-11.2982
BMW	-11.2984
▁更新	-11.2986
▁近	-11.2988
の雰囲気	-11.2989
群れ	-11.2989
メッシュ	-11.2989
▁新規	-11.2991
ヘッセ	-11.2993
▁web	-11.2994
セクシーな	-11.2995
ニス	-11.2995
4.0	-11.2995
▁最終的には	-11.2995
規範	-11.2996
出された	-11.2997
漁業	-11.2997
熊	-11.2998
ヘッダー	-11.2999
が大きい	-11.3
Sol	-11.3
予想される	-11.3001
トライ	-11.3001
良いです	-11.3002
アレクサンダー	-11.3003
した場合は	-11.3004
技術革新	-11.3006
type	-11.3006
この世	-11.3009
▁Technavio	-11.3011
水で	-11.3011
を表現し	-11.3012
立体	-11.3013
フロリダ	-11.3014
RY	-11.3016
マウスの	-11.3017
load	-11.3017
cat	-11.3018
DJ	-11.3019
ゲストハウス	-11.302
値段	-11.3022
かかった	-11.3022
を取り除く	-11.3022
フェーズ	-11.3022
をとおして	-11.3025
VST	-11.3025
BB	-11.3027
為替レート	-11.3027
もあった	-11.3028
Nor	-11.3028
を生かし	-11.3028
被害者	-11.3031
成長する	-11.3031
▁熟	-11.3032
征服	-11.3032
Hz	-11.3032
キャン	-11.3033
Shi	-11.3034
BD	-11.3034
eb	-11.3034
クロノメーター	-11.3036
をベースに	-11.3036
ナビゲーター	-11.3039
光景	-11.3041
ワークフロー	-11.3042
されなかった	-11.3043
キア	-11.3044
観音	-11.3045
影響を受け	-11.3048
有効です	-11.3049
を活用した	-11.305
ことが重要です	-11.305
所在	-11.305
中華	-11.3051
を探している	-11.3053
沿	-11.3053
半ば	-11.3053
天文学者	-11.3057
孫	-11.3058
Event	-11.3059
なのだ	-11.3059
全身	-11.3061
アトラクション	-11.3061
推薦	-11.3064
やさしい	-11.3064
ef	-11.3065
絞り	-11.3065
いただけ	-11.3065
ビデオはこの	-11.3067
に取り組んでいます	-11.3068
誠	-11.3068
ひどく	-11.3068
スタッフが	-11.3068
ハッ	-11.3068
モチーフ	-11.3069
長時間	-11.3069
Blue	-11.307
一致する	-11.3071
т	-11.3071
お送り	-11.3073
モジュールの	-11.3073
AZ	-11.3074
清潔	-11.3075
MJ	-11.3078
質問を	-11.3078
アメリカン	-11.3078
の欠如	-11.3079
カスタマイズされた	-11.308
修行	-11.308
に合わせた	-11.308
cell	-11.3081
ff	-11.3081
注目を集め	-11.3083
スケート	-11.3086
相違	-11.3086
実に	-11.3089
穀物	-11.3092
異なる場合がございます	-11.3093
インク	-11.3093
遅くなる場合があり	-11.3093
▁2257	-11.3094
ホストサイトの	-11.3095
バルコニー	-11.3097
破片	-11.3098
途上国	-11.31
▁お持ちの場合は	-11.31
を分析し	-11.3101
Drive	-11.3102
化石	-11.3105
ことば	-11.3106
工夫	-11.3106
を用い	-11.3107
を得ること	-11.3107
のうちの	-11.3108
サーバー上でホストされ	-11.3111
法的な問題の適切な	-11.3111
日没	-11.3112
存	-11.3113
▁南	-11.3114
ひき	-11.3114
債務	-11.3115
プレゼン	-11.3116
を携えて	-11.3118
▁東京都	-11.312
440	-11.3121
part	-11.3122
▁ロ	-11.3124
私と	-11.3125
成長すると予測してい	-11.3126
を入手	-11.3129
手助け	-11.313
が生じる	-11.3131
にぴったり	-11.3131
の脅威	-11.3131
▁ビジネス	-11.3132
スル	-11.3132
を組み合わせた	-11.3132
Amazon	-11.3133
ワールドカップ	-11.3134
を開催しました	-11.3135
105	-11.3135
責任を負いません	-11.3135
渡る	-11.3136
高価	-11.3136
憎	-11.3137
軽い	-11.3138
ことを示す	-11.3138
▁System	-11.3138
がありますか	-11.3139
剛	-11.314
お得な	-11.3141
を強く	-11.3141
できるようにする	-11.3143
滞在します	-11.3147
未満の	-11.3147
蝶	-11.3147
パノラマ	-11.3147
シカゴ	-11.3147
経由	-11.3149
セキュリティサービス	-11.315
機密	-11.3151
水と	-11.3151
▁ちなみに	-11.3151
を取得します	-11.3153
ご注意	-11.3154
明示	-11.3155
点検	-11.3155
可能性が高い	-11.3155
ないよう	-11.3156
騒音	-11.3157
Pay	-11.3158
の一部を	-11.3158
慈悲	-11.3158
車は	-11.3159
lat	-11.316
を自動的に	-11.316
Data	-11.3161
▁パン	-11.3161
に適合	-11.3162
として知られている	-11.3164
が開始され	-11.3164
見積	-11.3166
1-2	-11.3167
開設	-11.3169
1960	-11.317
そなた	-11.317
GPS	-11.317
▁Wave	-11.3171
メンバーの	-11.3172
新製品	-11.3172
を導入	-11.3172
Core	-11.3172
卸売	-11.3173
近づく	-11.3173
制裁	-11.3173
仙	-11.3174
がすでに	-11.3175
三つの	-11.3178
最近では	-11.3178
本来	-11.3179
を挿入	-11.318
▁然し	-11.318
の登録	-11.318
合理的な	-11.3181
タブで	-11.3182
説明します	-11.3182
入国	-11.3182
運転手	-11.3183
顕著な	-11.3184
▁フィールド	-11.3186
導き	-11.3186
エロ	-11.3188
リアルタイムで	-11.3192
似ています	-11.3193
の制限	-11.3193
Get	-11.3193
までお問い合わせください	-11.3194
提供された	-11.3194
ママ	-11.3195
になろう	-11.3197
ビート	-11.3197
飛ぶ	-11.3197
および他の	-11.3198
の直前の	-11.3201
近親相姦	-11.3202
コマンドライン	-11.3202
公衆	-11.3203
を測定	-11.3204
に関連した	-11.3205
SN	-11.3205
自分たち	-11.3206
委員会は	-11.3208
通路	-11.3208
温室効果ガス	-11.3209
ソル	-11.3209
▁編集	-11.3212
の一つは	-11.3212
マガジン	-11.3213
メッキ	-11.3213
チューダー	-11.3214
出身の	-11.3215
認可	-11.3217
多彩な	-11.3217
の外観	-11.3219
▁この機能は	-11.322
▁電話	-11.3223
恵み	-11.3224
誘惑	-11.3224
を使っている	-11.3224
迷惑	-11.3227
ダメージ	-11.3228
計画は	-11.323
全てが	-11.323
NPO	-11.3231
左に	-11.3232
を説明します	-11.3233
例です	-11.3233
ゆく	-11.3233
info	-11.3234
暴動	-11.3234
が発生した場合	-11.3235
ala	-11.3235
Audio	-11.3236
ピング	-11.3237
トレイ	-11.3239
をサポートしています	-11.3239
くれる	-11.324
非常に多くの	-11.324
国民の	-11.3243
ics	-11.3244
入金	-11.3244
ただし	-11.3245
サンド	-11.3247
扱う	-11.3247
▁バ	-11.3247
空港から	-11.3248
ek	-11.3248
Show	-11.3249
Asahi	-11.325
クルマ	-11.3251
少数	-11.3252
▁送迎	-11.3253
する必要があり	-11.3253
シャッター	-11.3254
が正しく	-11.3256
現場で	-11.3256
困	-11.3256
緊急事態	-11.3257
輝	-11.3258
▁何が	-11.326
犠牲者	-11.3263
待機	-11.3263
▁Ltd	-11.3264
way	-11.3265
ラブ	-11.3266
排	-11.3266
点灯	-11.3266
ファックス	-11.3269
据え	-11.327
貫	-11.3271
機械式時計	-11.3271
BAUNAT	-11.3272
▁なし	-11.3275
▁TOP	-11.3277
現在では	-11.3278
影響を及ぼし	-11.3279
ros	-11.3279
水は	-11.3279
を望む	-11.328
が始まる	-11.328
Ex	-11.3282
卓	-11.3285
膨	-11.3286
公的	-11.3286
日本文化	-11.3287
将来的に	-11.3288
カジュアル	-11.3288
を含めた	-11.329
旅館	-11.3292
活発な	-11.3292
トレー	-11.3293
あなた自身の	-11.3293
▁テキスト	-11.3293
サプライチェーン	-11.3293
葛	-11.3294
の使い方	-11.3294
使命	-11.3295
ファイルシステム	-11.3295
都合	-11.3296
地理的	-11.3298
tar	-11.3299
等しい	-11.3299
エンターテイメント	-11.3301
▁IWC	-11.3303
から約	-11.3303
元素	-11.3303
全額	-11.3305
並べ	-11.3305
協	-11.3305
上昇し	-11.3306
廃棄	-11.3306
利用可能です	-11.3308
出産	-11.3308
それだけ	-11.3308
los	-11.3309
しませんでした	-11.3309
かえ	-11.3311
ッシング	-11.3312
合った	-11.3313
メッセージが	-11.3314
Tr	-11.3314
ヘン	-11.3315
繋	-11.3315
幾つかの	-11.3315
exe	-11.3318
Mar	-11.3321
電波	-11.3322
問題を解決する	-11.3323
Love	-11.3323
すばやく	-11.3327
祝日	-11.3327
の内のレベル	-11.3328
用量	-11.3331
▁2002	-11.3332
2-3	-11.3332
ull	-11.3332
を押して	-11.3332
圧倒	-11.3333
期間は	-11.3334
綱	-11.3334
ショートカット	-11.3334
利便性	-11.3334
理解して	-11.3335
粉砕	-11.3335
情勢	-11.3335
どちらの	-11.3335
価格が	-11.3337
fu	-11.3337
シエ	-11.3338
ゼータ達	-11.3339
不全	-11.3339
UR	-11.334
に及ぶ	-11.3343
参画	-11.3343
世界中の都市	-11.3344
楽曲	-11.3344
習得	-11.3346
ジョージ	-11.3347
それはまた	-11.3347
Do	-11.3349
何かが	-11.3351
無償	-11.3351
来ました	-11.3352
主人公	-11.3354
上昇する	-11.3355
色々な	-11.3355
設立されました	-11.3357
コンタクティ	-11.336
BU	-11.336
、2009	-11.336
補足	-11.3362
次第に	-11.3363
馬の	-11.3366
急増	-11.3366
onic	-11.3367
描き	-11.3368
恋人	-11.3368
正式	-11.3369
内にある	-11.3369
▁最後の	-11.3371
FreeBSD	-11.3371
cer	-11.3372
NU	-11.3372
HE	-11.3372
台湾の	-11.3373
練語版	-11.3375
写真家	-11.3376
のだろうか	-11.3377
知事	-11.338
を表します	-11.338
ことが可能です	-11.3381
スリランカ	-11.3382
補完	-11.3383
傑作	-11.3384
他の場所	-11.3385
を入力して	-11.3386
路線	-11.3386
回路図	-11.3386
あなたも	-11.3387
受領	-11.3387
造船	-11.3388
も同じ	-11.3388
受け取った	-11.3389
ブーム	-11.3393
バリエーション	-11.3393
をご参照ください	-11.3393
登録されています	-11.3394
負け	-11.3395
させました	-11.3396
期に	-11.3396
▁Cal	-11.3398
背後	-11.3399
強み	-11.34
ベンチ	-11.3401
▁2001	-11.3402
発足	-11.3402
ダブ	-11.3402
鋭	-11.3404
アラブ首長国連邦	-11.3405
世代の	-11.3405
メンズサイズ	-11.3406
ヨガ	-11.3406
新作	-11.3407
▁ヨーロッパ	-11.3409
堀	-11.3412
数回	-11.3412
慢性	-11.3413
理想	-11.3414
の数は	-11.3414
皆さま	-11.3417
秘密の	-11.3417
▁ゼータは	-11.3419
あなた自身	-11.3419
オペレーション	-11.342
を撮影	-11.3422
恋	-11.3424
Pan	-11.3426
sen	-11.3426
▁住所	-11.3426
消防	-11.3427
rd	-11.3428
ple	-11.3429
に合った	-11.3432
を待っている	-11.3434
の成果	-11.3436
時計のレプリカ	-11.3436
キャンバス	-11.3437
ポイントは	-11.3437
より多く	-11.3438
ピット	-11.3438
人材育成	-11.3439
腐	-11.3439
詳細に	-11.344
ご自身の	-11.3442
3,000	-11.3445
PowerPoint	-11.3446
ブランド名	-11.3447
以降の	-11.3448
GC	-11.345
へ移動	-11.345
ファイバー	-11.3451
後期	-11.3451
予報	-11.3452
シドニー	-11.3453
要望	-11.3455
ソーラー	-11.3456
誤解	-11.3457
液晶	-11.3457
芸術家	-11.3458
▁Project	-11.3458
頭部	-11.3458
▁Tours	-11.3461
高品質な	-11.3461
メモリー	-11.3462
▁Business	-11.3463
oul	-11.3466
使用された	-11.3467
置いて	-11.3468
繊細な	-11.3468
新鮮	-11.3468
を追い	-11.3468
を深め	-11.3469
を負	-11.3469
青色	-11.347
一回	-11.3472
を探して	-11.3473
の減少	-11.3473
STA	-11.3473
続けます	-11.3474
1983	-11.3475
促	-11.3477
量子	-11.3478
屋内	-11.3478
ませんか	-11.3478
昨	-11.3479
サービスを提供しています	-11.3481
に適用されます	-11.3481
乾燥した	-11.3482
気づく	-11.3484
秘	-11.3484
仏法	-11.3484
ものでした	-11.3484
スキン	-11.3487
Up	-11.3487
GL	-11.3488
というのが	-11.3488
階の	-11.3488
っこ	-11.3488
バンドル	-11.3488
serv	-11.3488
的である	-11.3488
ハリケーン	-11.3491
暖かく	-11.3491
、2004	-11.3492
終了後	-11.3492
入会	-11.3493
電動	-11.3493
の場合には	-11.3494
▁PLC	-11.3494
飼育	-11.3495
の深さ	-11.3498
17:00	-11.3499
を過ごす	-11.3501
を出す	-11.3501
自殺	-11.3501
▁MIME	-11.3502
述べる	-11.3503
牛の	-11.3503
する権利	-11.3504
▁Express	-11.3505
▁Inter	-11.3505
亀	-11.3506
用紙	-11.3507
Tra	-11.3509
彦	-11.3509
衣服	-11.3511
テクノロジ	-11.3512
が必要になります	-11.3512
について何か	-11.3512
CSS	-11.3513
飯	-11.3513
腎	-11.3513
貼	-11.3513
の為に	-11.3514
のタイトル	-11.3514
を解決する	-11.3515
東西	-11.3516
▁こんにちは	-11.3517
非常に競争力のある価格	-11.3517
下方	-11.3518
key	-11.3521
▁スペース	-11.3521
粘	-11.3525
ham	-11.3526
興味のある	-11.3526
積み	-11.3526
に置く	-11.3526
系列	-11.3527
XI	-11.3527
を入れる	-11.3527
に与え	-11.3528
ことを確認してください	-11.3528
パネライ	-11.3528
オフセット	-11.3531
貝	-11.3532
償	-11.3533
3.1	-11.3534
ken	-11.3535
望ましい	-11.3536
ウィンドウで	-11.3537
人気のある	-11.354
郵送	-11.3541
の注文や	-11.3541
授	-11.3543
ものではない	-11.3544
バイナリ	-11.3544
魔法の	-11.3545
といわれ	-11.3546
の設立	-11.3546
tel	-11.3547
海域	-11.3548
IB	-11.3548
かけた	-11.355
鎌倉	-11.3551
ウィジェット	-11.3552
幹部	-11.3552
絞	-11.3554
を見つけることができません	-11.3554
見られます	-11.3554
お誕生日の	-11.3555
専門の	-11.3556
国際的	-11.3557
仲	-11.3557
選択します	-11.3557
で表示されます	-11.3559
成果を	-11.3559
予約をすることができ	-11.356
Coin	-11.356
は一切	-11.356
人間達	-11.3561
に戻り	-11.3562
クォーツ	-11.3562
改装	-11.3563
とは異なる	-11.3566
えない	-11.3567
請	-11.3569
、24	-11.3569
ミュ	-11.3569
▁バッグ	-11.357
騒	-11.357
日本人の	-11.357
▁Asia	-11.3571
ュ	-11.3572
細部	-11.3573
▁View	-11.3574
ことを可能にする	-11.3576
胡	-11.3577
オーストリア	-11.3577
▁以降	-11.3578
日々の	-11.358
家屋	-11.3584
▁オンライン注文やお花を配送	-11.3585
美しい花束	-11.3585
!"	-11.3585
に対花	-11.3585
自分を	-11.3588
を呼び	-11.3591
シャフハウゼン	-11.3592
の一つで	-11.3592
Qu	-11.3597
オブジェクトを	-11.3597
せた	-11.3598
フローリスト	-11.3599
人道	-11.3599
子孫	-11.3599
写真ギャラリー	-11.36
を置いて	-11.3602
在住	-11.3602
たいという	-11.3602
爪	-11.3604
を失った	-11.3606
四川	-11.3606
関西	-11.3607
悟	-11.3607
で使用される	-11.3608
ことが多い	-11.3608
花花	-11.3609
を選んだ	-11.3611
設計されています	-11.3611
イニシアチブ	-11.3611
システムで	-11.3612
起きる	-11.3613
束以上	-11.3613
▁お世話を	-11.3615
1991	-11.3617
類似した	-11.3618
柳	-11.3619
▁地元のお花屋さん	-11.3619
▁MOSHI	-11.3619
総称して	-11.3619
パブリック	-11.3619
混雑	-11.3619
アラビア	-11.362
のみで	-11.362
過ごす	-11.3621
人たちが	-11.3622
Album	-11.3623
プロジェクトウィンドウ	-11.3624
はなりません	-11.3626
を提供することにコミットしてい	-11.3627
生体	-11.3628
が非常に重要なこと	-11.3628
支出	-11.363
磁器	-11.363
💐	-11.3631
オーク	-11.3631
を失い	-11.3632
Si	-11.3632
▁1)	-11.3632
▁上記	-11.3636
た花束	-11.3636
アマチュア	-11.3638
沈黙	-11.3639
を十分に	-11.364
離れる	-11.364
ICT	-11.3642
▁ディレクティブは	-11.3642
ral	-11.3643
に座って	-11.3645
ばかりの	-11.3647
▁200	-11.3647
を提供する専用の	-11.3648
Tom	-11.365
Star	-11.365
SG	-11.365
暦	-11.3651
注入	-11.3652
発症	-11.3653
または最大限の	-11.3654
▁どのような	-11.3656
バスケッ	-11.3656
を購入し	-11.3657
▁のチームで	-11.3659
シンプルで	-11.3659
刻まれ	-11.3659
処理します	-11.366
nlinesaleus	-11.366
pm	-11.366
▁花の配達	-11.3661
▁働こう	-11.3661
▁それぞれの都市	-11.3661
トルク	-11.3662
際などの	-11.3662
しばらくの間	-11.3663
▁必要に応じて	-11.3663
二人の	-11.3664
分裂	-11.3665
究	-11.3665
ネットワークの地元の快適	-11.3665
正当な価格で	-11.3665
ることで確実に	-11.3666
したものです	-11.3666
に引き	-11.3666
でないマッチのどこでも	-11.3669
幅広いネットワークの地	-11.3669
快適してお花の花束でお届け	-11.3669
顧客サービスのためのお花を配送	-11.3669
▁うちでお花	-11.3669
信頼できる現地の快適の場合のよう	-11.3669
植物やギフトをご用意	-11.3669
お花による	-11.3669
辞書	-11.3669
▁う花	-11.3671
バッチ	-11.3672
Khánh	-11.3672
選択の花	-11.3673
岳	-11.3674
顧客が	-11.3677
栗	-11.368
スタートアップ	-11.3681
加盟	-11.3681
-25	-11.3681
にログイン	-11.3682
開催されます	-11.3683
子供が	-11.3684
石鹸	-11.3684
ニッケル	-11.3684
質の高い	-11.3684
公正	-11.3684
完璧に	-11.3685
inter	-11.3685
日本国内	-11.3687
を訪問する	-11.3687
を展示	-11.3688
ありがとうございました	-11.3688
拒絶	-11.3688
の性能	-11.3689
扱われ	-11.3689
にそれを	-11.3691
状に	-11.3692
探検	-11.3693
白色	-11.3694
機能性	-11.3695
オイスター	-11.3695
始まって	-11.3697
まもなく	-11.3699
NATO	-11.37
▁また大規模な	-11.37
任意	-11.37
ire	-11.37
閣僚	-11.3702
を確保	-11.3703
コンサルタント	-11.3703
map	-11.3703
エンコーディング	-11.3704
組成	-11.3704
スピーチ	-11.3704
チャイ	-11.3704
テラ	-11.3705
柔軟な	-11.3706
フェル	-11.3706
価値観	-11.3706
▁NASA	-11.3707
Active	-11.3707
マリン	-11.3707
考	-11.3708
受け入れられ	-11.3709
と考えられ	-11.371
に続く	-11.3711
増殖	-11.3711
場合がございます	-11.3713
織り	-11.3713
ご覧	-11.3715
高校生	-11.3716
着物	-11.3716
になるまで	-11.3716
城壁	-11.3716
の日付	-11.3718
オープンソース	-11.372
どうか	-11.3721
見つけることは容易ではありません	-11.3722
現実の	-11.3722
アール	-11.3723
あなたはそれ	-11.3725
々しい	-11.3725
新生児とし	-11.3726
Page	-11.3728
運び	-11.3729
瓦	-11.373
敬意	-11.3731
あなたのために	-11.3731
と考えられている	-11.3732
パスポート	-11.3737
秋に	-11.3738
true	-11.3738
をリリース	-11.3739
の先頭	-11.374
▁United	-11.3742
分岐	-11.3743
くなった	-11.3745
モリ	-11.3745
支店	-11.3746
▁Gen	-11.3748
地区の	-11.3749
Filter	-11.3749
プロンプト	-11.3749
参入	-11.3749
伝導	-11.375
rr	-11.3751
栄	-11.3752
の測定	-11.3752
序	-11.3753
大丈夫	-11.3753
マイケル	-11.3754
▁ブラック	-11.3756
▁4:	-11.3757
▁Global	-11.3758
を経由して	-11.3758
体内	-11.3759
利用者の	-11.3762
製造業者	-11.3762
▁地域情報	-11.3763
80%	-11.3764
あらかじめご了承ください	-11.3765
メジャー	-11.3766
生成された	-11.3767
憲法	-11.3768
イタリア語	-11.3768
させられ	-11.3769
olo	-11.377
▁アンフィ	-11.3771
ベア	-11.3772
ニーズを見て	-11.3774
舗を見て	-11.3774
共同体	-11.3775
の一種	-11.3775
ようである	-11.3781
を使用することで	-11.3783
鼓	-11.3783
けた	-11.3784
産業用	-11.3785
▁今日は	-11.3786
工場で	-11.3787
Insert	-11.3788
ことが出来る	-11.3788
改修	-11.3788
を認める	-11.3789
は全て	-11.3789
に満ち	-11.379
芝生	-11.379
を開いた	-11.3791
ロサンゼルス	-11.3792
mat	-11.3793
itch	-11.3794
▁Control	-11.3795
メッセージは	-11.3795
参加する	-11.3795
に際して	-11.3795
さらに多くの	-11.3795
▁それでは	-11.3797
の採用	-11.3797
中庭	-11.3797
ふく	-11.3798
響	-11.3798
ボタンから	-11.3798
実行されます	-11.3799
されていて	-11.3799
有害性	-11.3799
English	-11.3799
それは常に最も	-11.3799
▁インターネットはあなたの	-11.38
▁Linux	-11.38
準備ができ	-11.3801
有用な	-11.3802
はここ	-11.3802
繁	-11.3802
と比べて	-11.3803
かみ	-11.3803
バルセロナ	-11.3803
下り	-11.3803
ノル	-11.3805
本来の	-11.3805
提起	-11.3808
頃から	-11.3811
リポジトリ	-11.3811
大幅な	-11.3811
まらない	-11.3812
可能性があるため	-11.3815
素粒子	-11.3816
直す	-11.3817
出来ない	-11.3818
狭	-11.3819
すごい	-11.3819
▁542	-11.382
を購入することで	-11.3821
カスタマサ	-11.3821
KE	-11.3821
日には	-11.3822
招き	-11.3822
トレーダー	-11.3822
していくこと	-11.3825
得意	-11.3826
カルシウム	-11.3827
▁you	-11.3827
下落	-11.3827
ことを示しています	-11.383
時間がかかる	-11.383
90%	-11.3832
意見交換	-11.3832
»	-11.3832
ations	-11.3833
ご用意	-11.3834
集会	-11.3834
フレームワーク	-11.3834
の底	-11.3835
メンバーが	-11.3835
残念	-11.3835
▁残念ながら	-11.3836
初期化	-11.3839
人工知能	-11.3842
恒	-11.3843
に対応した	-11.3844
をつくり	-11.3845
加速計	-11.3845
位相	-11.3846
柔らかく	-11.3846
ition	-11.3847
レプリカタグホイヤー	-11.3851
厳格な	-11.3851
一意	-11.3851
▁Music	-11.3851
ツェ	-11.3851
数十年	-11.3852
▁最近の	-11.3853
小屋	-11.3853
True	-11.3854
ミュージアム	-11.3854
▁km	-11.3854
を知らない	-11.3855
正常な	-11.3856
回目の	-11.3859
18〜	-11.3862
を迎える	-11.3865
意欲	-11.3867
cho	-11.3867
するだろう	-11.3867
助ける	-11.3868
ご滞在	-11.3869
hat	-11.3869
膝	-11.3869
ホルモン	-11.387
仏像	-11.3871
であるが	-11.3871
揚	-11.3873
を想像	-11.3876
を含める	-11.3877
研究機関	-11.3878
なんです	-11.3878
たいと思う	-11.3879
熊本	-11.3879
uro	-11.388
学長	-11.3881
非公開	-11.3882
地球と	-11.3882
これも	-11.3883
0:00	-11.3884
カナダの	-11.3885
清掃	-11.3885
何年も	-11.3888
定着	-11.3891
稿	-11.3891
をかける	-11.3892
▁03	-11.3892
関わり	-11.3893
送付	-11.3894
論文が	-11.3894
下にある	-11.3896
レル	-11.3896
だからこそ	-11.3897
キャラ	-11.3897
鋳	-11.39
地球のぐらつき	-11.39
無人	-11.39
Pre	-11.3901
数年前	-11.3901
fucking	-11.3902
を表現する	-11.3904
ジャガイモ	-11.3905
エビ	-11.3905
にさらされ	-11.3907
だったが	-11.3907
▁Hòa	-11.3908
浅	-11.3909
お客様の個人情報を	-11.3909
もたらされ	-11.391
査	-11.391
前回	-11.3911
pon	-11.3912
AirWatch	-11.3912
光沢	-11.3914
があるため	-11.3915
ビュッフェ	-11.3916
歌舞伎	-11.3916
エナメル	-11.3916
170	-11.3917
イギリスの	-11.3918
時までで	-11.3918
あふれ	-11.3918
を認識する	-11.392
TB	-11.3921
黄金の	-11.3922
の痛み	-11.3923
▁Per	-11.3923
の世界市場が	-11.3924
▁at	-11.3926
のコピー	-11.3927
kin	-11.3928
ここの	-11.3928
設立され	-11.3929
駆	-11.393
上げて	-11.3931
タイムリー	-11.3931
ヴァー	-11.3931
PayPal	-11.3932
を正確に	-11.3933
ペリ	-11.3933
到達	-11.3934
すり	-11.3936
楽しんで	-11.3936
エリア情報	-11.3936
テニス	-11.3938
日前に	-11.3938
タグホイヤー	-11.3939
月曜日から金曜日までの	-11.394
僧	-11.394
来ます	-11.394
処置	-11.394
▁365	-11.3943
ライド	-11.3943
俺	-11.3944
悲しみ	-11.3944
お酒	-11.3944
天使	-11.3944
を改善し	-11.3944
お祭り	-11.3946
qui	-11.3946
シチリア	-11.3948
感じられる	-11.3948
尊敬	-11.3948
重視	-11.3948
Ver	-11.3951
使用した	-11.3951
ッサ	-11.3951
▁Video	-11.3951
墨	-11.3952
▁(+34	-11.3952
スコープ	-11.3952
履	-11.3952
罪の	-11.3953
提供します	-11.3955
主催者	-11.3955
劣	-11.3957
list	-11.3958
になるように	-11.396
アウトレット	-11.3961
メタデータ	-11.3962
▁Mode	-11.3962
が有効	-11.3962
450	-11.3963
されるので	-11.3963
猛	-11.3963
ってしまう	-11.3964
ライス	-11.3964
豪州	-11.3964
するべき	-11.3965
欠け	-11.3966
近代的な	-11.3968
引き出し	-11.3969
ゲー	-11.3969
恒星	-11.397
~13:30	-11.3971
変容	-11.3973
テキストメッセージ	-11.3974
法案	-11.3975
ame	-11.3975
----	-11.3975
に変え	-11.3975
Visual	-11.3975
方面	-11.3976
に分類	-11.3976
を歩く	-11.3978
▁›	-11.3981
の有効	-11.3982
ことでした	-11.3982
以外にも	-11.3982
スタジアム	-11.3983
姫	-11.3983
UTC	-11.3985
匠	-11.3986
▁高さ	-11.3987
ean	-11.3988
の背後に	-11.3988
加盟国	-11.3989
LNG	-11.399
を目的とした	-11.399
現れた	-11.3992
▁その際に	-11.3994
Exchange	-11.3996
絡	-11.3998
使え	-11.3998
だけど	-11.3999
することになります	-11.4
コミュニティセントラル	-11.4
▁Explorer	-11.4003
東日本大震災	-11.4003
eu	-11.4003
鑑	-11.4006
▁中国の	-11.4006
から離れて	-11.4006
拭	-11.4007
▁BOX	-11.4011
ann	-11.4011
このプロジェクト	-11.4011
を呼び出す	-11.4012
いるので	-11.4012
ておらず	-11.4012
を描き	-11.4013
の中心地	-11.4014
▁お電話による	-11.4015
を受けている	-11.4015
環境設定	-11.4016
ビス受付は	-11.4019
丁寧に	-11.4019
けて	-11.4022
暑い	-11.4022
時になっており	-11.4023
ることなく	-11.4023
フラワー	-11.4027
共同で	-11.4028
見逃	-11.4029
造形	-11.4031
禁煙	-11.4031
を回避	-11.4033
植民地	-11.4034
に特化した	-11.4035
との連携	-11.4035
コロン	-11.4039
BP	-11.404
レーベル	-11.404
顧客は	-11.404
ユース	-11.4042
耕	-11.4042
р	-11.4042
四季	-11.4043
申し上げます	-11.4044
ガード	-11.4044
必要が	-11.4045
に満ちた	-11.4046
ater	-11.4048
ドール	-11.4048
ume	-11.4049
のアイコン	-11.405
太郎	-11.4052
踏み	-11.4052
Id	-11.4053
が使用されます	-11.4053
続けた	-11.4054
孝	-11.4054
大理石	-11.4054
HC	-11.4057
地球上の	-11.4058
ステークホルダー	-11.4058
に慣れ	-11.4059
%)	-11.406
クローン	-11.4062
晴れ	-11.4062
レセプション	-11.4062
ッと	-11.4063
Cap	-11.4064
色合い	-11.4066
Comp	-11.4066
オープニング	-11.4066
風に	-11.4066
両側	-11.4067
会社名	-11.4069
の地域に	-11.4072
効率化	-11.4074
ウィーク	-11.4074
飛躍	-11.4074
紛失	-11.4074
と述べ	-11.4075
想い	-11.4075
何百	-11.4076
字幕	-11.4076
富士山	-11.4077
慎重	-11.4078
への道	-11.4078
いただいて	-11.4078
エンベロープ	-11.4078
の一員	-11.408
てみる	-11.408
糖鎖	-11.4083
やっている	-11.4083
住む	-11.4084
ora	-11.4085
収納	-11.4085
沙	-11.4086
弘	-11.4086
クオンタイズ	-11.4086
有数の	-11.4087
USA	-11.4087
OFF	-11.4088
または他の	-11.4088
を送信します	-11.4089
シフトの	-11.4091
で作られた	-11.4091
を眺めながら	-11.4091
モバイルアプリ	-11.4092
直接的	-11.4092
合って	-11.4093
と連携し	-11.4094
始まりました	-11.4094
なのでしょうか	-11.4095
下地	-11.4096
しているのか	-11.4096
検定	-11.4097
これからも	-11.4097
などがあります	-11.4097
それについて	-11.4097
ヤー	-11.41
することができません	-11.41
氷の	-11.4101
を見つけるでしょう	-11.4101
不具合	-11.4103
国際協力	-11.4104
▁金	-11.4104
本文	-11.4105
が起こった	-11.4105
時半と	-11.4106
欲求	-11.4106
桂林	-11.4106
お気軽に	-11.4107
のご利用	-11.4108
合同	-11.411
ダンプ	-11.4111
癒	-11.4112
に囲まれた	-11.4112
飲料	-11.4114
受け付け	-11.4114
サンフランシスコ	-11.4114
▁改訂	-11.4114
バレンタインの	-11.4114
▁詳細については	-11.4116
があるか	-11.4117
パリの	-11.4119
住んでいます	-11.4119
を保証し	-11.4119
ラフ	-11.412
Yuki	-11.412
をダウンロードして	-11.4121
掘	-11.4122
選択範囲	-11.4123
を務める	-11.4124
専門家の	-11.4124
巧	-11.4126
推	-11.4126
を整え	-11.4127
は準備ができている	-11.4128
部屋に	-11.4128
Smart	-11.413
集計	-11.413
退屈	-11.4131
整列	-11.4131
詰ま	-11.4131
傾	-11.4132
建造	-11.4132
を使います	-11.4134
遺伝的	-11.4137
ated	-11.4137
をクリア	-11.4138
ico	-11.4139
キス	-11.414
ワイド	-11.4141
使いやすい	-11.4141
につきまして	-11.4142
信者	-11.4142
揺	-11.4142
Estate	-11.4142
ハッシュ	-11.4142
スタック	-11.4143
同じような	-11.4143
出張	-11.4144
ゆったり	-11.4144
TX	-11.4146
溶岩	-11.4146
そうである	-11.4148
の大半	-11.4148
表示されている	-11.4149
モリブデン	-11.415
クリックして	-11.4151
ニウム	-11.4151
の地位	-11.4151
▁ダイアログの	-11.4151
なくなり	-11.4154
鉱物	-11.4154
判決	-11.4157
分からない	-11.4158
恐らく	-11.4158
さず	-11.4159
のなら	-11.416
私自身	-11.4161
を待つ	-11.4161
嬉しい	-11.4162
本規約	-11.4163
の詳細については	-11.4163
クリーニング	-11.4163
神宮	-11.4167
ヵ月	-11.4168
私はまだ	-11.4169
▁グラム	-11.417
札幌	-11.417
闇の双子	-11.417
お祝い	-11.4171
ath	-11.4171
卒業生	-11.4172
にアクセスし	-11.4173
最大値	-11.4173
で構成されています	-11.4174
iPod	-11.4174
以下のような	-11.4175
幼	-11.4176
Reg	-11.4177
することをお勧めします	-11.4183
gn	-11.4183
なしの	-11.4184
の強い	-11.4185
リサーチ	-11.4186
有害	-11.4188
趣味	-11.4188
が実現	-11.4188
激しく	-11.4189
クリプト	-11.4191
を製造	-11.4192
ウォン	-11.4193
配線	-11.4193
に役立ちます	-11.4194
ゾン	-11.4195
っぽ	-11.4197
の入力	-11.4197
時間年中無休のカスタマー	-11.4198
スティング	-11.4199
を正しく	-11.42
1500	-11.4204
▁お届けいたしま	-11.4204
を継続する	-11.4204
メールで	-11.4205
希	-11.4205
カレッジ	-11.4206
WhatsApp	-11.4206
パレット	-11.4207
新年	-11.4207
人間は	-11.4207
が異なる場合	-11.4207
られるように	-11.4208
に行きました	-11.4208
HDL	-11.4209
破損した	-11.421
内閣	-11.421
▁Renderpeople	-11.421
今のところ	-11.4212
フェリー	-11.4213
はまず	-11.4214
できず	-11.4215
と同	-11.4215
遺伝	-11.4218
インストーラ	-11.4219
▁Dictionary	-11.4219
ジュネーブ	-11.4219
に従ってください	-11.4219
創設者	-11.4219
齢	-11.422
aki	-11.4222
レスポンス	-11.4223
ジャズ	-11.4223
を与えること	-11.4225
を復元する	-11.4225
借	-11.4225
溢れ	-11.4226
gmail	-11.4227
ことを確認する	-11.4227
を対象とし	-11.4228
マンション	-11.4229
温かい	-11.4229
ですよね	-11.4231
役割を果たす	-11.4232
▁Hi	-11.4233
▁ISO	-11.4234
急激な	-11.4235
〒	-11.4235
isa	-11.4235
準拠	-11.4236
を図り	-11.4236
願っています	-11.4237
が出来	-11.4238
地震は	-11.4239
斑	-11.4239
充填	-11.4239
享	-11.4239
ディン	-11.424
cam	-11.4242
申し出	-11.4242
一時停止	-11.4244
240	-11.4245
で初めて	-11.4246
LM	-11.4246
を知っています	-11.4247
大学大学院	-11.4248
がない場合	-11.4249
放棄	-11.4249
を獲得した	-11.4249
中古	-11.425
Product	-11.4251
ベッドルーム	-11.4251
pan	-11.4252
せられ	-11.4252
0.4	-11.4253
)[	-11.4253
単純に	-11.4254
でいっぱい	-11.4255
望んでいる	-11.4256
川崎	-11.4256
ペースト	-11.4259
空中	-11.426
タナ	-11.4263
一般の	-11.4265
ICU	-11.4265
スプレー	-11.4265
争	-11.4267
リボン	-11.4267
陰謀	-11.4267
離婚	-11.4268
:15	-11.4268
トレード	-11.4268
方向性	-11.4269
前半	-11.427
戦後	-11.4271
メンバーは	-11.4271
切って	-11.4274
小麦粉	-11.4276
蛍光色	-11.4277
緑色の	-11.4278
地平線	-11.4279
探査	-11.4279
自立	-11.428
ッシ	-11.428
割り	-11.4281
Exp	-11.4283
されるでしょう	-11.4283
またはその他の	-11.4284
多様	-11.4286
原始	-11.429
lip	-11.4291
の丘	-11.4291
が開き	-11.4291
自国の	-11.4291
▁HPJAV	-11.4292
理事	-11.4292
楽しさ	-11.4294
をアップロード	-11.4297
研究成果	-11.4298
稼	-11.4299
サス	-11.4299
直後	-11.43
を促す	-11.4302
ベネズエラ	-11.4304
年期間中に年平均	-11.4304
熟練	-11.4304
父の	-11.4304
が低い	-11.4305
クルー	-11.4306
の違いにより	-11.4307
vers	-11.4307
レゲエ	-11.4308
理想的	-11.4309
邦	-11.4309
接合	-11.4314
黄道	-11.4315
ハノイ	-11.4316
▁Cor	-11.4317
を適用する	-11.4318
エール	-11.4318
誓	-11.4318
を停止する	-11.4319
見つかった	-11.432
いかが	-11.432
自宅で	-11.4321
を着て	-11.4322
富士	-11.4323
欠点	-11.4323
駐車	-11.4324
コスプレポルノ	-11.4324
双方向	-11.4325
ャ	-11.4325
bar	-11.4326
ログファイル	-11.4326
簡単で	-11.4326
した時に	-11.4328
いろいろ	-11.4329
同行	-11.4331
read	-11.4332
▁まずは	-11.4333
ヨーロッパで	-11.4333
▁台湾国立	-11.4333
年の間に	-11.4333
こともある	-11.4335
家電	-11.4335
野生の	-11.4336
学生が	-11.4336
語辞典	-11.4336
に移行	-11.4337
大気圏	-11.4337
被災地	-11.4338
時間の経過とともに拡大	-11.434
移動します	-11.4341
行なわれ	-11.4342
▁空手	-11.4342
▁Is	-11.4344
融	-11.4344
を守り	-11.4344
筒	-11.4344
によるもの	-11.4344
バウ	-11.4344
んだけど	-11.4346
の名前を	-11.4347
階級	-11.4348
鉢	-11.4349
コンテキスト	-11.4349
耐熱ガラス	-11.4349
Base	-11.4351
を供給	-11.4351
対戦	-11.4351
ご提供	-11.4351
優秀	-11.4352
サイクリング	-11.4353
役に立つ	-11.4353
を増やし	-11.4353
gh	-11.4353
▁Photo	-11.4354
説得	-11.4354
アドオン	-11.4355
帰って	-11.4356
取材	-11.4356
当社のサイトをサポートする	-11.4357
がなされ	-11.4357
かい	-11.4361
読んだ	-11.4361
チア	-11.4363
赤道	-11.4364
沖	-11.4365
オススメ	-11.4365
可視化	-11.4365
TION	-11.4366
VM	-11.4366
Mu	-11.4367
法会	-11.4367
に至る	-11.4368
アフガニスタンの	-11.4368
亭	-11.4369
▁Manager	-11.4369
描かれた	-11.437
拡張機能	-11.4373
アドミン	-11.4374
tes	-11.4374
を積極的に	-11.4374
スプリング	-11.4376
Wo	-11.4376
の適用	-11.4376
歌う	-11.4376
滑らか	-11.4377
イランの	-11.4377
信じる	-11.4377
シールド	-11.4377
▁%	-11.4378
水路	-11.4378
強打	-11.4379
に対応しています	-11.438
ola	-11.4381
が施され	-11.4381
から直接拒否できない場合	-11.4381
KB	-11.4382
山頂	-11.4383
園入園オンライン申請ホームページ	-11.4385
ソリッド	-11.4386
rad	-11.4386
徹底的に	-11.4387
を与えられ	-11.4387
ous	-11.4389
全長	-11.4391
自体は	-11.4391
Red	-11.4391
殺人	-11.4393
のパス	-11.4394
遡	-11.4394
の大小	-11.4394
▁一方で	-11.4395
踏	-11.4396
を活かし	-11.4396
火曜日	-11.4398
以後	-11.4398
日本酒	-11.4398
夜間	-11.44
学校で	-11.44
▁(2015	-11.44
▁Kanji	-11.4402
ニッ	-11.4405
建造物	-11.4405
cept	-11.4405
立地	-11.4407
保障	-11.4407
使用可能	-11.4409
put	-11.441
Index	-11.441
Ruby	-11.441
表面の	-11.4411
住居	-11.4411
てくれ	-11.4411
国立公園	-11.4414
パレスチナ	-11.4414
techno	-11.4416
lit	-11.4418
モジュレーション	-11.4418
毎回	-11.442
てみましょう	-11.4422
eri	-11.4422
を大きく	-11.4422
ライダー	-11.4422
魔法	-11.4423
提言	-11.4423
▁Black	-11.4424
▁Lab	-11.4424
有益な	-11.4427
戒	-11.4427
ジャーナリスト	-11.4427
▁Combined	-11.4427
人体	-11.4429
Go	-11.4429
よって	-11.443
セキュア	-11.4431
デバッグ	-11.4431
空軍	-11.4434
フレア	-11.4435
♪	-11.4435
問題がある	-11.4435
UNI	-11.4435
10:00	-11.4435
▁ステンレス鋼	-11.4436
開封	-11.4438
区切り	-11.4438
訪れた	-11.4438
を開設	-11.4439
泰	-11.4439
ジャカルタ	-11.4439
お菓子	-11.4442
hou	-11.4442
搭乗	-11.4442
口実	-11.4443
5.5	-11.4443
最新情報	-11.4443
ミキサー	-11.4443
助成	-11.4445
南部の	-11.4448
san	-11.4448
ナビ	-11.445
セミ	-11.4451
ACE	-11.4452
モダン	-11.4452
への取り組み	-11.4456
1.6	-11.4457
ウー	-11.4457
考察	-11.446
スリー	-11.4462
が少なく	-11.4462
販	-11.4464
評議会	-11.4464
なければならなかった	-11.4465
ウェル	-11.4467
リチウム	-11.4468
Na	-11.4469
残った	-11.4469
local	-11.447
バナー	-11.4472
の不足	-11.4473
復旧	-11.4475
Unity	-11.4475
ハング	-11.4477
ご確認ください	-11.4479
続行	-11.448
を定め	-11.4482
直感	-11.4483
iko	-11.4484
取締役会	-11.4484
インパクト	-11.4485
センス	-11.4485
小包	-11.4485
yl	-11.4486
最新バージョン	-11.4487
彼と	-11.4487
パケット	-11.4487
材質	-11.4487
動力	-11.4489
マッチング	-11.449
Script	-11.4493
コンピューティング	-11.4493
長方形	-11.4493
特性上	-11.4494
Ha	-11.4495
が発生した	-11.4496
^	-11.4501
風光明媚な	-11.4501
准教授	-11.4501
整数	-11.4501
Sun	-11.4501
ことができませんでした	-11.4502
打撃	-11.4502
神聖な	-11.4503
ガール	-11.4503
外科	-11.4504
して以来	-11.4504
▁One	-11.4504
配管	-11.4505
透	-11.4505
実用的な	-11.4507
▁Office	-11.4508
であろうか	-11.4508
カウンタ	-11.4509
風速情報	-11.4509
静かで	-11.451
▁プライバシーポリシー	-11.4511
に値する	-11.4513
無理	-11.4514
ようやく	-11.4514
▁DT	-11.4515
LY	-11.4515
誘致	-11.4516
こちらから	-11.4516
を持つこと	-11.4516
準備ができて	-11.4517
に移動し	-11.452
削	-11.4523
月額	-11.4525
*1	-11.4526
自律	-11.4527
修士	-11.4527
チョウ	-11.4527
▁not	-11.4528
断片	-11.4528
方言	-11.4531
来日	-11.4532
上場	-11.4532
全面	-11.4534
くださった	-11.4534
の先端	-11.4534
結構	-11.4535
を考えると	-11.4535
シニア	-11.4536
cur	-11.4536
罪を	-11.4536
を定義する	-11.4537
北朝鮮の	-11.4538
ima	-11.4539
ゼン	-11.4539
非営利	-11.4543
バックグラウンド	-11.4544
建築家	-11.4544
殻	-11.4544
Chang	-11.4546
シミュレータ	-11.4547
ump	-11.4547
世界中	-11.4549
抗体	-11.455
問題がありますか	-11.4551
仲介	-11.4551
oh	-11.4552
ku	-11.4553
バース	-11.4553
行うことができます	-11.4554
意外	-11.4554
共感	-11.4556
たいです	-11.4557
に提供する	-11.4558
と同じくらい	-11.4558
はいつも	-11.456
をドラッグ	-11.456
マク	-11.456
豊かに	-11.4562
を目指します	-11.4562
ars	-11.4563
座っている	-11.4563
アスファルト	-11.4564
薄く	-11.4566
ダース	-11.4566
apt	-11.4567
得点	-11.4567
ではありませんでした	-11.4567
シベリア	-11.4568
▁11.	-11.4569
山形	-11.457
総領事	-11.457
rb	-11.4571
一生	-11.4572
edit	-11.4574
仰	-11.4575
ハリー	-11.4577
▁Settings	-11.458
Klocwork	-11.458
ツアーガイド	-11.4581
XL	-11.4582
アーム	-11.4585
呈	-11.4585
を作ること	-11.4586
FAQ	-11.4588
の結果として	-11.459
▁JVN	-11.4591
領域で	-11.4591
テク	-11.4592
場合を除き	-11.4594
エネルギ	-11.4594
していない場合	-11.4594
発展させ	-11.4595
の滝	-11.4598
Out	-11.4599
独自	-11.4599
唱え	-11.46
ピックアップ	-11.4601
ping	-11.4601
▁12.	-11.4602
を指し	-11.4603
を見ること	-11.4603
俗	-11.4604
PB	-11.4604
百貨店の	-11.4605
LINESTORE	-11.4605
ハーフ	-11.4606
残っています	-11.4608
▁Design	-11.4609
インテリジェント	-11.461
という考え	-11.461
ご要望	-11.461
看板	-11.461
対象の	-11.4612
教えてくれ	-11.4612
make	-11.4614
を実現し	-11.4614
ハリ	-11.4614
幻想	-11.4614
仮説	-11.4615
Man	-11.4615
厳選	-11.4616
▁Audio	-11.4617
症候群	-11.4618
WO	-11.462
省略	-11.462
ねそ	-11.462
の隣に	-11.4622
比べ	-11.4622
inh	-11.4623
半径	-11.4625
ada	-11.4628
hot	-11.4629
を低減	-11.4629
警備	-11.4631
nm	-11.4631
標準化	-11.4632
に反映	-11.4633
不能	-11.4634
服用	-11.4634
拝	-11.4634
ピザ	-11.4635
Or	-11.4635
ヒーロー	-11.4636
表示します	-11.4637
撮り	-11.4638
おう	-11.4639
▁PRP	-11.4639
たいてい	-11.4642
簡	-11.4642
分ける	-11.4643
を自由に	-11.4644
太陽から	-11.4646
それも	-11.4646
▁この情報は	-11.4648
メイク	-11.465
目の前に	-11.465
増強	-11.465
定め	-11.4652
水曜日	-11.4652
現行の	-11.4652
(0	-11.4654
非常に高い	-11.4655
試料	-11.4655
並べ替え	-11.4656
たい場合は	-11.4657
を含めて	-11.4658
人たちは	-11.466
微細	-11.4661
▁Class	-11.4662
アレンジ	-11.4662
の影響を受け	-11.4662
銘	-11.4664
128	-11.4664
AdRoll	-11.4664
同志	-11.4666
グーグル	-11.4669
ロマンチックな	-11.4669
を導入し	-11.4669
それ以外の	-11.467
北部の	-11.467
270	-11.467
中世	-11.4672
支部	-11.4672
おこなう	-11.4673
▁neso	-11.4673
取り入れ	-11.4674
決まり	-11.4674
van	-11.4675
の紹介	-11.4677
峨眉山	-11.4677
í	-11.4677
忠実	-11.4677
フォル	-11.4678
お湯	-11.4678
負傷	-11.4679
テロリスト	-11.468
サンプリング	-11.4681
隠蔽	-11.4681
-30	-11.4682
▁イギリスの	-11.4684
スムーズに	-11.4687
High	-11.4689
不法	-11.469
ALL	-11.4691
Market	-11.4691
チェックボックス	-11.4691
本物	-11.4693
を実現します	-11.4694
ポータブル	-11.4694
家庭用	-11.4694
管理システム	-11.4696
にしても	-11.4697
の中にある	-11.4697
についての情報	-11.4697
設定を変更	-11.4698
プッシーと彼女の	-11.4698
の残りの部分	-11.47
住んでいる	-11.47
シューズ	-11.4701
米国と	-11.4701
CRM	-11.4702
歩道	-11.4702
▁Fl	-11.4703
科目	-11.4703
変わって	-11.4703
購入する	-11.4705
lect	-11.4706
▁Check	-11.4707
▁有名観光地	-11.4707
に直面し	-11.4707
バード	-11.4714
under	-11.4716
をご紹介します	-11.4719
が続く	-11.4719
掃除	-11.4724
を含み	-11.4724
エラーメッセージ	-11.4725
が容易	-11.4725
ことを明らかにした	-11.4726
毒性	-11.4726
壮	-11.4727
培	-11.4727
316	-11.4728
数時間	-11.4728
していなかった	-11.4729
託	-11.4731
事業所	-11.4731
Alt	-11.4734
消費量	-11.4734
湿度	-11.4735
養成	-11.4735
late	-11.4736
洗濯	-11.4736
広々とした	-11.4736
▁衛星地図	-11.4737
自慢	-11.4741
を止め	-11.4742
を見つけるために	-11.4743
渋	-11.4744
8.1	-11.4746
手がけ	-11.4746
が来る	-11.4746
空き	-11.4746
ご理解	-11.4747
メス	-11.4748
分野において	-11.4751
を持っていること	-11.4751
中部	-11.4753
AGE	-11.4754
▁Pal	-11.4755
を増加させ	-11.4756
過ごした	-11.4757
役立ち	-11.4757
示した	-11.4759
信念	-11.476
ria	-11.4761
使用しないでください	-11.4761
が見える	-11.4761
講演会	-11.4762
user	-11.4765
▁POMWA	-11.4766
せん	-11.477
パンツ	-11.4772
井戸	-11.4772
mark	-11.4772
確実	-11.4773
ナウ	-11.4774
平均最高温度は	-11.4774
eat	-11.4776
夜明け	-11.4776
Select	-11.4776
Gr	-11.4777
ロット	-11.4777
独特な	-11.4778
かかって	-11.4778
設定します	-11.4778
インフラストラクチャ	-11.4779
か分からない	-11.4781
鶴	-11.4783
▁Ja	-11.4783
化学的	-11.4784
レオ	-11.4786
tle	-11.4787
個人情報の保護	-11.4788
登録商標	-11.4789
アイドル	-11.4793
待つ	-11.4794
を行うために	-11.4794
両方とも	-11.4795
青少年	-11.4795
ボディガード	-11.4795
解体	-11.4796
懇	-11.4796
tory	-11.4797
水面	-11.4799
の面で	-11.48
操縦	-11.4801
**	-11.4802
の横に	-11.4802
コピー時計	-11.4803
CHI	-11.4805
スローガン	-11.4806
脂	-11.4807
取扱い	-11.4807
一貫して	-11.4808
セルフ	-11.4808
されるため	-11.4812
ことが判明	-11.4813
ノール	-11.4813
トレース	-11.4813
シャトル	-11.4814
の運営	-11.4815
ロッテホテル	-11.4816
茶色	-11.4816
▁今年の	-11.4816
精神的	-11.4816
シルエット	-11.4818
づけられ	-11.4818
わけで	-11.4818
もありました	-11.4818
125	-11.4818
wer	-11.4819
発作	-11.482
確か	-11.4821
Bluetooth	-11.4826
▁Camp	-11.4827
はじめて	-11.4828
神秘的な	-11.483
できれば	-11.4832
殺害	-11.4832
彫	-11.4832
過ぎる	-11.4833
アダム	-11.4834
Cu	-11.4835
▁キッチンで創造的なシチリア	-11.4835
PID	-11.4837
パンドラ	-11.4838
どり	-11.4838
1987	-11.4839
均等	-11.484
に依存して	-11.4843
を再現	-11.4844
設定できます	-11.4844
が上記	-11.4844
右側に	-11.4845
ムスリム	-11.4847
つなぐ	-11.4848
を達成する	-11.4848
取得します	-11.4848
elle	-11.4848
チェンジ	-11.4848
偽の	-11.4848
ゼータ達は	-11.485
飲む	-11.485
置く	-11.4854
ことに同意します	-11.4857
濃い	-11.486
撤退	-11.4861
牧師	-11.4862
を越える	-11.4862
誤り	-11.4862
行われています	-11.4863
LG	-11.4865
Options	-11.4865
▁fotologue	-11.4865
クセ	-11.4866
したところ	-11.4867
飲んで	-11.4868
した際に	-11.4868
起こりました	-11.4868
アワード	-11.4868
預	-11.4869
梁	-11.4869
ニューマドリッド	-11.4869
選択する	-11.487
▁MISHOP	-11.487
PAR	-11.487
は基本的に	-11.4871
ボルト	-11.4873
鮮	-11.4874
冷凍	-11.4874
太鼓	-11.4874
世帯	-11.4875
もど	-11.4875
理由です	-11.4876
入り口	-11.4877
入社	-11.4877
現代的な	-11.4877
摩耗	-11.4877
TER	-11.4878
気軽に	-11.4878
付属品	-11.4879
ョン	-11.4879
を救う	-11.4879
ようになっています	-11.488
断層	-11.488
PF	-11.4881
訪日	-11.4882
モザイク	-11.4882
麓	-11.4882
1988	-11.4884
付着	-11.4884
明るさ	-11.4887
襲撃	-11.4887
を再生する	-11.4887
上がった	-11.4888
アイスランド	-11.4888
誤差	-11.4888
長期間	-11.4888
していただく	-11.4889
年の間	-11.4889
占	-11.489
クールな	-11.4894
を配置する	-11.4895
帯域	-11.4896
ハンドバッグ	-11.4897
内外	-11.4897
頂いた	-11.4898
を返します	-11.4898
を受けました	-11.4899
にサービスを提供します	-11.4899
するかどうか	-11.49
割れ	-11.4902
まえ	-11.4902
ドライブに	-11.4903
-19	-11.4904
人の観察	-11.4904
どれくらい	-11.4904
論争	-11.4904
が付いている	-11.4904
40%	-11.4904
に適し	-11.4906
の維持	-11.4908
を描いた	-11.4908
才	-11.491
カトリック	-11.491
かもしれ	-11.4911
選んだ	-11.4912
世界的	-11.4913
施策	-11.4913
厳しく	-11.4913
が難しい	-11.4916
影響を受ける	-11.492
Back	-11.492
が開催され	-11.492
を考慮し	-11.4921
んですよ	-11.4921
易	-11.4922
学位	-11.4923
Artec	-11.4923
太陽光	-11.4924
国会	-11.4925
有限公司	-11.4925
が可能になります	-11.4926
災	-11.4927
▁Ste	-11.4929
天然ガス	-11.4929
尋ねる	-11.493
空腹	-11.493
往	-11.4934
卓越した	-11.4934
アピール	-11.4934
の近くの	-11.4934
パーペチュアル	-11.4934
くなります	-11.4935
旋回	-11.4939
ブート	-11.4939
Off	-11.494
のバックアップ	-11.4941
あたりの	-11.4944
ではないか	-11.4946
ベンチャー	-11.4947
スルー	-11.4947
を検索する	-11.4951
ポリエステル	-11.4951
▁Zen	-11.4953
腐食	-11.4954
掲げ	-11.4954
に残る	-11.4956
を妨げる	-11.4959
色彩	-11.496
エンターテインメント	-11.496
問い	-11.4963
にインストール	-11.4963
スナック	-11.4964
と呼ばれています	-11.4966
マージ	-11.4967
ane	-11.4968
気づいた	-11.4969
路地	-11.4969
ことができるか	-11.4969
開け	-11.4969
献	-11.497
年目	-11.4972
を愛する	-11.4972
今週掲載される	-11.4973
勧告	-11.4973
王子	-11.4974
最小限	-11.4975
個人保護	-11.4975
発電所	-11.4976
すべきです	-11.4976
することができました	-11.4976
宋	-11.4977
稀	-11.4978
人や会社	-11.4978
を目的に	-11.4983
のだが	-11.4984
個人の保護	-11.4984
どこから	-11.4986
サーキット	-11.4986
使い方	-11.4986
ので予めご了承ください	-11.4986
されているので	-11.4987
方法があります	-11.4989
保護が含まれます	-11.4991
出します	-11.4992
立てる	-11.4993
名誉毀損	-11.4995
悪意のある	-11.4995
抽象	-11.4995
成績と順位	-11.4995
会議で	-11.4996
小麦	-11.4998
豪華	-11.4998
並列	-11.5001
知っているように	-11.5001
ボイス	-11.5002
といえば	-11.5002
▁Model	-11.5004
を見つけたいと思っています	-11.5004
このディレクトリにあ	-11.5004
敗北	-11.5006
閉じ込め	-11.5009
いくつ	-11.5009
用いられる	-11.5011
最も高い	-11.5014
▁小さな	-11.5015
met	-11.5015
衆	-11.5015
▁DivX	-11.5016
還	-11.5017
マラリア	-11.5022
デフォルト値	-11.5023
を生成します	-11.5024
右クリック	-11.5025
柔	-11.5025
澤	-11.5026
外国人向け賃貸	-11.5026
遮断	-11.5026
kr	-11.5027
山岳	-11.5028
構文	-11.5029
不快	-11.5029
含め	-11.503
oi	-11.503
広がって	-11.503
サイトでは	-11.5031
▁このウェブサイト	-11.5032
代理人	-11.5033
ドット	-11.5037
における調査サービスと保護	-11.5039
または建物の	-11.5039
無数の	-11.5039
長距離	-11.5039
悩み	-11.5039
日系	-11.5041
重要性	-11.5042
覧	-11.5043
私立探偵や	-11.5044
虚	-11.5045
離脱	-11.5045
銀座	-11.5046
たくない	-11.5046
1979	-11.5046
nic	-11.5046
をご利用いただけます	-11.5046
継ぎ	-11.5047
も部分的な	-11.5048
どうすれば	-11.5049
地域における	-11.5049
▁Ne	-11.5049
占め	-11.5051
で働く	-11.5051
Ctrl	-11.5052
あん	-11.5052
ニュースリリース	-11.5053
賢	-11.5053
▁商品説明	-11.5053
自分に	-11.5056
サービスが必要です	-11.5057
HR	-11.5059
5°	-11.506
刑事事件を明らかにする	-11.5061
▁具体的には	-11.5061
は百貨店に	-11.5061
するものです	-11.5062
[...]
